#version: 0.2
Ġ Ġ
č Ċ
ĠĠ ĠĠ
ĠĠ Ġ
t h
o n
s e
i n
r e
Ġ a
t e
ĠĠĠĠ ĠĠĠ
s t
l e
o r
d e
` `
Ġ i
Ġ th
m e
" "
Ġ c
Ġ f
a l
Ġth e
e r
t i
Ġ =
se l
sel f
a r
Ġ t
Ġ re
e n
u r
Ġ o
Ġ p
Ġ b
ĠĠĠĠ ĠĠĠĠĠĠĠ
in g
Ġ s
Ġ n
a t
Ġ w
Ġ in
a n
Ġ e
ti on
u n
"" "
c e
`` `
u e
a s
y th
Ġ self
yth on
r o
m p
Ġi s
de f
h e
t ur
a me
tur n
g e
) :
Ġt o
Ġi f
n t
Ġ """
ĠĠĠĠ ĠĠĠĠ
Ġa n
Ġ m
l i
e c
d i
l o
r i
on e
r a
a d
c o
Ġre turn
u t
u l
Ġ st
c k
o t
( )
te r
s i
N one
Ġ #
p ython
Ġf or
i le
Ġ '
Ġo f
a te
Ġ (
Ġ T
e s
Ġ v
x t
£ o
Ã £o
Ã §
i s
Ã§ Ã£o
Ġ P
. .
c h
mp le
Ġw i
se r
Ġan d
Ġ "
Ġ u
me nt
Ġ None
_ _
Ġ `
c t
e d
al ue
n ame
p a
Ġ d
Ġc o
Ġb e
Ġf un
r or
Ġe x
Ġn ot
ge t
l in
te st
p p
l a
Ġc on
de r
p e
i t
Ġ -
m a
Ġ se
ĠP ython
s s
o d
Ġ h
. _
b le
k e
p tion
a m
f i
te xt
ul t
Ġ _
q u
v er
l y
l as
an d
v e
ĠĠĠĠ ĠĠĠĠĠĠĠĠĠĠĠ
Ġ or
Ġ def
Ġa s
Ġst r
l l
q ue
Ġwi th
R e
> >
y pe
Ġ di
' ,
te d
Ġfun Ã§Ã£o
Ġ I
' )
i se
g s
si on
s p
r ror
E rror
Ġc h
ec t
u p
b j
Ġ me
ro m
c tion
p ar
Ġ de
Ġ en
Ġv alue
i d
Ġ g
c on
( '
st r
b a
Ġth at
ser t
Ġp a
Ġf ile
o l
las s
i l
pa th
at a
Ġ A
t o
a tion
" ,
Ġ S
t s
.. .
s c
e x
" )
Ġn ame
al l
se d
Ġ ra
h o
f ile
( "
a der
co de
Ġ *
Ġ C
b u
a ult
Ġb y
r ue
Ġn e
ke y
or t
a ge
f o
Ġw h
Ġ 1
Ġ- >
Ġ F
d o
li st
Ġa r
v en
lin e
in t
f or
ĠĠĠĠĠĠĠĠ ĠĠĠĠĠĠĠĠ
Ġ lo
Ġ test
bj ect
. """
Ġ on
Ġp ro
ec i
Ġf rom
Ġ :
Ġs u
Ġi t
p t
se t
Ġm a
Ġp ar
e t
th er
Ġ ``
v i
Ġra ise
ti me
e l
Ġ r
u m
u le
s o
le n
t r
t a
a se
z e
) )
an ce
Ġ ...
` .
Re turn
en d
y s
ĠT he
c he
i g
te m
Ġ 0
p o
n o
Ġd o
u re
Ġth is
Ġ he
as sert
f f
al se
de d
Ġ [
a ble
Ġo bject
l se
o ut
v a
Ġe lse
Ġ +
Ġex ce
d ing
Ġa re
Ġs o
Ġ D
c lass
te s
m o
th od
que st
ar gs
re ad
>> >
m at
od ule
me n
a pp
Ġ un
p re
o k
er ror
) ,
Ġpa th
Ġ= =
st ance
re nt
Ġt r
Ġ E
u ment
d b
t y
c ri
i x
0 0
e st
p ut
Ġre s
C o
m al
mple ment
Ġstr ing
Ġ get
ĠI f
Ġse t
Ġe m
u s
Ġc an
mple men
Ġm o
o p
p ro
Ġ que
g er
Ġi mplement
Ġwi ll
Ġ list
Ġa t
ad a
Ġar g
I mplemen
par am
Ġs p
re d
m m
Ġv er
sc re
mple te
Ġn o
h is
ri e
Ġo ption
v alue
ul d
and le
Ġa l
Ġ y
es cri
an ge
Ġu ma
u st
re ct
D escri
Ġp o
Ġ O
ur l
am ada
Ġch amada
C rie
i p
qu i
qu al
E scre
Escre va
Descri Ã§Ã£o
Ġ key
lo w
Ġ {
) .
C on
Implemen te
t ype
or d
ur ce
Ġtr y
ce ss
re s
di r
b er
Ġdef ault
i r
Ġp re
Ġd ata
Ġ %
Ġ 2
Ġ line
Ġa d
Ġ U
c al
ri bu
un d
h t
Ġres ult
Ġne w
Ġ <
te n
i st
Ġme thod
Ġfun ction
or y
a Ã§Ã£o
Ġ text
Ġs ho
re ate
Ġver sion
c a
Ġ __
mp ort
Ġexce pt
Co mplete
Ġ N
te nt
ix o
ba ixo
Ġa baixo
Ġimplement aÃ§Ã£o
ĠĠĠĠĠĠĠĠ ĠĠĠĠĠĠĠĠĠĠĠ
Ġ W
ss age
Ġarg ument
Ġw e
: `
ba ck
Ġ |
* *
at or
on se
l s
Ġb o
Ġt ype
Ġo s
le d
k w
. __
Ġ >>>
ar y
s u
ĠT rue
Ġ M
mm and
p y
Ġh as
ĠT his
v al
i ven
Ġ )
T rue
ar t
Ġu se
E qual
lin es
w n
Ġ R
T est
Ġp as
I n
up le
at ch
in fo
f un
ĠF alse
co l
Ġa pp
p er
s ing
Ġ len
k en
b o
Ġex p
' s
app end
he ck
__ (
fi x
Ġhe ader
Ġs ys
Ġc all
a c
Ġ time
d ate
en t
( ):
Ġsp eci
ur rent
Ġ error
Ġ Return
Ġg iven
fi g
Ġu sed
Ġsho uld
d s
assert Equal
Ġb u
i ch
um ber
re ss
c ation
i ze
at tr
in it
Ġ V
] ,
ter s
Ġwh en
a k
d ata
Ġ B
Ġ le
ad d
Ġa ll
co ding
eci mal
i th
ce s
n e
a ck
lin k
si ze
Ġo ther
] )
w a
r ame
a b
r on
in d
ti ve
Ġsu b
i el
- -
Ġre quest
n ing
Ġc al
ec ted
il d
i z
Ġm odule
Ġre ad
Ġco de
r int
ra ce
str ing
Ġi mport
p en
te ra
s g
ri te
Ġwh ich
in al
sp onse
a ve
in stance
Ġco mp
" :
ver sion
t le
se s
y le
Ġo ut
Ġin t
Ġcon text
ate d
Ġc lass
Ġch ar
ce ption
: :
' t
t ribu
li b
ta in
Ġme ssage
m odule
te mp
c i
p la
de x
Ġc a
ven t
vi ron
Ġ x
Ġ la
for m
Ġ L
he ader
Ġ 3
Ġ ro
lo ck
h a
Ġin stance
li t
Ġ H
F alse
Ġco l
andle r
def ault
ĠE x
as k
f rom
re n
Ġa c
ma in
Ġad d
ser ver
Ġspeci fi
en er
re am
g th
or k
la ble
Ġn umber
kw args
ok i
Ġdi rect
Ġc urrent
Ġ one
Ġ >
o s
Ġb ut
so urce
T ype
Ġ* *
alue Error
o in
Ġlo g
i c
Ġwi d
Ġon ly
ĠĠĠĠ Ġ
Ġr un
a mple
O N
Ġi tem
ter n
t in
Ġas sert
w ith
ar i
ul ti
Ġc heck
Ġt uple
Ġis instance
Ġ z
j oin
lo se
] :
l at
Ġby tes
li f
Ġh o
iel d
ff er
ĠI n
b y
Ġm ust
ro up
pla ce
xt ra
u th
Ġbo ol
Ġ url
p i
ir st
t p
Ġe lif
Ġen d
' :
Ġ l
Ġw he
Ġan y
n ot
o ption
Ġc las
Ġu ser
t ing
Ġpas s
fun c
f y
ck et
re ak
ar ning
Ġfor mat
li c
c all
Ġexce ption
E R
Ġ G
ck age
w ord
Ġoption al
Ġcon tain
f e
Ġsu pp
T he
Ġdo es
Ġf irst
qui re
ar d
for mat
Ġmo de
e f
su b
ĠV alueError
val id
un t
Ġu p
n y
Ġh ave
Ġvalue s
o m
v ed
Ġ Re
Ġf o
Ġ` _
I N
= "
do c
si g
= '
') ,
a ise
o u
ment s
c l
th e
or ted
E x
Ġc reate
c or
Ġ li
si tion
de n
con text
Ġst art
ti al
p db
in e
i tem
a il
f ter
w id
Ġma y
ter m
ve l
Ġ( '
ec tion
Ġpar ame
ĠĠĠĠ ĠĠ
Ġma x
ex p
c ur
Ġco mmand
Ġcal led
Ġclas se
Ġc li
ĠC on
Ġw as
Ġreturn ed
u se
() .
tribu te
â Ķ
pa ce
u ct
so le
Ġargument s
ch ar
Ġfile name
l p
lo ad
la y
in do
w rite
oki e
mp ty
tera ble
indo w
re quest
Ġdo c
Ġre sponse
[ "
sp lit
re turn
y n
ur tle
Ġar gs
a ct
Ġ j
st ate
lat form
er r
Ġ lines
Ġp rint
ra p
co mp
P db
Ġ[ ]
x y
Con text
fo re
n er
âĶ Ģ
Ġdirect ory
Ġc ase
T P
S T
a g
se nt
Ġso urce
n d
Ġen coding
Ġm atch
lo g
Ġ server
v o
') )
di ct
ri p
tr y
Ġchar ac
Ġexp ected
qu en
Ġo ver
s ys
o bj
Ġto ken
' ]
n ection
D ecimal
c li
ar get
Ġv al
/ /
Ġ' '
ul l
Ġst yle
Ġname s
le ase
[ '
me thod
Ġin to
g ht
de nt
mo ve
Ġdi ct
i code
Ġ 4
Ġu sing
Ġspecifi ed
c re
an t
âĶĢ âĶĢ
sc ri
co mmand
Ġreturn s
Ġdi st
col or
Ġcon fig
an s
Ġcon tent
it s
Ġa b
ĠD ecimal
lo b
p r
s te
Ġre g
lo at
pro cess
R E
do ut
aise s
o te
ar g
no re
ĠReturn s
ar ch
Ġo pen
M E
file name
Ġth read
ption al
Ġthe n
ti l
ange d
u al
s ure
bu g
1 0
un k
Ġs ame
or mal
w ise
e e
ĠT est
Ġb ack
ca che
ribu tion
r un
Ġy ield
Ġ !
ef ault
c ate
e xt
ĠĠĠĠĠĠĠĠĠĠĠĠĠĠĠĠ ĠĠĠĠĠĠĠĠ
Ġout put
Ġs ize
wid th
Ġc or
a ch
con fig
Ġ+ =
Ġi g
Ġ qu
() )
Ġ! =
t race
di rect
Ġoption s
Ġe vent
c ls
ig n
f rame
ra pp
Ġ k
Ġb reak
Ġm sg
I f
L E
to ken
u te
T TP
T E
st art
Ġv ari
Ġal low
S I
co m
Ġ @
() ,
ten ded
a p
che ck
O R
Ġst ream
Ġb ase
Ġex ist
P ar
cl u
Ġn on
fo o
ad ata
u ser
R L
Ġi ts
y p
ne w
ex ception
D i
Ġf ol
re e
tin ue
Ġ- -
" ]
Ġwh ile
t ro
** **
`` .
Ġc ls
a th
Ġst ate
sig n
c lose
in ed
ho st
ĠD efault
e w
v ar
ar k
Ġ /
Ġpro vi
ut f
Ġen viron
po int
R aises
i m
ma tion
g h
i ter
Ġf rame
Ġt urtle
Ġin ter
a y
ma p
f t
ĠĠĠĠĠĠĠĠ ĠĠĠĠĠĠĠĠĠĠĠĠĠĠĠ
Ġla st
me ssage
ig h
fun ction
Ġpo s
in ter
Ġpro cess
Ġf la
lin en
l ate
len gth
Ġa fter
par se
con tent
Ġ ..
F ile
Ġe mpty
ab c
str uct
ig ht
U n
m d
Ġho st
Ġne xt
u me
w ork
it y
a ti
Ġcol or
ch anged
a ger
ver t
le ct
T his
m it
E n
r gs
sp lay
di st
A ny
Ġm an
wa it
u b
t adata
o g
i ll
h as
le an
tern al
quen ce
Ġe xtra
Ġs ign
Ġthe re
pre fix
Ġm ulti
f la
Ġre c
Ġp er
[ :
Ġr ange
ff e
Ġpre fix
o ther
o bject
ĠT ype
st yle
Ġex ec
Ġwid get
Ġpa ckage
op en
linen o
R es
ro ot
Ġfo und
Ġerror s
mp t
Ġpas sed
Ġth an
Ġy ou
mo de
h en
ma x
lob al
Ġwid th
quire ment
ro w
Ġin dex
Ġh t
y m
Ġin put
i tial
in dex
Ġbe fore
en code
Return s
ust om
Ġca che
k ip
in put
ut o
ĠU RL
Ġtime out
m sg
me th
ro und
assert Raises
ĠDefault s
res ult
Ġ 8
sp ec
ste ad
b ar
K e
Ġb lock
va i
ure s
tro l
for mation
Ġparame ter
Ġro ot
der r
re g
i ve
Ġfile s
Ġin st
vai lable
che s
ĠO ptional
ĠU n
M A
s on
Ġ temp
re sponse
name s
Ġg ener
m l
di date
Ġv i
Ġpa rent
le vel
Ġo per
Ġre n
Ġh andle
by tes
Ġbu ffer
Ġe le
Ġso cket
en viron
um n
Ġi ter
' .
en coding
Ġw ork
de code
header s
yn c
Ġ ""
po s
" .
E T
w o
Ġt race
G et
: //
T I
ge st
at ing
o us
Ġme m
si ble
' \
ĠO S
ĠEx tended
od y
l d
mat ch
t on
le ar
I O
re place
w e
a re
te ger
ĠC o
i es
Ġval id
g ing
Ġpar ser
Ġvari able
ĠExtended Context
E N
p rint
g roup
g a
i fy
ba se
f d
Ġs h
de ra
Ġpo sition
i te
doc test
i me
out put
on g
Ġhe lp
r c
ction ary
lo cal
p onse
Ġheader s
Ġp db
co unt
Ġt arget
Ġat tribute
Ġof f
ĠF or
read y
dera ble
w in
ĠType Error
N ame
g ment
Ġ link
Ġin stead
li cation
a ke
bu ffer
er s
al led
Ġt ask
Ġh andler
f ind
ut able
option s
Ġf inal
( _
Ġcon tinue
t k
st rip
Ġin formation
c an
Ġ err
p s
pre sent
Ġadd ress
Ke y
Ġig nore
Ġor ig
in st
Ġlen gth
Ġ 5
d u
m in
c reate
i ther
to col
Ġht tp
Ġre mo
b in
di tion
i on
Ġz ip
Ġwhe re
Ġfol low
Ġversion changed
s h
Ġmo re
ex c
arning s
re lease
Ġobject s
Ġco m
Ġex c
p ort
Ġo bj
Ġe ach
f ul
b e
Ġm in
Ġcharac ters
Ġal so
1 2
s age
st dout
o f
er o
F F
de s
Ġma ke
Ġ{ }
Ġor der
ĠS ee
co py
p le
li ke
Ġcon nection
Ġc t
Re quest
' ):
s or
ing le
p as
is ter
D E
Ġt yp
ne xt
sp eci
ex ec
no wn
Ġwith out
. "
Ġa vailable
tribu tes
re f
Ġf ail
P ro
`` ,
9 9
Ġct x
Ġraise d
indow s
Ġne ed
Ġ'' '
Ġre present
cre en
a fe
ut ure
up er
Ġbu il
wa ys
Ġt rue
ad ded
do wn
Ġt wo
Ġre qui
pa ckage
ten sion
Ġs ingle
Ġbe en
Ġex ample
Ġ X
Ġso me
iz ed
iz er
s sion
Ġstring s
Ġli ke
ti fi
re pr
Ġ ti
Ġlo cal
s ue
t uple
Ġ .
le r
Ġf loat
Ġw ri
Ġin teger
Ġch ange
Ġlog ger
si de
exp ected
Ġal ready
ht tp
an g
Ġco okie
ĠI t
Ġw a
a x
Ġco mple
e ar
Ġdi ctionary
ar ts
code d
Ġo p
at us
Ġdi splay
Ġde scri
Ġin di
S L
igh li
( [
er y
Ġimplement ation
Ġin clu
S et
to p
Ġc ur
Ġother wise
Ġse con
ĠI P
ma ge
fe ren
I P
us h
re q
th read
(' -
Ġw rite
Ġ ]
item s
ym link
T H
Ġ J
-- --
Ġdist ribution
ec a
Ġlo op
C O
] >
Ġe ven
Ġpar se
Ġitem s
re c
at tern
Ġch ild
Ġenviron ment
Ġun der
cli ck
h andler
( *
s able
in ts
L o
up date
ec o
Ġco py
Ġi d
Ġcall back
st ream
Ġw rapp
Ġcli ent
Ġthe y
z ip
Ġ term
6 4
Ġg roup
A D
Ġse e
F C
Ġb in
" {
fi ed
e p
Ġfun c
di t
is sing
Ġi terable
Ġp ort
cal ly
Ex ception
ex ist
d d
e vent
m od
Ġby te
h andle
Ġa ct
Ġt ra
Ġs che
bo x
Ġst ack
add ress
R O
ĠH TTP
he s
Ġversion added
\ \
c ated
Ġre place
Ġsys tem
Ġen try
Ġrec ord
on ly
A L
i f
Ġget attr
ul ar
Di ct
P ath
s ha
Ġm ark
Ġprovi ded
er t
Ġpar am
o ff
b el
s ho
f fix
ir s
ty p
value s
Ġsupp ort
pp ing
i li
ce pt
Ġname d
Ġcontain ing
Ġmethod s
he lp
ty le
bu ild
le ction
Ġp ad
ate s
and ard
time out
le te
ma ke
Ġse quence
Ġdi ffe
Ġ> =
( (
A R
ut ton
Ġme tadata
Ġs uper
key s
ile d
Ġ* ,
ance l
Ġparame ters
ĠOS Error
Ġc lose
Ġp y
Ġde cor
Ġres ol
N ot
S t
en v
Ġa uth
Ġe ither
Ġact ual
Ġf ind
ta g
pp ed
ra w
Ġwhe ther
p latform
a st
âĶĢâĶĢ âĶĢâĶĢ
pa ck
] .
d a
w ar
er sion
ex it
eca use
P ython
[ -
a uth
ri ght
Ġoff set
M L
c urrent
Ġg lobal
g round
Ġf il
Ġt ag
at ches
module s
3 2
o und
as ter
Ġde bug
Ġs ha
ĠĠĠĠĠĠĠĠ Ġ
ta ble
pas s
error s
Ġin fo
ĠA rgs
ra ise
Ġch unk
Ġcharac ter
Ġi mp
Ġcal lable
p ri
Ġ1 0
Ġsho w
g ra
Ġcli ck
ighli ght
Ġhas attr
]> (
bo ol
ĠW e
F or
e xtra
} "
ĠĠĠĠĠĠĠĠĠĠĠĠĠĠĠĠ ĠĠĠĠĠĠĠĠĠĠĠĠĠĠĠĠ
ĠR FC
m b
Ġj ust
` ,
se n
al og
Ġorig inal
m ulti
Ġbe ing
0 1
Ġse ction
Ġdoes n
Ġsche me
c ted
Ġpro xy
Ġapp lication
v es
Ġbu ild
ci i
st ra
st derr
su pp
ĠA n
oki es
Ġ kwargs
st a
lo sed
Ġal ways
1 1
Ġcon sole
Ġde l
Ġen sure
S ON
i mp
Ġtest s
n s
S E
lo c
Ġw ord
Ġc ustom
f in
Ġ \
F I
fi l
Ġfla g
Ġp i
a pi
r ange
se nd
Ġsp ec
Ġkey word
H andler
y nt
Ġp latform
ri es
" ):
U N
lic y
g ener
j ect
t al
w h
so cket
par t
Ġdi r
Ġ< =
e ader
Ġa ss
ĠT ext
Ġun til
2 5
ynt ax
o c
Ġpar t
i mport
TI ON
Ġ Key
f er
Ġse nd
Ġp ython
i de
Ġb a
Ġd ate
Ġbe t
ĠE n
C reate
Ġn ormal
Ġin itial
he d
Ġat tributes
1 6
ĠN ot
Ġhas h
ĠA t
Ġfinal ly
r ary
se p
Ġa uto
Ġthe me
ad ing
Ġ' \
Res ponse
he ll
te red
A N
Ġs creen
la tion
w er
st d
Ġre source
ri de
A C
ol d
b it
g ments
} ")
las k
che d
l ue
fi r
exist s
Ġno de
H TTP
Ġst op
ĠA ny
Ġmem ber
Ġwa it
S e
o re
Ġf ull
Ġw arnings
ge x
ĠS et
ho ok
Ġdefault s
**** ****
Ġremo ved
at ure
I s
v ing
al ly
Ġre q
b lock
f loat
me m
ro u
o uld
Ġco unt
Ġne t
vo ke
b ili
Ġo ld
: ]
ct x
pa rent
Ġcon n
fla gs
U T
j son
Ġse par
so ck
im um
Ġman ager
Ġele ment
st arts
Ġfor m
as cii
Ġpro per
low er
ur ation
Ġw ould
ĠEx ception
G I
Ġin dent
co mplete
Ġle vel
Ġhe re
Ġb ody
Ġto tal
Ġfla gs
t ra
ra y
E P
U L
c md
m an
Ġad ded
Ġdef ined
par ts
Ġlo ok
dir s
ta il
file s
Ġso ck
Ġmulti ple
le ss
n ormal
tr ing
ĠC heck
has h
f a
ĠIP v
Ġbo th
con n
Ġb ecause
Ġin valid
i cal
n umber
t ask
lo cation
ĠR es
") )
t xt
re sp
he me
po p
Z E
w rap
Ġ( "
Ġcol umn
Ġf in
Ġcall s
Ġtyp es
Ġo c
Ġre sp
la tive
pre ter
Ġst dout
we en
A ME
ol s
Ġrequest s
} )
} ,
st ack
Ġ[ '
lic it
Ġsupp orted
pa re
Ġcreate d
n et
D e
Ġup date
act ory
L ist
a in
m on
ĠD e
fla g
pro xy
a ded
Ġmo ck
or der
ation s
ĠĠĠĠĠĠĠĠĠĠĠĠĠĠĠĠ ĠĠĠĠĠĠĠĠĠĠĠ
Ġpro mpt
Ġd on
Ġsu ch
end s
Ġdo main
Ġset ting
de bug
Ġre feren
Ġcan not
m t
o ted
B y
pro mpt
ĠG et
tribute Error
b reak
sc heme
ĠW hen
off set
Ġi den
on t
ri ct
ĠP y
do main
L S
i ted
Ġs cri
Ġw ant
Ġsp lit
Ġ Z
ĠO ther
Ġbet ween
S C
Ġex it
ti c
iel ds
vi sion
n el
temp late
re move
Ġp la
Con tent
in ce
Ġsub class
Ġchar set
A B
t arget
)) ,
rou gh
r g
Ġb ar
si tive
' '
Ġpos sible
al low
Ġs s
Ġdecor ator
Ġ kw
Ġse arch
C ase
Ġcan didate
Ġdoc ument
e ded
g ress
Ġ' -
Ġsign al
starts with
Ġmo st
I D
call back
Ġdo wn
Ġcontain s
Ġlo cation
Ġcon ver
x ies
Ġm aster
Ġ 6
is sue
par ser
Ġpar ts
Ġs pa
ĠN o
ht ml
sys tem
g g
Ġ te
Ġm atches
s ymlink
or ts
ss l
in sert
lo ader
ĠP ar
Ġr ule
H el
l per
Ġra w
Ġar ch
f p
l ing
li m
po sition
Ġdiffe rent
c lear
Ġ 7
Ġthe m
li ed
co mple
Ġsu c
ĠJ SON
Ġab s
N o
ĠW S
o se
no de
ca le
Ġsecon d
Ġbin ary
si ve
C heck
Ġen coded
Ġr v
Ġpo int
X X
k nown
an k
sc a
w he
ĠS e
B ase
m y
r y
00 00
ab s
vo id
H eader
Ġm od
Ġkey s
ĠW indows
Ġi mage
Ġp ri
Ġmo di
direct ory
sho w
A rgs
V ersion
all back
param s
Ġto p
A T
S o
e k
Ġ lineno
Ġp attern
Ġse ssion
Ġfunction s
Ġw indow
Ġin ternal
es ca
fir st
c ase
di gest
ĠF ile
Ġli mit
c las
i tes
u tion
se ction
co okie
it test
Ġpar sed
un icode
ĠU se
al lable
l ush
Ġsub process
P o
path s
qui res
Ġlog ging
or ig
Ġre f
Ġexception s
N O
P E
v ate
Par ser
f g
i mple
In fo
i o
C lass
Ġc md
Ġf ield
Ġde code
Ġba sed
f ail
Ġi o
Ġe ver
Ġe qual
Ġex tension
Ġuse s
Ġti tle
Ġbo und
Ġre quirement
lo op
g its
Ġt ar
ĠĠĠĠĠĠĠĠ ĠĠĠĠ
Ġm on
Ġ' .
ĠP ro
ch ild
Ġcon struct
Ġre move
Ġpath s
Implemen ted
Ġ{ "
ĠR un
] ]
Ġs te
ga tive
Ġrequi red
D eco
Ġz ero
Ġcor rect
b s
Ġ &
Ġs kip
Ġst andard
Ġco mm
sta mp
Ġa li
ri d
ĠB ase
) ):
Ġmatch ing
F ound
o ver
in dent
si te
Ġen v
pre cated
Ġtrace back
R un
o wn
u g
w ard
Ġse nt
Ġde st
Ġscri pt
pt ure
Ġrun ning
S SL
W S
r as
ĠNot Implemented
Ġresult s
Ġcontent s
ĠN ote
ak es
Ġoc cur
or ary
me tadata
ot al
p atch
ĠS t
ĠOther wise
en try
L I
L i
Ġe xt
ce p
:` ~
Ġiter ator
Ġat tr
Ġconfig uration
Ġbe ha
qu ote
T O
Ġth rough
Ġpro tocol
Ġapp ro
D O
o lean
and om
Ġlo ad
add r
Ġren der
Ġpa ge
Ġf uture
assert Is
mo ck
iz ation
n um
Type Error
Ġcon trol
end ing
Ġren derable
fil ter
Ġm issing
(" /
Par se
ti es
ur ing
ĠP ath
vi ous
Ġwhe el
x er
Ġ Y
Ġre st
Ġre ce
typ es
Ġss l
Ġro w
ame ter
Ġan other
ma il
Ġnames pace
Ġc re
ten d
quire ments
bili ty
ĠL ist
IN G
out ine
e mp
L O
)) )
1 5
Ġre pr
Ġallow ed
ĠKey Error
ites pace
ec ho
Ġtr ans
rg ument
: \
= {
b utton
Ġf a
") ,
Ġhe ight
v ari
Ġt a
ĠC reate
tera tion
Ġl ong
as ic
as ync
es sage
re t
Ġab out
as on
co der
Ġex act
Ġsu ffix
Test Case
Ġrun ner
ĠAt tributeError
s afe
clas ses
O S
st at
Ġre lative
pa red
vi ew
O ption
ĠO n
ĠL o
a fter
Ġa ction
fi el
") .
bu f
Ġhttp s
Ġbeha vi
Ġn s
lean up
w d
ate ly
mo st
By tes
la st
- >
w rapp
Ġreg ister
ĠI terable
P RO
Ġun icode
Ġque ue
f s
or ies
Ġv ar
sig int
en ti
ch unk
r type
sp atch
Ġne eded
00 0
Ġh ighlight
rap h
Ġcur sor
k g
Ġthe ir
Ġpre sent
Ġspeci al
scri pt
ĠWS GI
Ġexist ing
t otal
w arning
Ġa ga
ĠS tyle
uth or
g in
Ġraise s
esca pe
__ ,
Ġapp end
Ġon ce
In valid
Ġfil ter
se arch
Ġlo ck
Con sole
Ġdoc test
Ġinst alled
id s
ĠM o
Ġle ft
g n
O ptional
f low
n an
Ġst derr
b ody
g lobal
Ġ ke
str y
var s
Ġvi ew
Ġin v
Ġeven ts
c y
O F
] ):
Ġre t
sp ect
ĠS p
Ġlo ader
T ext
con sole
Ġma pping
va le
Ġexist s
dition al
e ll
Ġs orted
Ġw rap
Ġse lect
ci mal
Ġoper ation
R I
ti cally
token s
gra m
fa ce
S p
w ri
Ġre main
Ġla bel
2 2
o pt
Ġ q
in voke
Ġp ip
tail s
il ing
Ġqu ery
lue print
c le
c ert
Ġf d
er ver
Ġd one
Ġwith in
0 2
Ġf p
Ġstr uct
Ġcomp ati
cor ding
Ġtoken s
le g
ch or
re source
ol ute
Ġbu f
Ġfollow ing
M e
m ark
o ur
Ġst atus
bu il
resp on
Ġmessage s
Ġac cess
Ġs afe
ch o
Ġco uld
ĠT urtle
Ġnew line
Ġre lease
ĠD i
Ġat temp
ĠEx ample
f ull
ly ing
Ġarch ive
Ġma in
du ce
me ta
Ġ right
ĠN S
mb da
) ]
wid get
5 0
F A
re quires
Ġen able
ig nore
mport Error
Ġspeci fy
i stry
__ .
fi c
Ġa wait
I I
me d
Ġdi alog
f n
Ġc lear
ma c
Ġpass word
u mp
Ġvi a
k ze
se con
Ġ` __
Ġread rc
Ġchange s
kze ug
S tring
ect s
or g
Ġre direct
str u
Ġwe re
Ġho ok
ĠCon tent
en sure
Ġurl lib
Ġvariable s
an nel
up lic
Ġpar a
char s
default s
H E
pa ge
bo se
N AME
ĠF FF
Ġpre vious
stra ct
ĠFFF D
A dd
ĠS o
on ent
time Error
no sigint
> `.
B u
Ġh and
. ")
s kip
con nection
ĠĠĠĠĠĠĠĠĠĠĠĠĠĠĠĠ ĠĠĠĠ
Ġexp licit
P TION
c s
Ġac cep
Ġindi cate
M o
e mpty
s co
Ġc ell
arg ument
Ġt able
Ġac tive
log ger
quen ces
Ġoper and
f ol
m ask
or ter
di splay
4 2
de l
at ures
Ġ" \
Ġcon vert
ĠA s
qui vale
quivale nt
S O
Ġd ot
trace back
Un icode
C allable
Ġdi gest
Ġfile input
res h
Ġfo o
D irs
Ġcor respon
a uto
Ġc er
Ġs ince
Ġ' __
is hed
Test s
Ġtemp late
n f
( {
Ġdi sable
u sed
x a
Ġt akes
Ġreferen ce
= [
] [
ar ray
an ti
Ġg o
ĠB y
symlink s
G ener
tion s
us ted
SI ZE
rec ord
ĠRes ponse
t ten
Ġst ill
is h
Ġd uring
Ġas ync
pre ssion
Ġauto ma
Ġde term
Ġrequi res
" \
W arning
Ġt ree
cli ent
Ġinter preter
Ġwrapp er
c ul
me di
con vert
ces sed
Ġj son
p ad
in valid
Ġa void
app ing
Ġf ields
per ty
CO L
SC II
V alueError
Ġis n
ri al
supp orted
ist ribution
inst all
Ġcall ing
pen den
---- ----
} '
ser ved
Ġele ments
exec utable
s ted
as h
si x
las h
Ġdate time
AB C
st atus
Ġc losed
an not
Ġwh at
Ġiden tifi
Ġw ay
yth ing
Ġco mplete
comp ile
Deco de
Ġo ur
Ġco okies
Ġbuil tin
Ġf ra
Ġse n
Ġde p
Ġde precated
Ġsu re
ĠRe quest
P re
c ing
i ved
le ft
Ġf ill
ti m
Ġre al
option al
Ġdoc string
du mp
in ner
Ġo wn
Ġen ti
latform Dirs
ĠNotImplemented Error
res sion
Ġmodule s
reg ister
3 0
P P
U p
u pp
th ing
ĠĠĠĠĠĠĠĠ ĠĠ
Ġtuple s
ou gh
Ġover ride
C H
w w
Ġo pt
e le
In put
can didate
Ġterm inal
g o
an sp
Ġst d
pe ed
Ġg ot
exp and
char set
Bytes IO
2 0
A d
Ġste p
PTION S
D I
E L
Ġch o
ĠA l
Ġinv ok
1 00
c ancel
p id
s pa
Ġu sage
la bel
Ġne cess
Ġqu ote
x ff
y load
on ical
() .__
col umn
Ġconstruct or
A pp
f c
ys tem
Ġthread s
Ġmem ory
mem ber
A t
} :
ut down
ol or
V ER
u id
que e
ap ter
Ġbehavi or
Re ad
ĠG ener
T Y
Ġthe se
scre en
Ġtra iling
Ġf e
Ġf alse
ord in
std in
whe el
8 8
G ET
b ind
de lete
Ġi p
Ġme n
res ol
Ġqu oted
Ġdescri ption
Ġabs olute
le cted
Ġ" .
Ġdirect ly
T ER
u til
se ts
Ġn um
Ġma p
Ġma il
Ġla y
âĶĢâĶĢâĶĢâĶĢ âĶĢâĶĢâĶĢâĶĢ
r t
ĠA d
set ting
is tered
no red
Ġzip file
< /
h er
un ter
Ġis sue
la p
the me
Ġwork s
n or
r up
Ġt ake
ĠI mportError
ĠS SL
sha pe
po st
date time
Ġ1 2
Ġpro xies
pt or
Ġunder lying
M P
T ime
Ġ" /
pro tocol
Ġrepresent ation
Ġpad ding
ĠRun timeError
A G
w arnings
re p
Ġm ime
pro perty
Ġle ast
Ġend point
de red
Ġp op
he lper
ĠT o
') .
Ġwh itespace
ta gs
Ġ8 0
Ġsha pe
Ġappro pri
Ġ ):
Ġ" ,
ac y
Ġreg ular
1 4
1 9
a N
Ġc ert
ĠP EP
ex tend
sca pe
T LS
Ġr andom
Ġver ify
Ġac cording
row ser
ti tion
ri ch
Ġ' _
Ġ[ "
Ġgener ator
Ġt ab
Re quirement
ok up
tifi cate
Ġwrapp ed
P I
ti o
ok en
war n
Ġin sert
Ġe dit
assert In
Ġtime s
package s
Ġdescri ptor
A s
c us
Ġre cur
ri ve
es ted
exception s
S tyle
se q
de v
ro ll
ansp ort
' ])
to m
rip le
For mat
Ġever y
k i
ĠI D
init y
Ġsecon ds
Ġautoma tically
b ly
f inity
Ġre quirements
ĠE OF
Ġpo licy
Ġinclu de
M essage
S erver
Ġto o
Ġme an
ix in
platform dirs
Ġta gs
m is
ti tle
pa uthor
ex ample
ex tension
tr ans
ra te
vi de
Ġreg istered
wh ich
1 3
D oc
ar is
ue ss
que ue
con tinue
EN T
Ġpi ck
Ġnet loc
Ġm ight
co okies
ic s
Ġinst all
Not Found
si s
Ġ' %
Ġdirect ories
conn ect
n on
UL T
r ule
or ity
Ġt ri
Ġs pace
ame ters
con trol
Ġread ing
race back
i ly
Ġ' {
Ġse ts
res sed
ati c
mit ted
dist ribution
C h
ĠP re
g en
i ck
Ġs hell
ĠĠĠĠĠĠĠĠ ĠĠĠĠĠ
ter ator
ff ect
R en
e ven
or ch
Ġinstance s
Ġcommand s
ri er
ĠĠĠĠĠĠĠĠĠĠĠĠĠĠĠĠ Ġ
pre pare
r ge
Ġca pture
ĠL in
Ġsupp lied
ffe red
ĠX ML
FA ULT
0 4
di table
Ġbo olean
Ġac cept
Ġspecifi c
Ġdebug ger
' re
T o
d ay
val u
Ġcom ment
Ġhand ling
( -
) [
Ġw ho
Ġas yn
ĠS ig
back ground
Ġpla ce
P latformDirs
Ġs a
Ġs ave
Ġho w
PlatformDirs ABC
" ],
app name
bo und
ume ri
Ã ©
Ġth ose
en ter
ces ses
ste p
Ġig nored
Ġcorrespon ding
l ank
Ġme ta
Ġpro ject
Ġcase s
Ġprovi de
Ġfa iled
Ġke ep
C F
F in
di ff
Ġdi s
speci al
gener ator
e dit
h read
Ġse gments
po ol
Ġ join
he ad
ad o
app en
Con f
comp are
Ġrepresent ing
al k
ti p
Ġbe gin
B U
E C
E X
Ġ lib
ĠĠĠĠĠĠĠĠ ĠĠĠĠĠĠ
__ `
que sted
Ġen t
Ġit self
Ġ{ '
Ġle xer
Ġclas ses
F O
Ġc ancel
Ġre p
Ġex pression
Ġun less
Ġsuc cess
o ci
t ar
Ġf n
fi er
Ġl on
I terable
f actory
Ġin spect
ter al
vi ce
ĠU T
Ġexact ly
Ġmail box
s rc
Ġde tails
Ġtemp orary
Ġass oci
stru ction
se lect
Ġ' /
Ġpar sing
Ġcomp ile
word s
3 3
I ME
g ith
i terable
l ong
st op
Ġw arning
Ġpa irs
ĠA dd
po ints
Ġmax imum
names pace
war ds
Se gment
Ġlay out
aris on
gith ub
6 0
Ġ 9
Ġe quivalent
Ġan s
con tain
Ġuse ful
p kg
Ġre set
un ding
us r
by te
C E
P O
b ad
s pace
Ġ }
ut or
Ġd a
V alue
Ġ Q
: `.
z en
an y
Ġtoken izer
Ġcache d
Ġresol ve
Ġappropri ate
C K
Ã ¡
ti fy
Ġun i
Ġwri tten
Ġcomm on
8 0
L og
b b
j or
he ight
Ġtest ing
ca pi
ĠIn st
ĠCon text
Res ult
D ata
S ub
l us
me s
co mm
ĠRe ad
Ġcor outine
c losed
u ation
al lation
d one
host name
Ġmen u
c tive
se par
in el
de st
Ġen code
Ġl ar
to ols
Ġra ther
= _
re direct
Ġf ont
Ġre ason
assert True
Ġversion s
Ġcurrent ly
Ġformat ter
Ġexec utable
Hel p
u ted
u age
z er
re quirement
Ġre pe
Ġse lection
mm utable
Ġbuil t
Ġid le
pass word
Ġass ume
Me thod
P C
T r
Z ip
re set
il ar
mat ches
Ġexp and
Ġbut ton
cre ment
' {
c ustom
f lush
Ġth ing
ro zen
ĠUn icode
Ġmon th
M ulti
c c
se ek
def ined
config ure
Ġcomple ted
Decode Error
A TH
e ts
u ble
te ct
ch ain
__ )
Ġg u
Ġcomp are
=" /
Ġthread ing
3 4
Ġpa ir
mo di
Ġassoci ated
F rame
test s
ver se
Ġno w
sub process
******** ********
G roup
S ET
a tive
c er
al i
Ġdi gits
ci o
ĠĠĠĠĠĠĠĠĠĠĠĠĠĠĠĠĠĠĠĠĠĠĠĠ Ġ
Ġinter face
b ed
Ġreturn ing
Ġ" __
" ])
> `
N T
Ġst rict
am ily
Ġdef in
Ġch anged
code s
pared Request
S ER
Ġs ymlink
Ġ_ ,
Con nection
wa re
ends with
l lo
dir name
Ġapp ear
Ġcal ler
Ġword s
1 7
Ġt b
Ġs ort
Ġ' ,
ĠS top
res ses
err no
sign al
man ager
S ystem
s ample
w s
Ġt ail
ur i
Ġs ite
Ġg i
Ġrece ived
} .
Ġi m
Co mp
Ġallow s
I teration
S H
s ort
as ure
__ ()
Ġ1 00
ordin ates
n one
o red
Ġf allback
Ġb lueprint
ĠIn valid
z one
Ġspecifi es
sub class
im ilar
reg istry
win api
http s
raise s
j ar
m or
Ġh appen
Ġne gative
Ġar qui
su ffix
ses sion
dist ro
bit rary
Ġsepar ator
child ren
f uture
g ate
(' \
Ġpro gress
tera ctive
SI ON
even ts
p h
st rict
Ġ" <
ĠĠĠĠĠĠĠĠĠĠĠĠĠĠĠĠ ĠĠĠĠĠĠ
read line
Ġun ittest
Ġrec ent
MA X
Ġnecess ary
de cimal
Ġbe st
Ġad ditional
meth ing
Ġspa ces
buil tin
t mp
ĠF lask
Ġcan onical
ĠU N
ren derable
com ment
local s
ang uage
fin ished
Ġent ries
u x
li ce
Ġu s
pla in
IN E
method s
H andle
M ixin
w indow
z ero
Ġre gex
un ittest
um my
Ġwe ll
load s
Ġconver ted
p attern
Ġs imple
Ġse quences
Ġlo cale
release s
Ġtar info
Ġcompati bility
t ree
Ġma k
Ġnumber s
Ġbreak point
Ġgener ate
Ġcomple tion
sen sitive
W ith
re main
le x
Ġc nf
Ġs co
ĠP db
Ġde lete
ba z
Con trol
ĠR aise
OR D
. ')
I G
J ar
th is
Con struct
okie Jar
Ġextra ct
Ġhandler s
2 4
U R
a a
ti ls
ec ur
di sable
pa ger
ĠO PTIONS
In ter
Ġle ss
Ġdistribution s
Ġchild ren
wrapp er
PRO TO
P y
Ġhe ad
Ġle g
TE ST
speci fic
Ġcandidate s
ĠSp eci
Ġcer tificate
( ?
A rgument
g le
m s
Ġ lin
st ore
Ġde le
ven v
ĠĠĠĠĠĠĠĠĠĠĠĠĠĠĠĠ ĠĠĠĠĠĠĠĠĠĠĠĠĠĠĠ
Ġlo wer
A c
en ts
Ġ' <
Ġd ay
sg i
frame work
Ġactual ly
Ġsha red
Ġenable d
q a
Ġre l
en gth
di spatch
ver bose
et ch
vari able
I X
pre cation
Ġpo ol
cur sor
Li b
Ġlon ger
[ [
e gg
Ġ K
re ction
Ġst at
Ġde coded
Ġen ume
split lines
Ġback ground
Ġk nown
T ML
Ġ â
Ġme ans
Ġadd r
Ġ"" )
fiel ds
' ],
Ġ" %
(' /
Ġle ading
ren ce
Ġproper ly
r b
Ġ ()
er ify
Ġpo st
Ġla mbda
ĠH o
Ġman y
Ġpackage s
S P
li mit
ser tion
Ġapp ly
Ex ample
Ġback end
si mple
ho me
file obj
ĠĠĠĠĠĠĠĠĠĠĠĠĠĠĠĠ ĠĠ
inst alled
Ġterm in
medi ately
) ."""
T R
he x
Ġd t
Ġno qa
ĠV alue
ren der
Ġparam s
C an
M an
Ġ //
it able
ĠA pp
Ġpro gram
Ġy ear
ĠM e
L ength
y ear
lo aded
Ġar bitrary
ca st
ĠM ake
command s
ĠĠĠĠĠĠĠĠĠĠĠĠĠĠĠĠĠĠĠĠĠĠĠĠ ĠĠ
Ġimp orted
Ġaga inst
Ad apter
C all
n ull
Ġne ver
set up
app lication
00 1
ist ory
ĠB u
Ġstart ing
AN D
Li ke
D ef
i ft
Ġt k
un do
di gits
Ġde penden
Ġcomp arison
Ġconfig ure
run ner
sign ed
R ange
s um
se e
st andard
Ġe scape
par ameters
Ġg re
En viron
itial ize
D is
I T
i ce
Ġb ind
si t
set default
ase s
ati s
multi ple
rup t
d le
g it
Ġf ut
un til
Ġse p
qui red
ir t
ĠN O
Ġformat ted
Ġexplicit ly
o urce
Ġf ix
Ġin complete
Ġan chor
Ġse rial
no w
Ġ2 5
ĠR aises
return s
sho uld
Ġindicate s
D own
v as
li es
OR MA
[: -
Ġmember s
Ġh igh
fi ll
ĠC F
Ġy our
Ġinclu ding
UL L
f ra
Ġn umeri
Ġm u
Ġmo ve
ĠCon sole
ĠCo mp
ful ly
FI LE
Ġcre ating
* .
. )
] ]:
w hen
Ġs yntax
ra tio
ĠP o
Ġd st
ĠEx p
for med
ada p
Ġimport lib
M TP
g ine
Ġp ut
Ġcon dition
Ġlo w
ĠĠĠĠĠĠĠĠĠĠĠĠĠĠĠĠĠĠĠĠĠĠĠĠ ĠĠĠĠ
Ġposition al
Ġlocal s
mis sion
P IP
a ction
Ġf actory
ro ss
() ``
Ġ' ',
Ġ" -
(" \
fo cus
Ġpo sitive
Ġcorrect ly
secon d
resol ve
t c
Ġ' ')
Ġv irt
ĠE ach
ĠM IME
Ġwri ting
C ON
T emp
u tils
ĠT k
ĠA ll
ĠC olor
Ġstate ment
Ġfail s
PROTO COL
t z
Ġ ),
re gex
Ġc y
lo sing
ĠĠĠĠĠĠĠĠĠĠĠĠĠĠĠĠ ĠĠĠĠĠ
Con vert
clu de
AT A
T uple
un ction
Ġst ri
ĠP Y
par tition
ĠA PI
Test Input
Ġremo te
DE FAULT
M apping
m k
n a
r strip
ar ted
Ġre po
ce ll
Ġst arts
Ġuser name
Ġ4 2
Ġenti re
ĠPdb TestInput
8 5
C a
g ory
Ã ³
Ġt orch
() """
Ġse q
ĠA rgument
ĠO pen
Ġhas hes
Ġsub classes
Ġper form
bin ary
A n
F N
N ote
U E
V ar
in to
lo ts
ĠH el
side red
Ġreplace d
Run ner
Ġim mediately
A TE
i mage
o o
Ġan ything
di m
ch annel
Ġco pi
ĠS ub
pro ject
Ġca u
ĠĠĠĠĠĠĠĠĠĠĠĠĠĠĠĠĠĠĠĠĠĠĠĠ ĠĠĠĠĠ
Lo ader
Ġmodi fy
TY PE
M odule
Ġe st
ĠT LS
Ġ- =
Ġca use
> '
Y Y
re mo
ro y
Re g
par sed
ba ses
Ġpar tial
ta b
Ġrun time
Ġfol der
A S
H I
Ġre ader
Ġre quested
is o
Ġcon sidered
So urce
quee zer
2 3
8 9
O n
d ge
p ip
or ld
fi ci
Re ader
sp an
pro xies
Ġtime stamp
Ġcreate s
Ġ(' -
be fore
AC E
Ren derable
W hen
i ces
Ġn one
un der
ge d
qu oted
Ġlo aded
cal led
ĠCon vert
char ac
OR T
Ġstd in
/ $
5 9
= ['
I tem
j ust
li ct
si red
am ing
). __
ee k
Ġwork ing
Pro cess
Ġsetting s
A l
t ri
Ġc abc
Ġp r
ro ken
Ġse gment
id x
po licy
Ġhe lper
Ġso mething
men u
Ġno thing
call s
encode d
Ġglobal s
ĠPy Unicode
lim ited
fiel d
Ġenume rate
se quence
re al
re cur
Ġn args
Ġe mail
he ther
ĠS tring
ding s
ari ly
mon th
ĠMo ck
Ġrecur sive
) }
. ,
S creen
c ure
c wd
e qual
f ont
n b
v t
Ġ1 6
Ġhe x
Ġinvok ed
setting s
Ã Ń
or s
Ġb ad
ĠD E
op ts
ĠB F
Ġchar s
Ex p
thread s
wer kzeug
Ġdocument ation
Bu il
ĠUT F
Ġt re
co s
extra ct
C li
Ġ qui
Ġin ner
ĠD oc
Ġset up
In finity
ĠV ersion
Ġneed s
ĠStop Iteration
D ec
g or
Ġb rowser
Ġin it
Ġdo uble
ne gative
Ġspecifi er
valid ate
environ ment
Ġsh ort
Ġmark er
Ġaccep ts
c ent
e g
f ds
g ot
in itial
ur ro
ĠC h
ith m
yntax Error
Ġaga in
g u
l r
w sgi
ti cal
at ched
ue ue
__ ',
Ġse lected
Ġdi d
comp ress
normal ize
I L
a it
or age
ti tem
ĠP O
iel ded
Pro xy
Ġfin der
Man ager
al id
Ġ< <
Ġhost name
enti cation
Ġasyn cio
, ))
D istribution
W W
t b
~ ~
Ġo b
ut ing
et work
tin uation
cor o
Ġpi pe
A X
L INE
r ing
Ġb its
Ġfor ce
ĠS ho
ĠD o
bo ve
Ġcode s
En coding
ang le
gener ate
issue s
orig inal
NotFound Error
S U
es s
is ing
Ġdi spatch
ĠC all
Ġno te
ĠN ame
com ing
Ġti ed
supp ort
Ġreferen ces
ĠFFFD x
Ġidentifi er
Zip File
R ec
[ _
ĠEn sure
S ee
Ġa round
de lay
Ġc m
ra g
ĠT cl
Ġsu m
url lib
Ġpre pare
Ġprovi des
Ġfull name
Ġdest in
O pen
ser ve
ĠThe re
Co mmand
Con fig
Ġwe ek
request s
return code
Ġhandle d
+ '\
O UT
c at
m issing
Ġd uplic
Ġd rive
qu ery
par ameter
Ġfile obj
ĠC li
ĠB o
Ex it
ĠOn ly
Ġtri g
precation Warning
6 6
M et
b r
i tion
j a
in ternal
Ġc fg
Ġb it
Ġs peed
Ġsu itable
ag raph
Ġext ras
her it
g r
p ha
} {
Ġa wa
en able
Ġe sc
un ded
Ġch ain
Ġma c
Ġma de
kw ds
pi ck
arch ive
En sure
Ġfail ure
Ġchunk s
ĠPar se
Parse Error
s a
ot tom
us age
Ġlist s
Ġla ter
work s
Ġ"" ,
we ver
Ġali as
separ ator
0 3
L ine
a ter
h ighlight
er kzeug
Ġn ested
di alog
pre ters
Ġsupp orts
ki pped
C ol
s ten
er m
get attr
ĠR en
col lect
bo ard
Ġexp ect
group s
Ġbyte array
Ġproper ty
Ġremain ing
Environ ment
t ty
on ents
am in
ĠI terator
ĠA SCII
(" %
ĠL og
ĠH TML
Ġcol lection
decode utf
speci fied
Ġfra gment
Ġmime type
Ġidle Conf
mor tem
g rid
x ml
re ader
Ġa p
Ġs ide
ĠT ime
las hes
Ġdi ff
Ġpo ints
lib c
ĠUn ion
Ġmark up
Fin der
gor ithm
E vent
K E
Ġo bs
Ġb asic
ch ron
Ġu m
log ging
color ize
Ġtask s
Ġdisable d
6 5
i ti
s q
th at
Ġre d
Ġs ample
Ġpas sing
comp ati
yp es
St art
H O
N aN
c fg
d t
v id
Ġt ur
ĠT raceback
ĠP as
In st
attr s
Ġstyle s
RE AD
'' '
Ġrule s
Ġstruct ure
Ġn or
an te
Re move
Ġpro duce
Ġ`` "
ta ch
pro gress
Ġread y
arg v
ual ly
run ning
Ġinteger s
Ġdown load
A li
T hread
b re
Ġc lean
an chor
fi cation
Ġcheck ing
ub lic
St ream
net loc
fol low
Ġcy cle
s ave
t rue
Ġb lank
Ġs c
Ġe dge
Ġcon su
00 01
Ġcal cul
break point
modi fied
S S
u ff
at tributes
Ġin side
an ts
Ġex po
qu ent
Ġpa yload
Ġ[ ])
Ġfollow ed
Option s
Ġvar s
Ġarqui vo
, )
Ġan gle
Ġadd resses
cur ses
Ġht ml
A SCII
R PC
a ving
f lask
r fc
Ġa bove
Ġe tc
di cate
si bly
ĠN ew
ĠY ou
global s
( **
E D
e ditable
s lots
x x
Ġp or
Ġs ym
nt ry
Ġu su
Ġg uess
all Requirement
mo j
token izer
Ġtemp file
TI ME
" '
F rom
T ask
} \
Ġre v
ro p
Ġm id
Ġ[ ],
Ġpre fer
In dex
pi pe
Ġover flow
sign atures
min ator
sh utdown
Ġconn ect
Ġlook up
sca le
Ġleg acy
O M
P Y
s lash
le ep
Ġo mitted
Ġst rip
ch ange
tera ct
Ġwri ter
Ġop ts
Ġplatform s
mark er
Ġdeterm ine
19 2
4 0
f old
o ols
Ġst ored
ct ools
key patch
string s
ĠRe move
Ġprocess ing
[: ]
Ġte ar
Ġoccur s
Ġaccep ted
Ġmak es
amin ho
re ason
le xer
al ler
un pack
Ġh i
con st
file no
ĠD is
Ġread line
ci es
ĠH andle
sign ature
Ġattemp t
Lib rary
d ot
Ã ª
Ġf lush
al t
es sion
Ġg lob
Ġ: =
op er
Ġy et
Ġcontain er
d ar
st ics
Ġe gg
Ġ' --
pp er
Ġcon si
ex e
tial s
99 9
Ġte ll
rid den
asure ment
C alled
P ATH
Z Z
se quent
"" ,
ti ty
Ġs imilar
ĠT h
Ġen c
ĠS kip
Ġwe ak
iz ing
cache d
Ġinst anti
Ġinclu ded
Hel per
whe re
Ġpri vate
Ġpick le
ecur ity
PIP E
fici ent
nb sp
H o
] ))
c leanup
g re
w alk
an si
ba sed
Ġpro cessed
time stamp
lat in
IN FO
vo cation
ap pauthor
Add ress
c ating
f inal
te ll
de scri
di v
ĠT uple
con dition
ĠN ormal
iz es
MA C
Ġbar rier
secon ds
F L
R A
c f
f mt
tur tle
Ġde lay
ix el
us ing
hook s
UT F
ĠZ ip
Time out
ali as
TEST FN
SP ACE
re st
st rap
le ment
Ġre a
Ġs ile
co un
ul ate
ot strap
is dir
Ġcon st
ver s
ver ify
ĠS imple
with out
process ing
Ġgener ated
ĠX XX
Ġextension s
over ride
fol der
6 7
B T
F ind
L e
h and
ar ante
Ġw ar
ĠT ask
Ġcon tro
Ġpa ck
cor outine
Ġk ind
inter preter
Ġbuffer ing
ww w
Ġwho se
T erm
m all
m time
m ime
w indows
Ġ ^
se lection
Ġp en
pa yload
Ġdi sc
Ġde cimal
ex act
for k
po six
ĠD istribution
ĠO ption
ip v
Ġl anguage
fore ground
Ġexec uted
Ġconnection s
Ġresol ution
Ġdebug ging
Ġresource s
orig in
2 9
Q u
h mac
Ġc ate
Ġcon version
ir c
Ġcheck s
ĠCo okieJar
tra ck
Ġspa m
comple tion
Ġsco pe
channel s
moj i
d st
in es
st atic
ti vate
Ġan not
ct ype
Ġco ordinates
la mbda
Ġcon f
ĠA B
Ġpro ble
ĠO ver
ĠM y
St ate
So cket
" }
M O
Q U
Ġf all
Ġre port
Ġs imp
Ġu til
Ġu pper
Ġor d
no minator
Ġal gorithm
Ġ2 0
ĠIn dex
Ġexec ution
handler s
Mo ck
) (
C T
e q
ce ed
Ġme rge
fo und
ĠF BT
Ġopen ed
mode l
Ġid x
fin ite
Ġsepar ate
> "
O per
U SE
W rapp
Ġ ~
Ġ Error
in ion
ĠC an
do m
Ġsp an
exec ute
lap sed
7 7
C I
c b
m ro
de c
ro ute
pa ces
Ġde lim
ĠW erkzeug
Ġle t
Ġcomp onent
sub type
Ġvari ous
SI G
Ġfail ures
dump s
ele ment
Ġuni que
Ġesc ap
re v
ur po
Ġm y
ĠC a
pro g
user name
Di rect
Di vision
Ġ] ):
Ġtra ck
tic ular
Ġcompati ble
contain s
Def ect
Ġnumeri c
> .
a wait
a vailable
on d
se m
at om
at tribute
lo cale
Ġ( (
ĠI N
In ternal
The me
Ġli teral
Ġ/ ,
ĠUn ix
Ġmean ing
Oper ation
A F
N U
N etwork
b asic
u ter
pa ren
id le
ĠF ind
ac tive
sub Test
den tials
descri ption
Wrapp er
h ide
se gments
al le
Ġre vision
Ġp atch
un i
ĠT O
Ġco unter
Ġdi rection
Ġra ising
for ce
Ġ`` '
Ġbo x
Ġexp onent
ci on
state ful
Ġ'' .
ĠFor mat
De bug
. \
R ule
a red
Ġi teration
Ġc leanup
def ects
ut c
Ġ" _
Ġcon stra
Ġse en
mplement ation
Ġget s
Ġpre ce
Ġ3 2
Ġcheck ed
iter al
inter p
Ġstack level
mem ory
Ac cept
sertion Error
remo te
. ",
R aise
] ],
} ')
Ġth ree
er i
li ces
ĠT oken
Ġpath name
ĠN ULL
Ġapp name
Ġuser s
Ġsign ature
feren ce
req s
m ary
n i
} ",
ut put
() `
Ġen ds
mplemen ted
Ġal tern
unk nown
SI X
zip file
AR D
ĠDe precationWarning
full name
Tr ans
c v
r p
Ġa ble
Ġp id
Ġs w
Ġe tag
un ch
Ġfile system
Ġtr ansport
sition al
Ġover ridden
ME NT
SI S
ĠEn able
task s
) ``
e mon
re try
Ġin voke
ro id
ĠS MTP
ĠThe se
Ġtr un
pro vi
Ġro unding
pi cally
ĠG iven
ext ras
Ġvi sible
EN D
Ġreplace ment
Ġnet work
HE AD
candidate s
sis tent
Ġgu arante
O P
Ġre served
Ġw on
Ġe vt
Ġd ue
get value
fi es
po ly
no te
Ġout side
format ter
ĠRe g
ĠSt ream
ĠDi ct
Ġdeterm ined
extension s
Multi Dict
Ġdele ted
: %
in teger
or i
ra se
__ .__
Ġma jor
Ġreg ion
ĠĠĠĠĠĠĠĠĠĠĠĠĠĠĠĠĠĠĠĠĠĠĠĠ ĠĠĠĠĠĠ
row s
ĠCo mmand
Ġfil ters
spa m
Ġlar ge
Ġcontro ls
8 6
= (
a w
g color
en ce
Ġs rc
Ġhe ading
ca pture
ĠN umber
ĠM apping
Ġdist ro
Ġjust ify
Ġtake focus
ĠLin k
disable d
Ġvirt ual
S PE
g lob
or ing
Ġre quire
Ġb po
Ġbe low
Ġdi sp
Ġcan vas
term inal
content s
Ġhandle s
Po ol
Ġattr s
edit win
Ġbegin ning
A uth
V erify
b est
o tes
Ġd ump
id get
(" --
ĠC ustom
ta ck
class method
Ġun changed
ĠE xtra
Ġro und
lay out
Ġblock s
base name
Ġlink s
ighli gh
raw ing
Header ParseError
DI R
ĠGener ator
Log ger
) """
3 1
7 5
a iled
Ġm ask
Re f
id den
Ġpa ger
sc roll
end point
rec v
ĠAs sertionError
E xtra
W ri
e ver
t ls
in ja
Ġc atch
Ġb eco
Ġs ig
Ġcomp ute
ci sion
Par ameter
Ġbyte code
Ġindent ation
Ġlabel s
sco re
upp er
Ġap pauthor
irc ular
S u
a sed
n ap
s hell
Ġt z
Ġst ore
Ġst atic
Ġst arted
par tial
Ġpar ticular
Ġraise it
ack age
Ġcomp ress
Ġfilename s
Ġk now
Un ion
Ġvalid ate
25 6
ĠBase Exception
34 5
ĠArgument s
Ġsile nt
> \
F lask
J SON
b its
f act
i ters
u tes
w eek
il ter
Ġpro ba
vi sible
Ġmo use
Ġdata base
by pass
style s
sh ot
FF FF
Ġindi ces
Version s
Ġali gn
ĠTurtle Screen
Ġspecify ing
sit ory
Ġdestin ation
Direct ory
T oken
v ance
re size
Ġp e
Ġs kipped
Ġ( -
Ġde te
Ġde sired
(' <
ĠĠĠĠĠĠĠĠĠĠĠĠĠĠĠĠ ĠĠĠĠĠĠĠĠĠĠĠĠĠĠĠĠĠĠĠ
pre v
Ġem it
ĠU sed
cal lable
ĠN aN
ĠM ay
ab stract
Ex ec
ST R
sent inel
result s
Ġblock ing
Ġrepresent s
net work
c python
p th
z y
in di
me rge
Ġp h
Ġb p
ri a
and o
ven i
Ġpre vent
ĠH MAC
term ine
Ġcom ments
99 99
25 5
Ġmon keypatch
âĶĢâĶĢâĶĢâĶĢâĶĢâĶĢâĶĢâĶĢ âĶĢâĶĢâĶĢâĶĢâĶĢâĶĢâĶĢâĶĢ
M ake
re l
Ġe ffect
lo okup
co gn
Re gex
Ġch annel
con struct
Ġun pack
Ġbu ffered
has hes
Ġerr no
tuple s
ĠAl so
Le vel
l t
Ġt riple
en ded
Ġ""" :
po lation
In stance
cor rect
log ical
Res ource
Ġsee k
imp orter
Format ter
D ATA
G iven
b ol
g i
i den
in k
Ġc l
Ġc types
Ġre verse
Ġe valu
Ġ" --
Ġse ver
ĠM essage
Ġsh utdown
ero Division
comple ted
Ġbound ary
Ġfe ature
ĠInst allRequirement
Ġrea ched
eroDivision Error
= %
> ",
O K
n args
s leep
w b
Ġf amily
Ġe as
Ġh mac
Ġgener ic
allow ed
Ġmodi fied
-------- --------
HI TE
" [
W rite
g ic
p ush
u uid
Ġ qual
in o
in ted
re port
Ġi mplemented
Ġre pla
Ġfor ward
') ),
ĠC alled
mo unt
Ġz one
Ġab stract
Ġbase s
Ġoper ator
Ġauth entication
bili ties
Ġta ken
ĠSo me
del ta
ĠPre paredRequest
Can didate
Ca che
Rec ord
( ['
) "
1 8
C lose
D efault
O ver
j unk
s v
re quirements
an e
Ġen ough
ex er
Ġma th
Ġpo ly
Ġ2 00
Ġresult ing
Ġ"" .
Ġnormal ly
Gener ic
ĠAd ded
Ġcancel led
Ġusu ally
Term inal
f ut
s peed
w info
Ġe ff
ra ction
Ġde sc
pre c
Co py
Ġset Up
Ġver bose
tera te
min or
Ġnormal ized
label s
remain der
Cli ent
= -
d uplic
r s
s ame
u ce
x d
y ield
Ġt mp
an iti
he llo
Ġd b
ĠS O
et ag
ac cept
Ġspecifi cation
inter preters
HTTP Adapter
block ing
Ġpla in
LI ZE
Ġedit or
Ġdependen cy
ORMA LIZE
C S
I S
U se
e val
x i
or sel
Ġf rozen
Ġre li
Ġb order
ma pped
tem s
Ġun expected
Ġem bed
Ġpre releases
ĠR ule
TH ON
Se quence
ĠSt art
button s
Doc Test
BU G
D L
L IP
N S
S h
T ag
b atch
h d
Ã º
en sor
() [
Ġcon tinuation
Ġh ard
Ġas k
Ġsu ite
bo otstrap
ron g
Ġexample s
gra de
Ġwait ing
resource s
Frame works
SPE CI
- %
Ġin coming
li teral
Ġ( {
test limited
Con ver
ĠW hether
Ġop tim
Ġindi cating
imp l
FI C
wrapp ed
enti cate
distribution s
compati ble
testlimited capi
S SIZE
W HITE
[ ...
h istory
w ill
Ġp kg
ut ine
ĠF rame
Ġpro g
Ġpro to
Ġca st
ic ro
ĠCon struct
igh ts
Ġbuil der
ĠSe quence
abs path
Ġste ps
ĠCF WS
KE Y
WHITE SPACE
) '
B O
s yntax
w ide
} /
Ġo k
Ġis subclass
he el
ra cket
ss ue
do es
po inter
Ġread able
Ġho me
wrap s
Ġsuccess fully
a ined
b ut
v os
or ator
ar row
Ġt abs
Ġin te
Ġin teractive
ad os
Ġ" {
(' .')
pro to
sing le
Ġsub sequent
Ġmode l
Ġbin ding
Ġdir s
Ġrest ore
Pre paredRequest
System Error
Renderable Type
LIP SIS
6 00
b ig
c m
r v
s uper
de tails
Ġth ough
ĠT ry
age d
Ġ`` (
ĠM ulti
link s
Ġmin imum
Pro tocol
fin der
Ġret rie
crement al
urro gate
' ll
y pically
on ce
se quences
er ce
en um
Ġs lice
Ġin struction
un link
ec tive
lo s
Ġex tended
ma pping
ĠS T
for ward
ent ries
Ġcomp onents
Ġz f
func s
Ġover ri
TE D
Ke ys
Ġren dered
Header Defect
Ġbuiltin s
Ġmac OS
P open
U RL
W indow
c name
g on
i fied
n ess
p ull
Ġc losing
ĠP er
qu it
ĠA c
ĠE vent
ari es
ER R
cur ity
reg round
Ġcallback s
AB LE
fs path
VER SION
Ġstri pped
Buil der
' d
N ORMALIZE
O bject
S ession
a len
te t
Ġb atch
ge titem
ma jor
ke ep
Ġg ra
ĠA N
': '
ĠTest s
pri vate
Ġsepar ated
Ġinternal ly
pad ding
Ġlib rary
TIME OUT
W indows
t riple
Ġre le
Ġo l
ex pi
(" <
Ġtr usted
Ġsp inner
ĠU p
ĠL i
Ġreg istry
ĠURL s
Ġdiffe rence
range s
Ġupdate d
ID GET
chron ous
2 6
A ST
c d
z ed
te ar
Ġf mt
ur ther
Ġb ig
Ġs atis
__ ",
Ġdef ine
Ġ* **
red uce
Ġexp an
Ġ3 0
Ġsupp ress
inter val
ĠPar ameter
ĠID LE
Ġsa ved
ĠQ ueue
ĠValue s
ĠHel p
Ġcate gory
( \
M atch
c id
f allback
g nore
al ways
Ġs he
Ġs lash
un ix
di an
Ġfor k
ĠI O
ff ff
pro c
Ġ{ !
reak point
Ġli m
reg ion
down load
AL L
AL UE
Ġrepe at
Ġassume d
AND ARD
adap ters
Ġexpo sed
2 00
> ',
C olor
V E
b lue
h i
} ".
Ð °
Ġ ge
Ġf it
Ġf ree
Ġs mall
di ffe
ol ated
Ġar ray
Ġr fc
Ġres ume
Ġlog ic
Ġrun s
IN ET
Ġextra cted
Ġper cent
Ġdel ta
ank ed
Ġsent inel
EL LIPSIS
okup Error
Ġdefin ition
ĠNO T
ĠDoc Test
8 22
M T
S ho
se rial
re aded
"" )
Ġh aving
ĠC lass
Ġ`` .
Ġad ds
ĠB ad
Ġcol lect
Ġone s
ER T
ĠG ET
Ġmin or
Ġcookie jar
AC K
Ġcolumn s
Ġpri ority
Found ation
Sp lit
Ġconfigure d
ĠSho uld
" ``
D ir
U ID
h ave
di sc
ri o
Ġh ad
ĠU RI
Ġro t
ĠCon fig
iter ator
Ġresol ved
Text IO
Sp eci
Ġthing s
fra gment
ĠPO SIX
Ġtrig ger
Ãª n
( ('
I d
I terator
] +
b p
s sed
u test
Ġ ])
in te
re Foundation
st it
Ġp ixel
def s
Ġst a
Ġ' #
ser ted
Ġr and
Ġun known
Co okie
ĠO r
Ġnew lines
back end
tain ed
com men
Par am
match ing
sen ted
Ġfin ished
' *
' ``
f rozen
v ant
Ġ ],
de dent
al cul
Ġb roken
Ġ' :
Ġ- --
Ġse cure
Ġde leg
Ġpa ren
el f
reate d
Ġsub domain
comp ressed
Ġframe s
Ġexec ute
Ġcom bin
Ġcomple x
Ġdisplay ed
Ġkw ds
ĠFile NotFoundError
OS Error
Ġdep ending
CF WS
Ġcopi ed
Ġwar n
2 1
: "
: ])
> <
C leanup
E E
S Y
V AR
Ġ >>
Ġp ush
Ġp urpo
ro t
__ `.
name d
Ġde coder
Ġde tect
Ġpar agraph
Ġsho wn
ĠW ith
temp dir
Ġac cessed
Ġli sten
MA P
print able
Po licy
assertIs None
chunk ed
Ġhook s
go od
At tributeError
Temp orary
ĠTime out
sq rt
* \
9 8
E nd
G E
re lative
Ġa st
en tr
Ġd rawing
test capi
') ]
Ġpro cesses
so me
Ġpo six
su c
ĠM odule
Ġcolor s
Ġ'. '
ret val
Ġcell s
nor m
tar info
Ġmu ch
Col umn
f amily
i od
k ind
r and
de precated
Ġb ottom
Ġco un
lock ed
Ġformat s
Ġfo reground
=' ',
En code
Ġlike ly
Ġwa iter
position s
SSL Context
Ġrece ive
TLS v
F oo
O L
c ar
in clu
Ġin herit
ĠT emp
Ġwi ld
__ :
ĠC allable
Ġ1 5
ĠF raction
assert G
ĠD on
Ġun quote
qual name
Ġca pa
RE D
Ġbreak points
Ġzip f
Ġmark ers
help list
UN D
Ġever ything
Ġrenderable s
Ġrepo sitory
Ġtur n
ĠAB C
) \
M en
O r
T raceback
V ENT
m aster
de nominator
me r
at ty
ĠT hread
men sion
Ġdoc s
ref s
Ġresol ver
env var
debug ger
own er
Ġcre dentials
Ġcapture d
ĠHo wever
Ali as
construct or
F T
T ensor
p alle
Ġ ).
si ty
lin ux
ver sed
Ġde c
ĠE ntry
ren ces
"] .
ume r
Ġwork er
UN C
Ġgo od
member s
Ġedit win
gu i
gr al
Ġsimp ly
Ãªn ci
) ',
A SE
R T
g raph
h int
i fic
n l
s ync
se gment
Ġin cre
() ))
test ing
ĠS yntaxError
Ġal pha
col on
Ġapp lied
Ġj ump
Ġcomple tions
multi part
mail box
wri ting
ĠBy tes
Style Type
Ġcompile r
Ġ25 5
Exp ected
nap shot
= =
C fg
Y ielded
b lank
c aminho
u alen
st orage
Ġre commen
Ġm ix
di s
lo bj
ra ck
Ġ" (
Ġh int
len dar
ta ti
url s
Ġtry ing
Ġpre tty
ten v
ĠH eader
Ġresponse s
width s
Un known
CH AR
rep ly
ĠSpeci fier
Ġâ Ĩ
mk dir
Ġcau ses
veni ence
ualen v
P RE
Re lease
Ġun it
Ġpre cision
cal ler
Ġinter pre
Ġpos sibly
Ġele m
Ġgroup s
Ġba z
Ġproper ties
man tic
comple tions
Ġoccur red
Ġbehavi our
Ġdep th
Ġown er
charac ter
! ")
3 5
M IN
O ne
_ {
b stract
t wo
or na
Ġt reated
en c
mp ts
Ġ' |
Ġd at
Ġen um
Ġg ive
(" -
Ġ`` __
Ġver y
Ġad dition
In itialize
Ġapp ended
Ġcomp iled
En um
sh ort
Ġsock ets
Ġiden tify
XX XX
Ġprevious ly
anti ze
rule s
_ ,
n ect
Ġ ls
Ġ },
en gine
Ġp ending
Ġb r
Ġs mal
Ġex clu
Ġse m
Ġh ol
Ġ1 9
Ġpre pared
Ġapp lies
ac tivate
prefix len
Ġinput s
Ġinst allation
fa iled
ĠDi ctionary
argument s
ish ing
remain ing
Ġprefer red
> %
F unction
H ash
S kip
Ġin tended
Ġto ol
() ):
Ġex ternal
ve lo
sp ans
con f
po ch
po ll
Ġtr ust
Ġno des
Ġad j
ca p
ĠW ait
wa ter
ĠL iteral
Ġl st
ĠRe place
Ġback wards
Ġper formed
ĠCo reFoundation
HTTP Exception
spa wn
Met a
ighligh ter
ERR OR
C P
C UR
S ection
} ',
de coder
Ġe g
(' .
assert Not
Ġpath lib
Ġpo inter
Ġpre v
ĠB utton
ĠH E
lic able
act ual
Ġfol d
Ġsh util
show warning
fail ure
Ġcho ices
Ġdis k
EC T
Ġgre ater
vers al
ĠIndex Error
mantic s
B ad
D o
H T
I t
L exer
] *
c ator
d l
se c
re vision
ti v
Ġn curses
Ġ' *
der s
ĠC urrent
set attr
Ġig nor
Ġorig in
rec ted
raise d
Ġspa wn
Ġmod name
So me
unicode escape
NO T
Ġdecode utf
Ġcre ation
nan ny
expi res
ĠUp date
palle ts
S ec
X ML
t d
u d
u ses
as hes
Ġg h
ĠS upp
Ġ1 1
po wer
Ġun do
ĠW idget
ĠIn ter
ĠIn itialize
term in
ĠCon trol
frame s
Ġrecord s
wh itespace
location s
Ġsuc ceed
Ġmodi fication
3 6
H A
c atch
w m
Ġa tom
Ġp ublic
Ġw s
he ading
__ ``
Ġex its
ĠI ssue
Ġde vice
ĠE ither
Ġpre p
ĠEx ec
Ġinter val
Ġper mission
Ġnormal ize
De lete
Ġtar file
ret ch
chunk s
uthor ization
Ġwho le
comm it
Ġâ Ģ
wide char
( ["
M ap
M issing
P age
l strip
Ġ ser
in teract
re po
is file
ex ternal
Ġ0 0
assert False
Ġpre dicate
ĠV alid
pen dent
cl ar
Ġsource s
Ġiter tools
Ġtyp ing
Ġdecor ated
UN K
ĠPro cess
Unicode DecodeError
Up date
) ",
/ <
O PTIONS
S top
s ym
de cor
Ġw alk
Ġe cho
__ }
get frame
Ġ[ (
pre sented
Ġad apter
ĠW ill
Ġexp i
Ġca re
IN DO
doc s
Ġmax size
Ġ5 0
12 345
Ġstop s
Ġref resh
ĠLo ad
SO CK
ĠRequest s
Ġrep orted
PO ST
Ġfix ed
charac ters
Ġconf lict
umer ator
A M
C annot
D G
S upp
U sage
U SER
W A
f ree
f etch
l st
m ory
s lice
on ic
mp ath
di o
() ."""
Ġ' \\
fi ers
Ġg en
ok s
op tim
Ġother s
ab i
ĠG H
yn am
color s
token ize
sign ment
ay out
local host
du ces
pas sed
eca che
Lo ad
exist ing
Ġpoly gon
SPECI FIC
F ailed
c ut
c ard
i mplementation
de sc
ti li
Ġre size
Ġre presented
Ġn a
Ġn Ã£o
ĠC ol
tr usted
00 2
Ġset attr
ten tion
Ġtime zone
Ġle ak
Ġcor ner
Ġoper ations
are st
ref resh
Ġimplementation s
Ġdomain s
Ġpla ces
ĠWSGI Environment
Ġwrap s
cho ices
Ġfe ed
ĠQ u
Ġlar ger
**************** ****************
SER VER
Ġqui et
indi ces
' ]:
) ;
L Y
S end
W ORD
X T
o b
Ġf ul
Ġf act
Ġm atched
lo pen
() ]
ĠS erver
ĠS tati
Ġ`` /
Ġhe ap
read able
ĠW h
fun ctools
ac quire
Ġcomp ressed
Ġz info
not ated
Ġfo re
Ġtoken ize
Ġstream s
max size
Ġdescri bed
No Return
Ġattemp ted
Gener ate
ĠLin ux
cogn ized
F ilter
a wa
p ts
s lashes
in f
Ġc wd
Ġw in
he re
ge ther
ĠP ATH
Ġg raph
con ver
tr un
tr ust
Ġun bo
Ġad ding
ca use
Ġsys config
ab el
Ġ(' ',
Ġ\ *\
ĠSe arch
leg acy
Ġcer tain
88 59
FL AG
Ġguarante ed
Ġ\*\ *
C urrent
U ser
W N
c nf
m id
o me
w orld
in spect
re served
Ġi de
Ġp lus
Ġb lue
as yn
lo t
co ls
Ġco mes
Ġg libc
con stra
list dir
Ġun its
ĠE N
Ġ| =
Ġwhen ce
Ġcomp ression
Ġfo cus
object s
Ġsh ift
Ġtarget path
Ġfollow s
Ġpi e
Ġsuc cesses
Ġ'/ '
Ġgi ving
Ġdependen cies
Ġsever al
3 7
3 8
E M
N ING
m ust
u int
Ġf lat
Ġf urther
ar ded
Ġw indows
an ging
Ġe ditable
ate ver
test r
and size
Ġ1 4
Ġpro c
op codes
ĠU ser
ĠM ax
Ġ4 0
ste ps
Ġprefix len
be gin
tifi er
ele ments
bb bb
}. {
Ġfut ures
Ġcau ght
YY YY
On ly
Ġsc roll
abstract method
STR ING
ĠLi ke
disc ard
N ormal
g ent
j ected
u ous
~ /
th o
in ary
de penden
Ġc f
Ġc ar
Ġc type
is instance
ma ch
Ġse mantics
ĠS end
ĠS AX
ĠC LI
ĠF uture
Ġ[ -
mo re
Ġoptional ly
Ġsign ific
Ġpad x
Ġscheme s
mt ree
ĠZ eroDivisionError
ras h
Gener ator
COL OR
ele m
Ġtre at
Ġembed ded
B utton
U P
d rive
i os
µ es
Ã µes
in ery
de pth
Ġw rong
Ġm is
pa irs
Ġse ar
Ġg zip
ex us
ĠC ON
Ġma gic
Ġline ar
** *
py c
scri ber
En tity
Ġcom b
Ġimp orter
import lib
wri testr
dest roy
Ġsymlink s
Ġrel ated
Ġtre ino
pick le
Start ing
ĠâĢ Ķ
4 5
a u
g iven
i pe
s tem
or arily
Ġc lo
un ic
di vide
pa gate
Ġra tio
Descri ption
Ġ2 04
Ġtext wrap
IN T
ag ing
cache s
sh ift
12 7
Ġop inion
ili ty
fil ters
Ġdest roy
Ġsen ding
Ch ar
recur sion
Dec orator
uff fd
Ġexpan ded
( __
V alid
b ang
b racket
g uess
i ent
p or
w ant
x file
Ġ utf
de vice
Ġf etch
Ġp at
Ġs queezer
un nel
Ġm k
Ġm ut
Ġm time
Ġm orsel
() ),
ĠT hen
ĠT tk
Ġv env
ĠS ec
ir cle
Ġfunction al
ĠV erify
Ġsub type
Ġca p
Ġx ml
ĠG roup
doc ument
Ġj ar
'] )),
Ġvari ant
Ġmulti part
12 3
Ġwri tes
Ġsche d
Ġsignal s
Ġrece i
ĠSp lit
quee ze
ick y
ĠAdd ress
rag ma
Ġmid dle
Wri ter
Ġproba bly
ĠâĨ Ĵ
' "
' }
S yntaxError
W ait
b ing
i cally
l ang
n ested
r ray
Ġ $
al len
Ġp ure
Ġe ar
un quote
Ġ""" ``
Re place
Ġg c
path name
Ġimplement s
Ġarg v
Ġsub set
ĠCon ver
Ġwidget s
Res ol
Key Error
ĠĠĠĠĠĠĠĠĠĠĠĠĠĠĠĠĠĠĠĠĠĠĠĠĠĠĠĠĠĠĠĠ ĠĠ
normal ized
Hel lo
ĠPro xy
cy cle
Sp an
trans late
Ġasyn chronous
ĠMe thod
Ġrecursive ly
Ġdelim iter
Ġcl one
ĠAN SI
ĠMax imum
unic ate
" ]:
' ."""
. '
7 0
B ar
S ecurity
c mp
r andom
Ġ Ã©
de lim
Ġc ut
Ġt p
Ġe moji
Ġ' )
ma g
Ġdi v
Ġg db
bu gs
Ġma is
ta bs
ys hell
Ġy ields
Ġad vance
bo sity
ĠB ar
Ġmode lo
LE TE
Pro vi
Ġinclu des
feren ces
AD ER
Ġrow s
Invalid HeaderDefect
Ġoperand s
Ġhappen s
eg gs
~~ ~~
HO ME
Ġparen the
suc cess
" },
) ")
. %
M D
N on
Ġ rich
re quired
Ġre duce
Ġ( _
Ġ( ``
Ġu sable
ma y
iel ding
Ġro utine
Ġformat ting
handle d
Path Like
ĠĠĠĠĠĠĠĠĠĠĠĠĠĠĠĠĠĠĠĠĠĠĠĠĠĠĠĠĠĠĠĠ Ġ
net mask
ĠZ IP
Ġremain der
annot ation
Ġenti ty
ĠAl low
nor mpath
rup ted
Doc ument
valu ate
ĠHel per
ĠRen derable
coun tered
rp c
Ġdete cted
Ġrecommen ded
M S
T k
d raw
e ff
s aniti
s urrogate
se cure
er arch
Ġreturn code
ĠT r
Ġh istory
ction s
id a
(' --
key word
ĠF F
ĠF oo
do s
Co de
Co mple
ten tial
ist ori
add Cleanup
Ġcode c
Ġac ross
Di alog
we ak
Ġwri table
Ġpy doc
Ġresp o
Ġequal ity
Console Options
Ġcho sen
cer ts
Ġgi ves
ĠUN SET
aa aa
Ġgre en
ORMA T
Reg ister
stics Error
provi ded
( ("
> =
A TION
e ffect
f ficient
m u
p ending
Ġi ds
Ġf s
Ġt ries
un ame
di rected
Ġ' "
Ġv cs
Ġex clude
get Logger
ma tic
con su
con cat
ĠA fter
tr ansport
ff set
ord s
Ġapp licable
Ġle a
Ġcomp ared
Ġint ro
run time
DE X
Lo cal
dit or
parent s
break s
over load
={ },
Bu ild
Ġissue s
Inter rupt
Ġawa ited
Ġproble m
rel ated
Ġeff ective
allen ge
A U
C ERT
p es
r yp
x c
me an
en coder
Ġn ull
Ġe p
Ġto gether
di a
Ġ( %
Ġ" ...
__ '):
Ġbe ta
Ġcon current
Ġg rid
(' _
ĠA ss
ĠS IG
us l
bo olean
ĠB ut
wa y
lib rary
pla y
Ġcheck er
cate gory
Ġqu ot
abc def
can not
can onical
bin dings
Ġlook ed
Ġdot ted
Ġdep ends
Ġcho ice
Ġfe atures
ick ness
bound ary
Ġseparator s
Argument s
Ġdid n
mime type
sem ble
Debug Python
[... ,
2 7
A PP
M sg
] ])
c rt
e ps
s queezer
co unter
si c
la mp
ĠF irst
Ġ... ]
po pen
ĠU UID
ĠW IDGET
ab li
Ġro unded
ĠIn ternal
ard less
doc string
Ġnames paces
ub utton
Ġmulti processing
ĠRes ource
assertIs Instance
("/ ")
LO CK
Met adata
board Interrupt
sitional s
P ORT
S hell
e ed
h test
Ġ ;
Ġ ?
th row
Ġa mount
le ak
Ġf ew
ar ba
Ġre versed
un di
ro aming
ad or
Ġas signed
str ong
sc an
ĠF I
set Up
um ing
Ġdo ing
Ġare n
ĠD ec
ĠN AME
process or
File s
work er
Ġwidth s
Name space
FI G
Ġbet ter
Optional s
As sert
ĠMe asurement
ĠBu ild
undo p
recur sive
ĠDE FAULT
Trans fer
inte gral
ĠStati sticsError
erarch y
arba ge
" <
: ",
E VENT
I ZE
N ew
O T
[ ,
` ."""
c as
p ed
s y
an is
ul ated
() ).
ch mod
ver y
and roid
Ġme ch
ta ched
Co okieJar
ĠB reakpoint
ef ficient
Ġallow ing
com bo
abc d
bar rier
Ġwrapp ing
sha ke
Ġpy test
mb ed
Ġinitial ized
vari ant
display hook
ĠInst allation
ĠOver flow
Ġful ly
Y ou
d uct
e mail
f alse
g y
g id
o unt
t orch
z i
Ġ ul
re quire
Ġre ach
Ġst retch
it ch
am ount
ĠA uth
line len
Ġpo tential
Ġcheck point
Ġ'' '\
Ġdist utils
Ġk ill
Ġop code
Ġcur ses
Ġsystem s
sha red
Ġauth ority
ĠSet ting
}) "
over flow
Ġgo ing
medi ate
Ġmemory view
ĠGener ate
Fin ishing
Ġpr inted
ĠCli Runner
Ġconsu me
tili ty
9 0
O ther
i mmutable
p in
t orna
te ts
al f
Ġre ct
Ġo uter
Ġs can
Ġ" )
ise d
Ġde al
to c
ĠS ince
Ġlo ading
Ġal ong
und le
su ite
cate n
Ġqu otes
TE XT
struct ure
Ġexec utor
Ġposition s
Ġ{} )
DE BUG
Create s
Ġlook s
Ġdown loaded
Ġconver ter
Ġconver ts
Parser TestCase
expand ing
App lication
tz info
Ġduplic ates
"} ),
hd lr
Men u
1 000
C Python
T D
] ),
p lus
Ġin correct
Ġin serted
as utf
Ġm at
li te
ĠT ar
__ ')
Ġdi vide
ĠI SO
Ġde ri
ĠS ecurity
Ġar cname
Ġ`` _
Ġun ix
Ġal t
Ġy ielded
ir d
ca y
Ġcode cs
os sible
ĠRe quirement
'] .
SI DL
inter ps
Ġparent s
CO MP
gener ic
Ġconver ting
case s
Sp ec
cc cc
ĠPo ol
ĠCh ar
ĠCli ck
Ġtell s
ZZ ZZ
ĠCa use
mach inery
Ġsched ule
Ġdiv mod
! ',
) *
A uthorization
S imple
f name
u do
x b
z std
Ġp in
co re
ĠP ackage
Ġ" *
Ġcon sistent
ect or
il li
ĠS ystem
(" .")
Ġwh atever
Ġlo ss
Ġma ch
ĠD eco
Ġpre serve
ĠM ap
Ġle ave
ON LY
map ho
Un able
Ġrange s
ĠUn supported
FI X
Ġfin ite
ĠSe gment
Ġali ases
mark up
=[ ],
TER N
contain er
byte array
UR CE
ĠBo th
Qu ery
ĠTO DO
Ġol der
WA IT
= ["
E mpty
S elf
W heel
c p
c enter
i dent
m icro
n umerator
u i
in sensitive
Ġre try
Ġin vocation
Ġe val
Ã§ Ãµes
Ġd ra
Ġco ver
get ter
Ġh ide
ver sable
Ġde clar
Ġma int
Ġver bosity
ĠV ALUE
join path
Ġencoding s
sys config
work ers
Name d
AD D
auth key
tra in
Ġlook ing
gg le
cancel led
Ġserial ize
Ġcollection s
Ġedge s
change s
Ġtear Down
67 89
pull dom
E lement
P er
P rint
Q ueue
U I
h igh
l n
} ]
Ġi mmutable
Ġc v
Ġc rash
al so
al pha
Ġt ypically
Ġo pp
li text
Ġst icky
() ',
Ġ' (
ĠP open
Ġd ummy
Ġlo cate
ĠM en
ĠM AST
ĠR EC
wa iters
ĠL abel
Ġlog ical
Ġcontain ed
fe atures
Ġreg ardless
Ġman ually
Ġsh or
wh at
Ġinitial izer
Ġscri pts
callback s
Ġpri or
dered Dict
ĠUT C
comm on
redirect s
llo ver
enable d
PY THON
oper ation
Ġaltern ative
Ġph rase
inclu ding
ĠBytes IO
ĠMAST ER
' <
) ])
: -
A nd
M y
U sed
b gcolor
i mation
de leg
`` )
`` ).
Ġf t
Ġf ast
er nel
Ġin her
ge red
is ters
Ġex emp
qu antize
Ġdi vision
Ġen ter
(" _
time s
rie ve
ĠO K
Ġtext o
Ġtext variable
ĠM et
ac cess
Ġcol on
=" %
den ce
comp ression
Ġopen ing
Ġbreak s
Ġinter p
Ġblock size
Ġnet mask
Header s
Po sitionals
Ġwheel s
={ "
Ġattemp ts
PP PP
ordin ate
rep l
Ġdescriptor s
Ġsuccess ful
undo buffer
bre vi
gre en
cf ws
Ġbeco mes
Ġsear ched
4 4
> ,
D ummy
F uture
I mp
R FC
U S
W hether
W INDO
e of
r l
s orted
Ġa ffect
Ġf ig
al ive
an ch
ad j
Ġfun ctools
Ġch anging
par sing
to ml
ĠC Python
read into
Ġexp ort
Ġle x
com ments
new line
En able
Ġbuil ding
Ġfloat s
IP v
auth or
pri ority
Ġdir name
tra ct
Ġresp on
Ġload s
Invalid Operation
Ġrepe ated
Ġhi erarchy
Ġrepla cing
ome try
' m
4 01
B o
k lass
p at
s queeze
Ð ±
th ickness
le t
di sp
Ġ' +
Ġ' ;
ct ypes
Ġse c
ve ls
Ġor ient
Ġde ad
ĠS h
ĠE lement
Ġline sep
ak ing
Ġsub stit
til t
Ġk lass
struct ures
create d
side bar
Ġconn ected
cookie jar
Ġ'{ }'
Ġmak ing
Inter face
Ġconstra ints
fact or
Ġreli ef
Ãªnci a
ĠHE AD
ADD R
L ink
P AT
` :
b t
c lo
c ircular
d or
i mal
m tp
n ed
x e
x im
Ġp ul
Ġn an
at ur
ue ssed
Ġ# #
ĠT ra
ĠP RO
Ġu id
Ġdef ects
Ġen coder
(' %
ĠF unction
Ġz i
ĠG UI
Ġ(' --
Ġopen er
Ġindi cated
AD ATA
multi path
man ent
Ġcomm it
Ġsuffix es
stat s
Ġbuf size
}: {
Ġda emon
ĠExtra ct
fut ures
anis m
: /
G B
I mmutable
S tr
Z MA
g t
w as
se curity
de pendent
Ġf g
ur vi
Ġn arrow
Ġe lapsed
Ġis olated
di cion
Ġst o
Ġ# :
is tent
ma cos
qu are
ve red
Ġen ding
(' #
ol der
ĠC O
Ġne tr
int ypes
Co ordinates
Ġget ter
Ġat tach
ĠW rite
Ġbu g
Ġout line
Ġl ang
ST AR
Ġ4 00
10 1
ee p
LE ADER
TE N
CO M
]> :
Ġunder line
sha re
Ġpy c
Ġpoint ing
fail ures
meta class
Ġredirect s
Ġdigest mod
Ġsen ds
lap se
Ġcanonical ize
Ġtermin ate
Ġtrig gered
vid ing
ĠTh at
Ġdisc arded
Ġrele vant
ĠTr ans
istori co
. *
A fter
F ail
a res
b order
p tim
p sis
ar m
ar ge
Ġre ally
ur lopen
Ġs yn
Ġs izes
co me
ĠT I
Ġen countered
to re
ĠW ork
Ġac count
RE C
ĠCo unter
Ġhttp bin
Ġzip fp
ĠDe termine
Ġsubclass ing
wri tten
Mo ve
annot ations
AG E
Ren der
edit or
ĠSho w
Ġpor tion
Ġconsi st
Ġescap ed
Ġfrozen set
ĠCurrent ly
Ġfunctional ity
' +
D ate
L C
L AN
T ree
b ottom
e ither
r m
st ant
st arted
Ġb gcolor
Ġin str
Ġin teract
Ġif f
li sten
di go
ra tion
Ġ' =
ct ures
ed s
Ġd ynam
Ġco efficient
Ġcon fir
Ġde coding
sc rip
code name
ĠC lear
Ġpro mpts
Ġsu mm
men ted
Ġdata set
info s
ne ar
ĠL ine
Ġro aming
Ġab brevi
Ġmulti line
EN CE
Ġtyp ed
Ġtra in
number s
No de
vari ance
async gen
Ġselect or
ĠSo cket
Ġtemplate s
Ã¡ rio
Method s
Ġlin has
ĠTcl Error
vid ual
Ġescap es
Sho w
Speci fier
Param Type
norm case
Ġpie ce
) ?
= "",
F actory
R IP
W e
W ar
_ )
c um
k ill
p ec
u ge
} '.
on y
in line
le ted
Ġin ts
un expected
di git
Ġh it
Re pr
Ġme mo
ĠC ase
Ġwh y
line sep
ĠD ata
Ġnew ly
ist s
ĠR aw
bo lic
den ted
Lo ck
String IO
Ġdocstring s
Ġinvok es
trans form
To o
Ġda ys
Connection Pool
renderable s
Ġvirt ualenv
Ġborder width
Encode Error
Ġsmal ler
FLAG S
) /
/ *
5 2
E ach
N args
N ULL
S OR
S ends
] ``
_ .
b la
f lat
w i
y led
re pe
Ġf lask
ur sor
Ġo u
Ġb g
Ġn n
Ġco ordinate
Ġme dian
par agraph
ĠC lose
)) .
no wait
ĠE quivalent
ix ed
Ġget context
qui vo
Ġpas ses
Ġtime r
Ġle ader
Ġmax linelen
exp ect
log ps
pr ints
RE USE
lect or
off sets
make file
da ys
Me mory
go ing
Ġinvok ing
resol ver
Ch ange
Ch ild
Ġmeta class
Value Terminal
Sub class
separ ated
Ġarqui vos
Ġlin ha
Ġlin ecache
ĠBu ffered
sa ved
Ġcycle s
Ġsym bol
Ġconsi der
track er
glob s
Exec ute
Ġeas y
ĠMulti Dict
tear down
TextIO Wrapper
Ġcoun ts
Ġhol ds
undi tems
Ġnetr c
8 7
> </
H H
R aw
` ).
b old
e os
} ),
Ġ uri
Ġc lock
Ġf resh
al y
ar sh
Ġs ash
Ġs lot
Ġin finite
di rection
Ġd type
get pid
get cwd
Ġh ref
Ġas cii
ll ing
Ġdi stance
Ġdi git
sp litext
ĠA nd
read ing
Ġwe ight
ne cess
Ġro llover
ON E
Ġz er
ĠIn stead
Ġurl s
ĠG MT
message s
Un supported
Ġman aged
speci fier
ĠNo w
ĠCreate s
Ġret val
RI TE
Ġfill color
Ġip v
byte code
Tr ansport
CON FIG
Ġconsu med
gre es
Auth enticate
Ġsilent ly
duplic ate
entr al
inary IO
" ``.
- {
5 00
8 00
9 5
: .
C AL
C SIDL
H AND
I mportError
P L
R o
S tack
b c
b g
i req
Ġ tes
re ater
de t
Ġc ada
ti os
Ġre fer
un c
un bo
as semble
ri th
ut co
__ ")
ĠI gnore
Ġg arbage
to s
ex cept
Ġfrom list
Ġun set
op inion
Ġpre c
Ġ% (
Ġwe ights
ĠM ark
ress or
Ġca used
sub domain
ag ent
ĠTest Result
ĠCo okie
Ġorder ing
TH READ
CO DE
Ġsection s
Ġhash lib
licit ly
ĠZ std
ĠNo de
Check s
Deco der
Ġali ve
SSL v
sco pe
sco res
Ġmeta var
select or
Ġexpand ing
Ġappear s
ĠBo olean
dot ted
Ġproble ms
Ġmerge d
Ġconstra int
Ġbeco me
Conver ter
Ġrand range
rot ate
car ds
Ġinterpre ted
Ġtool tip
ida de
ditor Window
ĠTar Info
Ġ'{}' ".
( ...
, ),
C or
C EP
T h
W RITE
Z ero
[ ^
f time
f ast
p ublic
t tk
y es
te x
Ġth row
Ġc rite
Ġc ircular
Ġf name
Ġt w
Ġp ragma
ro unding
ot onic
si bility
Ġ( `
Ġnot ation
ĠA F
ex pression
Ġ1 000
do uble
so ft
ff ected
Ġun available
Ġpre served
add resses
Ġsub scriber
ha pe
exp r
Ġover la
Ġdict s
File Input
ati stics
mod name
Ġpad y
Ġdiffe rences
St atus
ĠĠĠĠĠĠĠĠĠĠĠĠĠĠĠĠĠĠĠĠĠĠĠĠĠĠĠĠĠĠĠĠ ĠĠĠĠ
Ġfin ish
net rc
Ġstandard Msg
Ġtrans late
buil t
({ "
example s
Ġtk inter
Ġcompress level
ĠST ANDARD
Ġoverri ding
Ġpurpo ses
Skip Test
Ġzer os
. '''
F ORMAT
U M
o sition
r partition
u tive
se titem
te ri
me tic
al ize
Ġb l
ce ived
as widechar
Ġ" #
Ġu uid
Ġd s
Ġd rop
Ġdef ect
ĠA ST
ĠThe me
pre fs
Con nect
ĠN on
led Error
ĠM S
Ġtime delta
ab ort
string andsize
ĠG NU
xy z
LE D
Ġexec uting
Ġblock ed
AR NING
ancel ledError
Ġauth or
Ġchunk ed
fil tered
Ġexit code
comple ter
Ġhighlight thickness
wri ter
mor sel
Ġlower case
ĠExp and
Process Error
ĠRen der
Ġnor m
bre w
Ġcalcul ate
Ġglob s
Ġlim ited
assertG reater
surrogate escape
ĠAss ume
" %
: ],
C ustom
D P
E ntry
S ig
Ġa mt
de script
`` ."""
Ġc ross
Ġs q
def in
he ap
Ġto k
li ve
der n
Ġor dered
sp inner
ĠC op
ven dor
Co uld
op code
Ġ2 3
cal cul
wa iter
The re
ĠCon nection
Ġab i
Ġab ort
Ġtemp orarily
Request Handler
platform s
da emon
ĠAn notated
ĠEn um
block s
ĠRes ol
sive ly
assertIs Not
ĠExample s
As ync
Ġrecur sion
CE SS
comm unicate
Comp are
ĠSpeci al
ĠOpen SSL
Ġperform ance
59 7
Ġconst ant
ĠCan didate
Ġpixel s
Ġeg gs
Ġexpi res
trun cate
ĠRenderable Type
Ġmech anism
Ġderi ved
Ġmach ine
War ns
' ')
6 1
6 8
: ")
> ')
A A
A ll
B S
C L
P ackage
V AL
` )
g c
j inja
n g
p write
r r
x f
Ġ âĶ
Ġ 64
th en
in finity
`` :
Ġc p
Ġf ds
Ġw or
Ġin crement
Ġe poch
ro le
Ġm Ã©
di g
co erce
Ġ' ?
ĠP ip
Ġ" \\
__ [
Ġd ro
Ġch ained
con tinuation
ho ur
ĠC A
ĠC T
vi a
no tify
out going
Ġat tached
Ġdata class
ĠW arning
ĠR EP
Ġwhen ever
data structures
Ġitem size
fe ed
format ted
Ġfo ur
Ġback ward
Ġback slash
host s
Ġextra ction
Ġprefix ed
Ġsh lex
bin ding
ĠHTTP S
ĠCheck s
Ġ6 0
Ġtrans fer
cho ice
spa ces
umeri c
Ġrep ly
Ġhigh er
ĠLog Record
Ġtear down
NU M
Ġshe bang
Temporary File
CUR SOR
Ġunbo undop
recursion limit
HAND LE
B asic
e moji
f ake
w ind
y ond
re store
de tect
`` """
ĠI s
Ġon error
Ġr c
app ly
ĠR ich
col lection
bo th
Ġcomp ar
Ġ3 02
Ġprint ing
fore ver
ST RE
arg in
Ġrec v
Ġper iod
Ġgener ally
ĠCo mple
ang ular
RO M
Ġauth key
send file
std lib
expand user
column s
ĠAd ditional
Ġdefin es
IG HT
Ġstri des
tab nanny
12345 6789
au dit
Provi der
descript or
STRE AM
' %
' -
2 001
6 01
P a
] {
_ (
b rowser
c ircle
n te
n bytes
n dim
y anked
Ã ¢
in formation
in complete
re verse
re ceived
Ġf i
ti ces
Ġt type
Ġs y
Ġs al
Ġs cale
tion Item
ame nte
Ġan imation
Ġco s
Ġcon t
Ġde dent
Ġde velo
Ġfile no
ĠA li
file date
(" >=
Ġne ither
list s
ten ce
back slash
ĠM ust
Ġle vels
Ġimport ant
ĠL O
ĠH e
ag en
Ġstream ing
other wise
Get Option
ĠJ inja
Ġshow s
Ġcustom ize
16 8
LI M
LO AD
uplic ate
Ġ"/ "
ĠUnicode DecodeError
ph ab
adap ter
real path
static method
Ġprece dence
ĠStream Reader
Extra ct
Generic Alias
ĠREC ORD
dicion a
rith metic
" })
7 8
E max
E OF
F R
H ighlight
M ac
i con
p time
or a
al ign
Ġn l
Ġw orld
tion al
un ct
ed ge
Ġdi ffer
Ġde ep
ex tended
file input
Ġlo cated
Ġun supported
pre fer
us y
Ġ2 822
py gments
ĠB ecause
tive ly
Ġread s
Ġimport ing
ST D
Ġover lap
Ġsign ed
decode d
Ġindi vidual
thread ing
Ġmark ed
war ded
0000 00
ĠLo okupError
Ġhighlight ing
Ġidentifi ed
Ġsen se
Ġassume s
ali ases
Ġpr ints
RA M
QU I
QU ENCE
diffe rence
ĠOr deredDict
Ġsignific ant
mapho re
( """
9 2
E scape
X DG
b lueprint
e m
g z
l on
s temp
x de
in clude
de cls
Ġre cor
Ġre load
Ġb undle
an sition
li psis
ad ding
() '
si bilities
and s
Ġme asurement
Ġde v
Ġde li
Ġen tered
(' :
ĠA bstract
(" .
ĠF UNC
Ġpro viding
Ġma ps
ĠD D
Ġun bound
Ġdefault ing
ĠM in
ĠR ec
iz a
lat ter
Ġho ur
pi e
sub dir
Ex tension
ĠĠĠĠĠĠĠĠĠĠĠĠĠĠĠĠĠĠĠĠĠĠĠĠ ĠĠĠĠĠĠĠĠĠĠĠĠĠĠĠ
yp ed
Ġstate s
Ġstate spec
Ġframe work
assertRaises Regex
Ġcom ma
Pro gress
Ġimp orts
imp orted
Ġinitial ize
Ġsplit ting
DO M
Ġret ries
22 31
ph rase
Ġcopi es
Ġrepla ces
Ġparenthe ses
ryp to
C re
C lear
E ST
I E
j ump
r split
s hed
s atis
st ri
Ġb t
Ġs it
Ġs ix
Ġs im
ul ation
ĠP rint
Ġ" ."
Ġbe yond
Ġex is
Ġex ha
Ġcon cat
Ġde ta
path lib
") ):
ĠF allback
um an
mo us
pro cessed
ĠO ne
** (
Ġshould n
Ġcomp ound
form s
Ġurl parse
sole te
Lo okupError
32 2
Ġapplication s
("/ ",
Ġke eps
HE ME
Mo di
Ġgo es
Ġnecess arily
ĠGener ic
Ġ[" --
Ġtri ed
ATE D
ĠDo es
Ġsym bolic
Ġoverri des
Ġdec la
decor ator
Other wise
ony mous
ĠCop y
" ')
* ,
A ction
I F
O utput
P K
S K
T ra
Ġ latter
re start
Ġa o
Ġc le
er tificate
Ġt aking
Ġre pro
Ġp us
Ġe di
li er
fi able
Ġen gine
Ġg a
Ġpa st
ĠA IX
Ġ* (
Ġ1 7
Ġun quoted
ĠE mpty
Co unt
Ġad ap
ĠW ri
ĠM ac
Ġtime d
ĠV CS
header len
Ġup grade
ou ter
split list
Ġserver s
Ġover write
Ġreg ression
can v
min imum
12 5
FF ER
CO OK
Ġunder score
conn ected
esca ped
Deco mp
LO W
BU FFER
Ġsco re
Ġsetup tools
Ġproduce d
alt sep
Ho st
Ġannot ation
uni que
Ġtrun cated
scroll command
alcul ate
Ġwild cards
gui des
caller s
Ġignor ing
Ġexemp los
RIP T
flat ten
Ġtes ted
COOK IE
5 4
? ?
L L
M ark
V i
c lean
d ummy
g libc
k top
u ard
y y
z z
in v
in struction
in coming
Ġf ar
Ġre use
Ġb usy
as signment
Ġm sv
Ġm illi
Ġco me
qu ot
qu otes
cri pt
Ġlist ing
Ġno tify
Ġ2 4
py cache
ac ter
ĠB db
Ġcomp act
ĠIn teractive
format s
Ġup on
'] ):
[' __
Ġk ernel
sh lex
DE LETE
Ġkeyword s
ĠKey boardInterrupt
sock s
NO DE
ĠPro tocol
ĠSt ate
Ġke pt
ki pping
Ġ9 0
builtin s
('/ ')
Ġest abli
Ġqui ck
Ġcalcul ated
dar win
week day
diffe rent
mension s
Ġpermission s
Ġdeta iled
Ġmsv crt
9 42
> ")
D ist
G TH
L ayout
P as
R UN
c read
d n
d yn
k l
s ince
t unnel
Ġ ten
Ġ \\
th rough
Ġa m
Ġre start
Ġre loader
Ġp l
Ġp ull
Ġin line
Ġe q
Ġe ager
lo ss
ri ment
pa ir
pe p
Re direct
Re quires
Ġme th
par m
con d
con ds
ĠS ame
ĠS ave
Ġr f
Ġun compressed
type id
Ġwe b
ĠM RO
data set
Ġle ad
wa ke
ĠL ZMA
Ġro ute
Ġac tiv
Ġl ate
char map
Ġback up
Ġcolor izing
En coder
pos sibly
EN O
Ġensure s
UN SET
Ġform s
ĠPar ser
ose conds
Ġref lect
Ġrender ing
cho sen
Ġattemp ting
At tribute
valu ator
Ġbutton s
Ġstat s
ĠNO TE
Ġob tained
ĠZip File
Ġpen color
Ġdisc ard
ĠMy Class
MO DE
Ġlet ter
ĠTO ML
provi der
ĠSpecifier Set
awa ited
mid dle
AU TH
QUI RED
dyn load
) ],
9 6
B ind
B IT
S MTP
T urtle
T ry
e ager
i lobj
y ter
Ġc b
Ġf re
Ġf aster
Ġ= >
li ant
Ġ_ ("
up yter
Ġg uessed
(' ')
ĠF ROM
Ġma cos
Ġ`` --
pre pared
op ener
qui et
back up
per cent
Ġexp ects
data class
ron t
lat lib
Ġho wever
ag ic
SI TE
foo bar
length s
Ġvalid ation
Ġ{} ,
Ġfil tered
Ġimp ro
ĠEn viron
ĠAt tributes
ĠRes ult
De termine
mon otonic
Ġsearch ing
Run timeError
stru cted
compile r
Conf lict
Ġgu i
SH ORT
cell s
ĠString IO
ĠCall s
Ġduplic ate
Ġaltern ate
ĠMet adata
adj usted
border width
yped Dict
' ',
) <
/ ",
A PI
N ECT
P ure
S ign
W rap
a va
i a
v cs
v ector
z es
Ã ¤
re loader
le port
er ro
Ġre tained
Ġs low
Ġs urro
Ġ""" *
Ġan si
ĠP latformDirs
ch ing
ch ained
Ġcon ditional
am t
ĠI MAP
con version
Ġ1 3
ĠThe y
ĠD ST
ĠR GB
link name
pen as
Ġcomp uted
lit tle
Ġspecifi ers
Ġend rec
ST ANDARD
RE PL
Ġcor o
Ġvari ance
Ġinter preters
Ġprefix es
Ġsh ut
CO D
Ġterm ios
Ġdecor ating
Ġchunk size
pri or
ĠĠĠĠĠĠĠĠĠĠĠĠĠĠĠĠĠĠĠĠĠĠĠĠĠĠĠĠĠĠĠĠ ĠĠĠĠĠ
wh ile
tra cer
ĠDe lete
0000 0000
Ġrelease s
Ġcorrespon ds
auto matic
88 88
ĠID s
ĠPY THON
Index Error
ansi ent
hand shake
Raise d
':' #
rack ets
XML RPC
Ġser vice
asyn cio
constra int
tho ok
Ġrecei ving
Ġrespo sta
Ġopp o
Positionals Nargs
disp osition
' ve
) -
1 10
? "
D one
D ATE
E S
E rr
I mport
P ipe
S um
a pt
c rop
d x
g ories
p c
th ough
Ġc te
Ġf lus
Ġre cognized
Ġb are
Ġs in
Ġw atch
Ġin ject
an ed
ro l
Ġis o
Ġm utable
__ '
__ ))
Ġd uration
la ys
Ġcon v
', ))
ĠA uto
ĠS yntax
ĠS imilar
sc all
file path
Ġ`` ~/
able s
ĠD O
Ġun specified
op name
pro pagate
ĠR o
per m
link ed
Ġcontext s
ER S
IN TER
direct ories
Ġnon local
En ter
ĠUn pack
Name s
exec utor
ĠSe ts
show error
Ġbound s
Ġoccur rence
ĠY ields
({ '
Ġopt parse
ĠEOF Error
Ġreason s
seek able
simple filter
ĠExp ect
hand ling
xi mation
ĠClass NotFound
Ġsta le
dependen cies
necess ary
( <
4 6
A r
C EL
H TML
P UT
S SION
d ual
i as
m ing
u de
in herit
re name
Ġa ware
ur n
Ġp wd
an ner
() ->
ser ving
Ġcon struction
sp ection
Ġfile path
Ġma pped
Ġr ank
um b
mo te
app context
Ġkey set
Ġpre ference
ĠU ses
ĠR PC
temp ts
Ġlog its
Ġab is
RE QUIRED
Ġman age
Ġmulti p
Ġgener ating
Ġbuffer s
Ġoff sets
Ġerr write
exit code
Ġfil led
Ġ10 24
AN CEL
Ġiden tical
SC HEME
Ġ'- '
ĠPar am
Ġimage s
ĠOn ce
ĠLo cation
buf size
Ġinv ol
record s
trans fer
ĠUN IX
ĠPo sitional
ĠNormal ize
Su ite
ĠTimeout Error
Ġprep end
" >%
* (
2 8
5 5
A IL
C U
C TION
G uard
R C
S ample
e mbed
g db
p board
s l
u ations
x fe
Ġ serve
in teractive
re quested
Ġre spec
Ġb as
Ġs lashes
at al
un supported
lo oks
co ords
() ")
__ ']
Ġex tend
pe er
Ġse curity
Ġh old
Ġstr ong
Ġg id
ĠS U
ĠS ection
sc hed
ĠC om
Ġpro duces
ĠE nd
Ġarg val
Ġy ielding
res ume
ĠB asic
ne arest
Ġsub path
Ġsub dir
Ġcol lected
Ġac quire
Ġnon zero
Ġprocess or
Ġsh allow
find all
can vas
Ġmin imal
12 8
Lo op
typ ed
pri me
ĠPro gress
ĠBase Distribution
LI B
Ġappro xim
ĠLo ok
Ġaccess ing
skip Test
SO URCE
Ġfra ction
Pre fix
sample s
ĠRaise d
Ġhex digest
ĠPO ST
Ġconst ants
Ġannot ations
Over ride
ĠSO CK
Ġfig ure
) +
0 8
; ")
B lueprint
C RE
C ursor
L A
X Y
[ \
_ =
a f
b log
p l
t rieve
v Options
w atch
re r
Ġa penas
st ic
Ġc id
Ġt ty
ur len
ing er
Ġs napshot
Ġst and
is nan
Ġ" &
pa res
Ġcon sec
it oring
Ġdi sco
ction aries
Ġen force
ex clu
app ro
pre releases
pre tty
error handler
Ġpo ll
Con st
ca pe
In sensitive
per iod
ab out
iz ador
ĠRe torna
Ġmay be
Ġmax len
state s
MA N
Ġremo ving
pas te
Ġdescri bing
tag ged
raw unicodeescape
auth enticate
Ġmock s
digest mod
DO WN
Ġtrans form
Ġaction s
enti ty
Ġremain s
Bu ffered
resh old
sis ten
Data set
ph ase
Ġcertificate s
ĠK eep
hex digest
ĠExp ected
Ġest i
23 1
Ġbrowser s
Ġsw itch
Ġtrun cate
Cache Control
ĠQu ery
ĠOverflow Error
Ġlex ers
Immutable MultiDict
wi ki
phab et
FR AME
942 15
sched ule
Insensitive Dict
! "
2 01
B LOCK
E min
F unc
J ECT
P AR
S yntax
d ns
r w
{ '
Ġf ake
ar se
Ġb s
Ġin compatible
as ing
ro ad
ra cing
() ``,
Ġfor warded
Ġ( *
Ġcon tin
am big
Re set
Ġpa use
ation al
ation Error
key set
key words
Ġ... ,
Ġun defined
ĠO utput
Ġad just
ĠU sage
cal c
ĠW heel
ls b
Ġhas n
ĠR E
ac ent
Ġla zy
Ġli sted
den tifier
comp ute
RE Q
sign um
Ġprovi der
'\ \
Ġ5 00
Ġmin us
Ġsingle ton
Ġimp l
Ġshow ing
Ġreq s
Ġoc tet
Po six
Ġappro ximation
Ġfa ilobj
ĠStyle Type
ĠSp an
Ġsafe ly
ĠSSL Context
ĠLin es
Ġaccept ing
Ġkeep ing
Ġcaller s
ĠApp ly
got o
initial ized
ĠIN DEX
ĠReg ister
Resource s
Ġdesc end
Ġretrie ved
keep ends
frozen set
Ġcomb ine
ĠInstallation Error
expanding buttons
road cast
E IN
N AN
S ize
W ork
a ware
f resh
l anguage
n ans
p ment
p ic
{ }
th andler
le s
le ader
or ate
Ġi req
Ġi terate
"" .
Ġc entral
ar quivo
Ġn ative
ce ive
Ġto l
Ġm as
ra iz
ul thandler
Ġst atistics
is infinity
Ġ" :
Ġ" @
pa m
Ġex pre
la zy
it o
ma th
Ġdi ag
Ġch allenge
Ġde nominator
con current
to ward
ex istent
ĠF rom
set trace
set Level
no des
ĠD OM
Ġget path
Ġal lo
Ġy anked
ca b
ĠN eed
py pa
ĠR O
bo ok
iz able
Ġcode name
Ġchar det
ĠH ashes
fe ature
sub module
Ġup loaded
ĠRe vOptions
=' '):
load ing
comp onents
Context Manager
'] ),
Ġconfig parser
check point
OR TED
user Cfg
File Loader
inst aller
min us
Ġ{} ".
Ġterm info
Ġtra cing
11 11
UN IX
Ġass uming
Ġfd st
MP LE
Help Formatter
ĠUnicode Error
lex ers
Dis play
Al t
ĠPas sing
ĠSkip Test
Ġinstanti ating
Qu it
Ġdete ction
Ġeas i
Over flow
Ġoptim ization
Ġsatis fy
Match er
alcul a
Ġpurpo se
Ġidentify ing
Ġls b
assertNot In
Ġ'* '
STAR T
Ġexpanding button
rypto graph
riment o
ANCEL LED
. {
L iteral
P ri
] "
b ecause
c get
c roll
d up
n ative
s lices
Ġc ss
Ġre directed
Ġin fer
Ġe li
Ġe fficient
ri x
ri on
() }
() `.
() ``.
Ġ' ..
') ):
sp arse
Ġde tail
con tra
(' \\
ĠS u
so on
Ġso on
Ġmo ved
Ġkey ed
Ġ2 2
ca pa
ĠR ange
Ġla unch
source s
lif y
cur frame
Ġargs pec
TE NT
Ġman ip
wait pid
open ssl
ous ly
ĠJ ust
Ġloop s
Lo cation
Ġbin ascii
if est
Ġnamed tuple
Se ts
LI C
Ġspecial ized
leg al
meta var
ĠSo urce
Ġautoma tic
Ġidentifi ers
Ġsen sitive
Ġbegin s
EX TEN
ĠUnicode EncodeError
[[ ],
ĠBu il
sum mary
fra c
SU PP
Ġawa y
ĠPas s
Stream Handler
div mod
Ġpack ed
ĠOver ride
JSON DecodeError
Ġtriple t
Ġevalu ated
DL L
Ġbr anch
Ġsem i
ĠSupp ort
) }"
4 00
9 1
A bstract
C losed
F ont
I nt
I mage
J UNK
L ines
d y
i b
s he
t ol
y li
re jected
te ria
or m
Ġf list
Ġb unch
Ġin dented
ce d
di ctionary
ut Down
Ġst orage
Ġ' &
is ual
ĠP IP
.. /
ch at
Ġco mo
Ġcon venience
Ġh idden
Ġh alf
Re quired
ise ct
sp er
(' __
ĠA r
ĠS ession
ĠS HA
ven ts
Ġr mtree
Ġhe llo
db Repr
cri teria
Ġget ting
pro file
ĠW orld
__( *
-- -
pen size
Ġca ching
lock ing
Ġac quired
Ġl r
Ġany way
Ex ists
state ment
cre te
LE N
Ġinter mediate
inter rupt
match er
we ights
Ġop codes
rec tive
gener ation
wh l
AC TER
Ġ'. ':
ĠMo ve
annot ate
Ġenti ties
Ġlay er
zone info
('/ ',
Cli Runner
HO ST
Ho ok
END S
Token izer
Ġemit ted
Exec utor
Ġevalu ate
---------------- ----------------
serial ize
Ġwild card
assertG dbRepr
Ġ'" ':
utco ffset
Exists Error
A b
E LE
I terate
L arge
N E
P ress
R ST
[ ::
] ',
] [:
b l
d temp
h lo
h idden
i ri
m argin
p yshell
r find
r mtree
t t
in ds
de cess
Ġp s
at tach
Ġin dependent
an a
un set
he st
Ġst ar
is hes
get int
pe g
", "
ĠS tr
ĠS creen
bu sy
Ġne arest
ĠF ailed
Ġlo c
pt r
et f
vi rt
el lipsis
ig hest
no res
ĠE X
Ġarg parse
qual ity
ĠM AX
Ġexp r
Ġro uting
default Cfg
ĠIn itial
Ġback track
iter dir
File name
Ġop name
Set up
send all
block ed
section s
vari ate
fs decode
Ġhighlight background
ĠPre pare
Ġcancel lation
(? :
variable s
ĠHo st
iso lation
just ify
ĠDE BUG
Config Parser
Ġreport ing
Sh ort
CHAR ACTER
ĠCON NECT
Ġlea ves
ĠDeco de
Cor rect
BS D
ĠPip Session
unct uation
Sum mary
! \
) ``.
C C
C OR
I ST
L ess
P ick
U ri
V I
_ *
a v
b ot
c ss
t cl
x FFFF
Ð ²
Ġ ,
Ġ 999
se mb
st ar
st mt
or iz
Ġth us
Ġth ird
me ro
Ġc Ã³
Ġp atched
Ġb d
Ġw intypes
un less
un safe
Ġm map
li tem
ut ures
si stant
Ġ' !',
ĠT ree
ch own
Ġu tility
Ġdi ctionaries
ĠI dle
Ġch own
str ftime
ĠA diciona
key ring
ĠF ast
ĠF ilter
set timeout
read lines
Ġun link
Ġmo dern
op s
Ġkey chain
Ġ2 9
link from
Ġout file
Ġac tivate
Ġlog in
Ġlog ged
ĠIn cremental
Ġl d
term ui
Ġmax headerlen
cur dir
Ġwas n
char buffer
color mode
Ġoutput s
trace d
RL F
inter face
Ġhost s
Ġcolor ize
dist utils
Ġgener al
fin ish
Ġhash name
normal izer
ĠDe sired
0000 000
]] ):
Ġ& =
ĠAs sert
Ġdot s
ĠAl ways
App ly
Ġappropri ately
Server Error
tar file
Ġlon gest
fill color
Temp late
Ġtur ns
ĠPas sed
Ġclean ed
ixel s
Timeout Error
coun ts
eri alize
Ġdisp lays
layout s
DocTest Runner
Ãº mero
Ġproto cols
ĠParameter Source
blue prints
Ġsta mp
Ġlisten er
ĠTemp orary
conf lict
conver ter
Ġscroll bar
Ġdestroy ed
Bar rier
may be
Ġschedule d
ĠMen ubutton
scrip ts
defin ition
inger print
Ġconsec utive
Ġeasi er
Uri Type
$ ",
/ .
> {
C ent
C allback
W ARNING
d f
e lapsed
h it
j peg
s urvi
Ġ ri
in finite
Ġa u
Ġc ri
Ġc la
Ġf tp
Ġw ake
Ġin sertion
Ġe s
un register
one d
Ġcon structed
Ġh ighest
Ġme asure
str ptime
ĠĠĠĠĠĠĠĠĠĠĠĠĠĠĠĠ ĠĠĠĠĠĠĠĠĠĠĠĠĠĠĠĠĠĠĠĠĠĠĠĠ
Ġ... ]:
Ġun finished
Ġal one
su ch
ĠM U
ĠM ail
ĠB e
ĠB OM
tera ction
ĠH ash
tern ative
Ġcontain ers
IN I
Ex pi
context manager
Ġ4 8
color izing
function s
Ġfail ing
99 4
ized Name
ĠHTTP Response
tag Name
pack ed
supp lied
FI ED
ĠEn coding
HTTP Response
Se arch
Ġsepar ately
ĠDe bug
Po int
SSL Error
50 9
TER M
Ġpick led
CON TENT
WW W
Ġqual ified
Ġretrie ve
Ġadj usted
Ġsucceed s
ĠConver ting
ĠMethod s
consu me
ĠSystem Exit
ENO ENT
0 5
B e
B ACK
D N
D TD
E xt
T riple
Y ields
Z IP
Z eroDivisionError
a ix
b roken
b anner
e valuate
i B
i ci
i etf
m up
m usl
w r
Ð ³
Ð ¶
re ference
re cognized
Ġa ge
Ġi dent
me tro
Ġre si
Ġb rackets
Ġs dist
Ġe speci
un bound
Ġto ols
Ġto dos
ad as
si dl
Ġ' ='
xt ures
Ġu int
__ !
Ġex ten
Ġse qu
Ġh a
ĠI S
up grade
Ġde ci
Ġde cay
(' "
Ġpa x
to o
Ġby passed
do tenv
Ġlo gs
assert Less
Ġ[ [
Ġ[ ("
Ġexce eded
Ġso ft
ĠD ef
Ġun like
mm on
ĠO bject
ĠN exus
Test Result
In ner
attr text
ĠB lueprint
ST EM
ME T
Ġthere fore
ous ands
local time
du ction
Ġhttp lib
Ġremo ves
Ġsome one
CO ORD
Ġiterable s
sen code
multi processing
Ġhash ing
rou ge
man y
Ġarch ite
Ġhighlight color
vale x
gram s
SO LE
auto spec
20 4
Ġ12 8
Ã© m
Ġrep l
Ġreason able
Ac cess
Ġcondition s
UE ST
Item s
Ġshort cut
ĠCh ange
SU FF
Ġweek day
Inst allation
Ġweak ref
Ġtrack er
ĠGenerator Exit
triple t
Ġshe ar
Ġcombin ation
Ġposix path
COLOR IZE
Ġear lier
Security Policy
APP DATA
ĠFI LE
structure d
Ġmaint ain
Ġtw ice
ĠREP L
Ã¢ metro
Ġdevelo pment
Ġrecor ded
Ġpus hed
Ġesti lo
ryptograph y
EXTEN SION
semb ly
Triple t
3 9
7 3
= "")
B ack
F a
F loat
K T
K w
N umber
P EP
S ave
S cript
V T
V ALUE
W idget
] ).
_ '
b et
i e
i ves
m ul
} +
Ġ ())
Ġ (),
Ġa gent
te cted
de ps
Ġp yshell
Ġw m
Ġw sgi
Ġin tern
nt l
lo st
Ġst rate
is link
__ "):
ma gic
ĠS TR
Ġra tios
Ġby pass
po w
pro p
pro vide
Ġsp ans
Ġpre ss
ĠU sing
ribu ted
ĠV eri
Ġle aving
ces sible
Ġsub command
ĠL ayout
Ġac cessible
Ġcheck ers
comp arison
com b
File Type
names paces
Ġwork ers
EN TI
Ġlink ed
inst allation
min ate
min ute
dition ally
Pro duce
rec ent
Lo okup
Ġsha re
Ġclick ed
AC L
Ġ[' ',
SC RIPT
rg b
ID LE
ĠJSON DecodeError
Base Exception
DO UT
LO B
Ġtrans parent
Ġavoid s
Ġpop up
head s
Ġtermin ated
Ġtermin ating
ĠLog ger
ĠDis able
ĠZip Info
Ġprece ding
Pool Executor
Ġrele ased
Sho uld
Ġdeleg ate
ĠHeader s
Ġcomb ined
Ġrect angular
Ġnan oseconds
Ġcompar ing
Ġsy scall
agic Mock
ambig uous
ELE MENT
' ",
( "",
, [
= ='
F D
F e
G EN
M ore
O b
P attern
S ince
U sing
a is
a gs
a pre
b atches
d under
f ro
f sencode
h older
i ble
o om
o bs
s Ã£o
t od
x n
Î ¸
on tal
in ct
re load
sel ves
ur able
Ġp w
Ġp ty
Ġp added
Ġin cremental
Ġm ro
li ts
ad just
Ġ( ~
ĠP RE
ĠP AT
la ce
Ġcon caten
Ġh uman
Ġas signment
') ])
Ġde vi
Ġg er
") [
(" =
Ġne ar
ĠĠĠĠĠĠĠĠĠĠĠĠĠĠĠĠ ĠĠĠĠĠĠĠĠĠĠĠĠĠĠĠĠĠĠĠĠĠĠĠĠĠĠĠĠĠ
Ġpar tition
Ġ`` $
Ġ`` -
Ġ[ ('
men code
Ġun register
Ġun handled
ĠE IN
Ġsp in
Con version
ĠR ecur
Test ing
pen color
tera tes
Ġca lendar
cl t
cl one
log o
Ġab c
new lines
Ġinter rupt
Ġinter polation
Ġinter rupted
inter polation
Ġcolor mode
:// {
Ġvalid aÃ§Ã£o
buffer ing
Ġ5 322
be ll
12 4
ref er
top ic
Ġunder scores
Ġclose st
St orage
Ġtag name
Ġcallable s
supp ress
SE SSION
HTTP Connection
complete Read
hash lib
Ġfin ding
Ġfin ds
mon itoring
target path
ĠPar ameters
XX X
ĠFile ExistsError
PRO G
Mo de
Ġpop ulated
Argument Parser
Ġnumeri cally
ĠColor System
ĠSub classes
Ġest im
Reg isters
chron ize
State Error
Ġfall s
ĠCa che
Ġsever ity
Ġqual ity
ĠSequence Matcher
tear Down
ffff ff
VAR S
Ġclo ses
ĠChar set
LAN K
Ġsumm ary
Too Large
unbo unditems
ĠTestResult s
backslash replace
LIM IT
satis fied
vector call
COD ING
decess ors
oriz ontal
MET ADATA
SUFF IX
LOB AL
apre place
+ ,
/ #
7 6
= (),
B B
C LI
F lush
G HT
M IME
P U
P op
[ ]
d ating
f ers
g il
m ut
o ck
s kipped
s napshot
Ġ 99
se en
re lation
st re
me asure
al s
en dian
Ġp aned
Ġs n
Ġs quare
Ġn dim
Ġw ants
ro utine
Ġ""" )
ri g
Ġv e
Ġ" ;
Ġ" [
ct ure
Ġd ct
Ġex ited
ma tically
Ġh test
ĠA void
ex po
Ġra tional
Ġpro duct
time zone
po pi
mo ves
Ġun able
Ġtr ansition
pro ba
mm ar
Ġver tical
Ġver tices
Ġno tifi
Ġy es
ĠO ptim
Ġpre sen
ca lendar
ĠN etwork
py project
Ġread into
ĠIn put
by number
Ġli ve
ĠCon nect
Ġab sent
filename s
Ġbase name
yp hen
spec s
IO Base
replace ment
Ġrepresent able
Ġcookie lib
thread safe
sha pes
imp orts
SE D
Ġspec s
ĠKey word
Ġinitial ization
AC HE
Se lector
Ġdocument s
Ġpri mary
first line
Po sition
ĠY ield
ĠMo de
ĠMo di
Ġcho ose
App end
Ġplace d
FO O
ĠComp are
tri b
Ġqui te
Ġob tain
Ġinstanti ation
urpo se
Ġdump s
iden tifier
Ġrot ate
bp bynumber
Ġ': '
Ġcombin ations
assertNot Equal
bracket ing
WINDO WS
PAT TERN
Ġpul se
atur al
listen er
THREAD S
assertGreater Equal
pie ces
Vi ew
Ġmilli seconds
wake up
ĠSTR ING
popi tem
) **
: ,
> ()
A IN
A uto
B in
B LANK
D uplicate
G LOBAL
H AS
N orm
P A
P ER
R M
W h
a o
a mp
c ity
f ault
i teration
} _{
Ġ ll
se lected
re install
Ġc aminho
ti va
Ġp red
Ġb lo
at tention
un tagged
as sembly
ro me
Ġto ggle
Ġm al
Ġm ant
ĠT ypically
ĠT CP
Ġv m
ĠP lease
pa x
pa sta
Ġd y
ĠI mmutable
Ġen dings
id na
Ġra ce
Ġra iz
ĠC or
ĠC ancelledError
Ġpro ps
time r
um ul
read buffer
men te
us sion
Ġcan v
url split
Ġpre par
Ġline term
Ġline start
ĠU DP
Ġmethod name
ĠW rap
py doc
bo s
ac cep
ne eded
Ġsub mitted
temp file
Ġend time
sub directory
sub generator
return ed
quen tial
Ġback slashes
start ing
Par sing
Un expected
Ġmulti path
max imum
Ġoper ating
print ing
Ġsh r
find char
Ġlength s
top visible
Ġid na
domain s
Ġpri me
NO RE
ug in
Ġpage s
ĠWSGI Application
Ġleft most
widget s
FA rray
100 7
Ġexpression s
Ġ9 5
Ġuni versal
Ġrepe ti
Ã³ rio
AS K
tri cas
Exp and
Ġinit args
WW WW
Ġcm ds
Open SSL
sa o
sq lite
ĠOption s
Ġmeaning ful
alle l
resize mode
âĶĢâĶĢâĶĢâĶĢâĶĢâĶĢâĶĢâĶĢâĶĢâĶĢâĶĢâĶĢâĶĢâĶĢâĶĢâĶĢ âĶĢâĶĢâĶĢâĶĢâĶĢâĶĢâĶĢâĶĢâĶĢâĶĢâĶĢâĶĢâĶĢâĶĢâĶĢâĶĢ
quit ting
XXXX XXXX
Ġide a
~~~~ ~~~~
Ġquot ing
Ġul p
Imp orter
Ġrepeated ly
Ġcle ared
Ġactiv ated
Ġrespec tively
ĠcÃ³ digo
Ġ29 65
Kw args
" >
: ].
= ()):
M utable
O B
] .__
h ref
s yn
y view
Ġ Ã
Ġa ffected
le nt
er red
ar ound
Ġo dd
Ġs urrogate
an ity
lo ver
ot o
si oned
Ġv o
ĠP ri
Ġ" >>>
__ _
Ġcon ven
pe ek
Re p
ĠI mport
ol lover
ĠA R
... ")
ĠF ake
ĠĠĠĠĠĠĠĠĠĠĠĠĠĠĠĠ ĠĠĠĠĠĠĠĠĠĠĠĠĠĠĠĠĠĠĠĠĠĠĠĠĠĠ
ys root
assert Warns
out ines
ĠD ummy
quest ion
pre ss
ĠE mit
ist ic
ĠN ever
ĠM on
ĠM ET
version s
ĠH EL
os x
format Message
item size
Ġdist ributed
arg parse
10 24
OR Y
Ġ8 601
ĠUn like
IO Error
ple x
Ġdisplay ing
Ġthey ear
zip File
build dir
Ġimp licit
oc tet
De precationWarning
By te
Console Renderable
RI GHT
Ġclear s
logger s
MP TY
Ġsa ys
BU IL
ĠApp le
Dis patch
Ġserial ized
Ġ25 6
remo ved
Reg ression
Ġexpo se
xx x
Ġusu al
Ġinstanti ate
Ġtz info
ĠAc cept
End Cent
ĠCol umn
conver ters
tho st
Ġadvance d
weak ref
ĠPRO G
Ġconsist s
aly se
Ġexpre ssed
virt ualenv
ĠMU ST
EndCent Dir
! !
# #
' ")
( %
( ",
, '
. ',
7 2
: ',
> /
B rowser
F OR
J ust
L M
O uter
R andom
W IDGET
Y H
] (
c lic
e poch
i ro
j e
k sum
n ix
p latlib
s k
s ft
v s
} [
Ġ linen
Ġ })
in fer
re present
Ġc nt
Ġp eek
Ġp ane
Ġn aming
Ġe w
un its
ame d
Ġm icro
li ght
Ġst yled
Ġ' @
ate xt
is digit
ĠP TH
pa g
Ġd as
Ġbe have
la in
ss lobj
qu ant
Ġen contra
con fir
con sistent
(' !
(' +
to ggle
ho c
Ġ* =
do bject
Ġon to
Ġpro pagate
Ġpar ses
)) [
assert List
ded up
Ġ[ _
Ġexce eds
pre vious
ĠE ditorWindow
Ġlist a
Ġal ter
Ġal most
Ġal phabet
Ġpo pped
Ġpo wer
Ġkey ring
Ġ{ _
ca uses
ĠM AC
In f
ne ts
ab ility
Ġsub elements
Ġac ce
Ġ** _
ON G
Ġz std
Ġho ver
Ġpass wd
act ly
state ments
Ġ[] ).
Ġover written
cre ating
LE FT
"] ),
Ġturtle shape
work ing
prefix es
reg a
Ġparser s
EN V
Ġhelp ful
Request s
next file
Ġsome times
ler t
Ġwa its
([ ])
ĠHTTP Exception
da de
Ġsend file
tail match
Ġsock type
debug level
Ġte leport
abs olute
ĠWindows Coordinates
unicode string
TO P
ĠY H
Ġfa ulthandler
Ġmapping s
wri table
leg ator
buil ds
connection s
expand tabs
14 7
CE S
ĠRead Error
suffix es
Inter preter
ĠSpeci fies
Ġdele tes
ĠK T
Ġ() ):
ĠApp Context
Ġserial izable
ĠColor Type
mk dtemp
Ġentire ly
image s
equal ity
Ġbit map
collect or
Inst allRequirement
Ġunpack ed
Ãº l
KEY WORD
Ġgra mmar
Ġsatis fied
Ġge ometry
ĠWith out
Temporary Directory
Ġatom ic
constra ints
consu med
Ġrect angle
Ġinher ited
Ġconfir mation
repe at
REUSE ADDR
ĠZstd Dict
CEP TION
ĠResol ve
Ġrepro du
middle ware
erro red
Ġoppo site
LEN GTH
mencode dobject
" ^
) !
) ')
G G
O f
R ollover
Y ield
b po
c u
c ross
h ighlighter
u mented
y scale
se ps
in et
te ction
Ġi l
Ġi ana
Ġf c
Ġb racket
Ġs ol
Ġs kipping
Ġw r
Ġw info
un ts
ul ates
Ġ' //
is abs
is atty
ĠP ick
ch allenge
Ġ" +
get timeout
Error s
Ġde n
ĠS ha
ĠS tore
Ġra di
bu ffered
Ġ1 8
for security
Ġlo st
tr l
db ot
py venv
In voke
ĠL et
ĠIn sert
ĠRe quires
'] ))
RE CT
File NotFoundError
En gine
Ġman gle
Ġbuil ds
tifi ers
top level
stream s
handle s
block size
position al
ĠLo cal
Ġfra g
Ġans wer
Ġleg al
Ġtermin ates
ĠColor Triplet
eg acy
ĠName d
Config ure
ja va
Ġsample s
Ali gn
Task ID
const s
ĠOption Parser
MO D
Ġtrack ed
Ġguarante e
Ġseek able
Ġexclu ded
Ġconflict ing
document ation
Ġear ly
cycle s
Ġ"* "
clo sure
COM MENT
Modi fied
REQ UEST
Ġstrate gy
stre rror
! ')
) }")
/ '
A MPLE
B reakpoint
C A
C TYPE
F etch
G raph
O O
O ut
P N
P oin
T CP
d uring
e gative
e vt
f od
f ws
f atal
g idx
i an
p ul
s mall
w ha
z ing
} ;
} ):
Ġ latin
in tern
re raise
st as
st and
de ep
de cay
Ġi con
Ġth readed
al ready
ti s
Ġt ti
Ġre entr
Ġre raised
en te
en di
Ġo d
Ġs lots
Ġn b
Ġw ish
an ho
Ġe ol
un bind
Ġm usl
di ter
Ġst oring
Ġv rp
Ġ" ="
Ġd n
Ġex am
Ġse cre
am anho
Ġfile size
ĠA P
ĠS ize
ĠS tack
sc m
(" __
ĠF all
ĠF ail
Ġlo cator
vi e
Ġr pc
che me
ig nored
no me
Ġdo ctype
ĠD TD
ĠN et
ĠM an
ĠR MS
Test Base
Test Optionals
Ġpas so
add Handler
ĠIn stance
IN DEX
term info
ST O
cre dentials
ĠTest Help
ĠTest Optionals
Ġmsg ids
Ġenviron ments
Un pack
Ġper manent
row se
des ktop
copy characters
Ġlocal ly
Ġfunc s
AL RM
Path Info
Ġpy repl
current Line
32 7
Ġdebug ged
AN GE
ĠZ standard
remove Handler
allow s
Ġthem selves
Ġenv var
ret Ã³rio
Option Error
wrapp ers
gn u
Ad ds
Ġ'_ '
EX CEPTION
Ġlib c
Value s
Ġgu ide
Dis position
Ġserial izer
mission Error
Ã³ ria
iso format
ĠDoc ument
Ġdispatch er
ĠTh us
ĠNormal izedName
ĠReg ion
ĠStream Writer
Ġreli able
DocTest Finder
Ġinte rest
Speci al
SY STEM
Ãªnci as
PRE FIX
sym bol
Supp orts
Ġresize mode
ĠSearch Dialog
ĠEN V
bbbb bbbb
YYYY YYYY
ĠAddress ValueError
Resol ver
aaaa aaaa
cccc cccc
ZZZZ ZZZZ
ĠUnsupported Wheel
Ġdra wn
ĠCase InsensitiveDict
PK G
quot ing
Expi red
BLANK LINE
Ġmal formed
fod der
wha tis
! )
5 7
: ]:
G S
L U
N ONE
R Y
T s
T RI
U RE
U RI
] |
a exit
m map
u lo
u gh
x or
de leted
Ġc lamp
Ġf et
Ġf its
Ġf ront
ti ce
Ġre ject
Ġre quote
Ġp unctuation
Ġs tem
un split
un ion
co ver
Ġst mt
ĠT otal
ĠT EST
ser ves
ma int
ĠI terate
Ġde signed
path sep
to ff
ĠS ign
Ġwh ite
do g
Ġr lst
Ġun ame
Ġun ion
Ġun modified
pro cesses
ip h
Ġad apt
su ally
In sert
In itial
ĠV ari
pen ded
ĠH ACL
ĠIn vocation
Ġsupp ressed
ou ble
Ġstart up
cre ation
Un ix
ĠType Var
son ly
Ġ"" ).
Ġsh orter
Ġcopy ing
Ġsee also
make dirs
Ġinfo s
sen tial
ĠText IO
Ġnormal ization
tra iling
Ġ'- ':
comple x
ĠFile s
Ġoccur rences
Pre pare
Pre ferences
Ġstd lib
dev null
mis c
Ġjoin ed
BU TE
EX T
EX IST
Ġmonth s
pattern s
ĠHo w
ĠSub class
dicate s
Ġinstanti ated
memory view
ĠCommand Args
Ġpe er
iden tify
duplic ates
Ġlim its
Ġintro duce
ĠDec orator
PPPP PPPP
Ġsubstit ution
Ġdynam ic
Ġdynam ically
(... )
Ġoverla pped
assertIsNot None
Ġdecla red
ĠBdb Quit
Ġpresen ce
TRI BUTE
/ ``
4 9
< <
B ER
B ASE
I mplementation
M ix
N I
S ame
S tore
T MP
T ypes
V NULL
] ",
a ves
b roadcast
e mit
f stat
i si
k v
n c
r Ã£o
s w
| |
Ï Ģ
Ġ ter
Ġ tem
Ġ tilt
Ķ âĶĢâĶĢ
on click
re use
ti vo
Ġt g
Ġt ls
Ġre cogn
en se
Ġp lease
ing Button
Ġs mtp
Ġn t
Ġn Ãºmero
at ual
as sistant
Ġan onymous
Ġm Ã¡
di ty
Ġ' $
Ġ' **
xt ure
ser v
Ġ" ["
Ġd ry
Ġco eff
ma k
Ġse ed
Ġse ries
Ġh d
') ))
to ver
ĠS C
ĠS queezer
ĠC ar
ĠC GI
ort un
Ġpro ceed
set state
po ut
Ġhe app
Ġexce ss
Ġun locked
ok ed
ĠE Tag
Ġget int
Ġno s
Ġoption flags
ip y
Ġkey binding
dir path
Ġ2 231
Ġtext s
In formation
col lapse
Ġapp ending
ĠB inaryIO
wa p
ab is
Ġsub commands
Ġrequest ing
Ġcontext lib
Ġclass method
lock s
sub classes
sub tract
exp onent
Ġj unk
Ġbreak ing
Par ameters
Ġcolor ized
Ġexec utes
Ġcache s
Ġgener ation
Get Highlight
we ight
DE D
Ġfloat ing
([ ('
Ġcur dir
Ġsee ms
ĠĠĠĠĠĠĠĠĠĠĠĠĠĠĠĠĠĠĠĠĠĠĠĠĠĠĠĠĠĠĠĠ ĠĠĠĠĠĠ
SE LE
UT C
tra cing
ry pt
Ġpattern s
ĠUse ful
bs olute
WS GI
ĠList a
emp lo
Ġtrans formed
PRO XY
Ġfilter ing
ĠDi rect
HE D
Ġreference d
Ġgenerator s
Ġinstall ing
Ġent re
byte order
Log Record
ĠInst all
Tr ust
custom ize
Comp ute
Comp ressor
TR UE
Ġcomparison s
Environ Builder
Al low
LINE S
separator s
KE EP
oper ator
ĠTask Info
Ġpack aging
vance d
9999 99
ĠPer missionError
Ð° Ð±
EE E
Ġdrawing s
Ġmix ed
Ġ'| ',
Bad Request
ĠControl Type
Ġflat ten
dependen cy
Entity TooLarge
saniti zer
Ġmat ter
Per form
WINDO W
Ġorient ation
Ġcrite ria
ĠExpand ingButton
ĠmÃ© dia
Ġbt n
Ġedi ting
rol led
EIN VAL
dy lib
xFFFF FFFF
Ġdeci de
ĠPRE FIX
quant um
' ^
' (?
+ ',
B inaryIO
C ACHE
F irst
Q L
R D
R ecur
T able
d m
e ach
e hlo
f tp
n umeric
r aries
x scale
Ġ little
th ree
on th
re li
Ġa utor
le ading
Ġi db
Ġf ine
Ġre cording
en g
Ġo v
Ġn atural
ro wn
): ]
ri ves
Ġst uff
si der
si lent
ĠP a
ch ni
ser tions
Ġ" '
Ġco re
Ġh ighlighter
ver age
las hed
sion s
ĠS ends
ĠS elf
ex clude
ĠC annot
for mer
Ġsu sp
pt y
Ġr slices
pre p
Ġpo inted
ĠM orsel
ne ver
ab ly
Ġ3 1
ĠEx ternal
Ġig nores
TE MP
OR K
Ġsign s
Ġerr msg
Ġcomple tes
Lo gs
Ġsupport ing
mb ig
fin diter
Handler s
NO WN
fail s
site packages
Ġcontrol ler
PRO FILE
Ġselect s
display of
=[ ]
penden cy
ĠAd ds
PO SIX
Help TestCase
modi fiers
Example s
Ġmodify ing
HI DE
Inst aller
condition ally
Ġcate gories
Ġiteration s
Trans late
ĠPer form
Ġgra b
Windows Coordinates
rand bits
Ġreduce d
caten ate
ĠPackage Finder
Ġdro pped
Ġimpro ve
croll bar
Ġpress ing
ĠHEL P
Ġil legal
isi dentifier
! =
" }:
( ',
) |
/ {
7 00
8 4
9 4
> (
? =
E QUENCE
F ield
L is
L AG
M is
S ha
S imilar
Y PE
` """
a zy
c write
h uge
i ed
i dity
l ora
m i
m ant
m box
n grams
s la
s dist
w char
y cle
y ielding
Ġ âĶĢâĶĢ
se tenv
in ation
in stead
in crement
Ġthe month
er ase
ar cname
Ġt unnel
Ġp orts
Ġb ias
Ġs ur
Ġs parse
at as
def ect
Ġm yp
di sco
lo pe
lo ses
ra c
ra is
co a
ĠT op
ĠP R
__ ':
Ġd up
Ġbe lon
lin ha
lin has
Ġse maphore
Ġh istorico
Ġh orizontal
ver ified
Ġdi rective
') !
(' *
ĠS V
ĠS FT
ĠS EQUENCE
Ġra re
ĠC lean
ĠF ree
Ġpro file
Ġpro por
Ġpar Ã¢metro
et c
so mething
Ġdo s
ĠD PO
Ġun used
Ġat tack
Ġsp lits
Ġpo si
ĠO P
ĠU SER
ĠM atch
Test Help
ĠV ar
Ġread only
pen ame
instance s
Ġcomp rimento
uth eader
Ġup dating
om ark
IN IS
uct or
log b
Ġ'' ):
color string
Ġqu it
Di gest
Ġpos sibilities
abc de
decode escape
win ding
Ġlink age
speci fiers
Ġti ming
Ġdisplay of
Set ting
Ġwrapp ers
zip fp
pack aging
ĠAn n
loc ator
FI ER
api fy
wh ite
Ġtheme name
HTTP S
GI C
ĠCheck button
Ġresp ond
Ġ[' -
mon keypatch
Ġmock ed
ĠNo Change
ĠSe par
AT TR
AT TRIBUTE
Ġcomm as
indent ation
ret ty
Console Cursor
opt name
Pre pares
Ġ12 3
Ġrecur se
Ġlib raries
Ġfn match
33 33
any where
Ġuni form
Ġidle lib
Ġsort ing
Handle s
lex ible
Ġextract ing
Ġyear s
An notated
Ġfolder s
ĠMock Posix
Ġred uctor
Inst all
fork server
29 65
ĠAB I
Wri tes
Ġsig ma
Ġproba bility
Ġpe lo
Ġtriple s
Ġqual idade
Ġoperator s
Conver ts
BO UND
}/ {
Or More
Ġinterpre t
Ġ19 2
conf str
Section List
failure Exception
ĠSupp orts
termin ated
Stop Iteration
******************************** ********************************
Ġsignific and
ĠCON SOLE
Ġ204 7
Comple tionItem
Ġrespo stas
Ġlea f
bindings list
leak er
ĠTra versable
ĠWork s
ĠBuffered Reader
Decomp ressor
Ġestabli shed
locking IOError
COORD S
Conversion Dict
assertList Equal
ĠYH YH
pul se
rais able
INIS HED
ĠMockPosix Namespace
) [:
5 12
> -
A rray
C LO
F WS
I den
L D
L F
L ong
S ENT
W M
W ill
W ORK
b es
g m
p d
v ity
v ors
w file
w rong
Ġ ))
th readed
in file
in vocation
re at
Ġa rithmetic
de compress
de grees
me mo
Ġc ance
Ġt c
Ġre ly
Ġs ync
at ory
an ted
as sign
Ġis method
Ġm m
ec md
Ġof ten
ĠT ag
is ysroot
ĠP ut
ĠP UT
__ ]
test internal
Ġh ack
qu a
Re q
Re port
Ġ* _
ĠĠĠĠĠĠĠĠĠĠĠĠĠĠĠĠ ĠĠĠĠĠĠĠĠĠĠĠĠĠĠĠĠĠĠĠĠĠĠĠĠĠ
Ġpro pag
Ġsu bject
ĠD escri
ĠE qual
Ġmo ving
Ġpo w
Ġpre ferences
Ġpre serves
Ġdata gram
ĠU sually
und ant
per form
temp t
ci dent
ĠL e
ĠH andler
Ġac cur
=' *
the re
exp licit
ĠCon tinue
method Help
RE F
Ġcor outines
Ġevent ually
Ġper mitted
encoding s
ĠCo de
Ġfinal ization
tk console
be low
Pro file
TH E
Ġterm s
AR Y
supp orts
ĠEn code
template s
Ġlocation s
loader s
Ġarch ives
Ġabs path
ĠSe gments
site dir
ĠSt rip
Ġstruct ures
HE CK
Ġfoo ter
pad x
At tributes
Ġpop item
Ġsa ves
Ġsa ving
Ġ'/ '.
Control Type
Module Type
Ġpartial ly
Buil tin
Ġnote book
66 6
Ġawa its
const ant
ĠNormal ly
Ġliteral s
idle tasks
cd f
Ġtrigger s
Ġadj acent
DG RAM
Ġwin reg
Ġquot ation
"< {
ĠTrans fer
Ġcrite rion
NUM BER
CU MENT
ĠEIN TR
Ġvo cab
ĠMET ADATA
maint ype
testinternal capi
! '
' '.
' })
. +
/ %
9 17
: ...
; '
= ""
B OM
D en
F ast
O D
O wn
O ptim
P AG
R K
Y LE
\ .\
` ),
b z
b ols
b ian
d rawing
f u
f tover
g zip
h istorico
i tions
p ure
p read
p utheader
q size
s low
t rip
t parm
x p
z f
} }
ľ âĶĢâĶĢ
on key
re directed
Ġa gen
Ġa tex
te p
st yled
de rer
de litem
`` /``
Ġf low
al one
al av
er Document
ar r
ar win
en ch
Ġs v
Ġs aniti
at index
Ġin sensitive
Ġe of
ro uting
he et
co prime
si ted
Ġwi o
Ġ" :"
get text
get list
get lines
lin ed
Ġcon te
Ġcon veni
am ma
fi ca
Ġ_ :
Ġas sign
Re mote
ĠI ts
Ġme tricas
Ġde precation
Ġde grees
id th
ĠS Y
ĠS HO
ĠS QL
ĠC ertificate
ĠF inal
ĠF utures
do be
line ar
Ġlo se
Ġpar allel
el se
ta ct
Ġhe ur
out line
app le
Ġun install
Ġun signed
ok es
ĠE lse
Ġget opt
pro mpts
pro duct
Ġver i
Ġline width
Ġnew er
Ġnew data
ten sor
ca sed
py py
ac ility
ĠV ec
data base
Ġsub string
Ġsub tract
iz ations
temp orary
ĠL exer
Ġ3 9
from timestamp
from utc
Ġz oom
Ġurl split
ĠG EN
sub test
sub normal
Ġup load
ST DOUT
ST YLE
ĠTest Case
Ġcor relation
SI TION
Ġnon negative
ub ar
Ġthere of
Ġper c
Ġtrace d
Get SectionList
Ġvalid ated
EN CODING
Ġsh if
present s
be gidx
down loaded
Ġrequi ring
coded string
Set Menu
(* ,
Ġgroup ing
Ġsuper class
ĠĠĠĠĠĠĠĠĠĠĠĠĠĠĠĠĠĠĠĠĠĠĠĠĠĠĠĠĠĠĠĠ ĠĠĠĠĠĠĠĠĠĠĠ
multi p
multi line
11 8
Ġauto class
AN G
json l
Ġupdate s
ĠPy REPL
Case Class
Ġsignal ing
Header Set
Ġtop level
Ġref ers
Class NotFound
Ġcomm only
LO CAL
Ġtrans mission
Ġsuffix ed
Ġlock ed
Ġview er
22 4
skip If
traceback s
Ġissue d
rich compare
Doc string
Ch annel
ĠXML Parser
CF String
Ġjoin ing
PO SITION
Sub normal
Ġdefin ing
errno s
Ġmove ment
Ġest ado
Buil t
Ġdestin o
Line Docstring
Ġfall ing
ĠBad ZipFile
ĠTemp late
Ġcapa bilities
Ġfact or
Description With
Ġmk stemp
Ġrecei ves
Ġfew er
Ġpotential ly
Ġincorrect ly
ĠChar acter
Ġdeclar ation
alpha rep
PAT CH
REUSE PORT
ĠAnd roid
Ro ot
CODE S
Ġwor th
ĠMin Hash
solete HeaderDefect
canv width
SCHEME S
Ġapproxim ately
sisten cy
Ġ"@ "
Ġ'.. '
survi vors
Ġespeci ally
Ġarchite cture
Access or
comb ine
umul ative
endi dx
SELE CT
Own erDocument
Ġatex it
Ġconveni ent
POSITION AL
* '
1 0000
4 04
= ('
? )
? ",
C alculate
H ighlighter
L in
M agicMock
N A
P ixels
R ound
] '
] }
] ')
_ "
c data
d ra
e a
h alf
m arsh
o sed
s ult
s mo
v an
z info
{ "
} -
Ġ utc
th an
se cre
se udo
re ach
Ġa w
Ġc c
Ġt t
Ġt y
Ġre format
Ġre jected
en ari
Ġp list
Ġp atches
Ġb isect
Ġs ax
Ġs io
Ġs gr
Ġn d
Ġm ixin
lo or
ra di
() }"
Ġfor ces
Ġ' "'
Ġ( [
ch dir
Ġco er
get boolean
Ġcon crete
Ġh on
ption s
Re torna
', '
ĠI db
il la
to widget
", )
") ]
ĠĠĠĠĠĠĠĠĠĠĠĠĠĠĠĠ ĠĠĠĠĠĠĠĠĠĠĠĠĠĠĠĠĠĠĠĠĠĠĠĠĠĠĠĠ
pre release
Co m
Co mb
Con venience
ord inal
Ġ2 8
ten coding
ca re
ĠM ore
per mission
fix up
Ġsub directory
Ġac cum
with in
the y
Ġ4 5
RE G
SI VE
check Closed
map s
Un less
Ġindex ing
ym bol
copy file
Ġcur line
Ġact s
SE CTION
send cmd
HTTP Error
Ġmanager s
Ġoc tets
De legator
ĠPy lock
Ġte chni
Ġdifferent ly
digest name
over lap
addr s
wrapp ing
mark ers
Ġenable s
Bu ffer
DI S
DI RECT
wheel s
Ġ"/ ")
contain ing
Sub process
System Exit
Ġ"< "
Ġregex p
ĠMe mory
Call s
recur se
ĠCh ild
ĠThere fore
Ġred undant
final ize
Ġalign ment
Terminal Theme
hd rs
Ġls lices
termin ate
USER PROFILE
dio button
Valid ationError
Resol ve
ĠProxy Manager
bla h
Pa rent
Ġsit uations
Ġexha ust
Ġallo cated
ĠMail dir
OB JECT
Ġfc ntl
- #
/ ')
; =
A V
A Directory
D est
E F
E ditorWindow
S pam
W D
_ :
c gi
c lamp
d umb
e valuator
e valex
f list
f ish
h s
h its
i ties
i omark
l f
l an
l stat
m arily
n u
p text
p atches
r file
r ank
t ot
x attr
Ġ ut
Ġ question
Ġ ÏĢ
on en
in atur
Ġa f
st yli
or dered
de p
Ġi e
Ġi OS
Ġth ink
er ge
ti ties
ar ds
Ġre wind
en sive
ur rect
Ġs leep
Ġe ast
un processed
tur ing
ge ometry
Ġm ss
di ctions
ri os
() *
ĠT ypedDict
Ã§ a
is olated
is firstline
ĠP ipe
ĠP adding
Ġwi de
name list
Ġco erce
Ġse g
Ġh ar
Ġh am
Ġh ighligh
am d
and data
Re try
Ġdi mension
ĠI G
') """
Ġch r
id o
Ġg ray
(' (
(' ;
ol ume
ĠA L
sc i
ex plain
ho w
ĠC OM
eci de
et ing
Ġr l
tr ansient
Ġ... )
Ġ... ])
no tes
Ġelse where
Ġare a
ĠD NS
pre cision
ĠE VENT
red Memory
qui ck
Ġnew OwnerDocument
Ġtext view
** -
ator s
ĠB Z
Ġsub parts
Ġcal c
Ġcomp ut
Ġcomp ares
Ġout come
Ġ3 147
ĠH idden
Ġcol lapse
Ġone xc
ER M
ER TI
sub iterator
Ġstart pos
term onth
uct ure
RE T
var sub
Ġinter cept
Ġindex es
msg id
Ġgener ates
base Filename
win reg
Ġ5 12
12 34
Ġ{} '.
Request EntityTooLarge
package Name
http bin
Ġcopy fileobj
Ġbin dings
RO OT
ĠHTTP Status
Ġdir names
Ġhash able
fa ces
}, {
order ing
Ġsplit ter
Content SecurityPolicy
Header Error
first lineno
io di
Ġskip s
Ġtrans mitted
Ġlong Message
view s
enti ties
Ġloader s
Ġmain loop
Ġredirect ing
connection pool
Ġactive background
Ġcer ts
CF Release
bad bad
ĠUN C
With out
ĠK E
home brew
sit or
ĠCF String
action s
ĠTk inter
mk stemp
Ġcopi er
gu ard
compress level
Ġfinder s
Ġdispatch ing
Ġexpect ing
Ġdiff s
true color
ĠDis play
Ġdisc ussion
SIG INT
sem i
ĠToken izer
OP EN
Su ffix
xi mo
FIC ATE
single phase
unix from
serial izer
kind anddata
Some Version
termin ator
Ġinterval s
repo sitory
optim ization
ĠWh at
Ġide al
Ġmis match
COMP LE
Ġdeclar ations
Enable d
macos x
Fail ure
aswidechar string
calcul ate
ĠComple tionItem
ĠHe re
Cre ature
Ġexha usted
Ġga ther
Ġadap tive
Ġquick ly
Pas s
Sign ature
Ã¤ r
ĠParam Type
Ġdisco vered
sper sed
[:: -
Ġha ven
SUFFIX ES
('! '),
mbig uous
Lis ten
perform ance
917 42
ADirectory Error
ERTI FICATE
6 3
> [
B IN
C R
E K
F ake
H LO
I TH
M akes
V ari
Z STD
_ %
b ash
c ise
c lock
g mt
l ated
m ar
x text
~ "
in serted
de tach
ti t
Ġp ressed
Ġs urvi
Ġn ic
Ġin f
an alyse
Ġm arsh
co pi
() "
si m
Ġfor get
Ġv isual
is stdin
name towidget
Ġd ll
test ring
la g
Ġcon form
and atory
Ġas sertion
Re trieve
ĠI mplement
Ġde pendent
ĠC trl
ĠF e
vi des
po sitive
Ġhe ld
Ġso le
Ġun parsed
ĠE MPTY
Ġimplement ing
Ġkey board
back ed
ĠM O
In teger
ken ed
bo m
fix ed
ĠB ack
Ġsub module
Ġx scrollcommand
ĠL egacy
Ġac cident
ĠIn completeRead
lic ense
ĠG IL
format ters
ĠRe set
the year
Ġcli ents
comp onent
comp liant
dict s
check cache
Ġbase string
Di mensions
Ġfol ding
Ġ-- >
og le
Ġper sistent
Ġinst aller
ĠUn known
ify Method
Ġcom ing
Ġlogger s
Ġcur r
handle Error
typ ing
Ġpy unicode
Ġpy project
SE QUENCE
man aged
hash name
De tect
Ġiden tity
SC A
Ġexit ing
Ġkw arg
Ġdown loads
void cmd
ĠFile Input
Ġequal s
ward Ref
SSL Socket
Ġcontrol led
LO G
ump y
Ġhand shake
xa decimal
}' ")
Ġip address
Ġ12 7
Ġmime types
tip window
Ġrep orts
bad ger
Sub classes
UR N
Ġdele ting
Ġtermin ator
ĠComp ute
ĠPo licy
Al so
ĠMock FileInput
ĠCall ing
pick ling
Event Loop
const ants
Ġannot ate
uni cation
Ġtrun cating
HEAD ER
proto cols
ĠConfig Parser
38 4
MD F
setUp Class
Ġsto res
Ġsq lite
Package Path
SK IP
ĠInteractive Console
Ġbas is
pl ugin
rw x
ĠBuil t
Ġes sential
CLI ENT
deep copy
Ġfet ched
iph ers
Ġnic er
" >'
' ``.
' ``,
+ %
- ?
0 7
2 10
2 02
: '
C aller
E valuator
F ER
H e
H ER
L ONG
N egative
S NI
T urn
U AL
\ .
_ ',
a ffected
c te
d ro
f ma
k gs
l u
o e
p added
s NaN
u cs
w intypes
y ou
} ={
th and
th reshold
in vert
re le
le st
de ad
de cl
Ġi tera
Ġi teri
Ġc ircle
Ġc umulative
al va
al arm
sel y
Ġt s
Ġt tk
en s
ur a
Ġp key
Ġp rac
Ġp alav
ing u
Ġn p
Ġin file
un it
un used
un defined
ce eded
mp o
Ġm im
li sh
di ts
co bj
co mes
() `,
si gs
Ġfor mal
Ġ' ':
ch atty
Ġ" $
ct l
get file
ss o
Ġh s
ult ane
ll back
', ),
Ġch rome
Ġme et
Ġde comp
Ġpa sta
ho p
(" :
(" ."
(" \\
Ġ* ****************************************************************
ĠC re
ĠC ERT
ĠC alcula
fo ur
ĠF i
ĠF TP
ĠF ill
ĠF ound
do ctype
Ġon wards
Ġpar tes
ta ches
ance stry
ure Transport
Ġun limited
pre decessors
mal formed
Ġno ise
ĠO b
Con catenate
ca ps
ĠN ets
ĠW idth
Test PositionalsNargs
Ġused forsecurity
ress ao
ab e
ĠL R
ĠL ive
Ġ3 5
Ġro le
Ġro ugh
Ġcol lapsed
Type Guard
with draw
lif e
Ġl no
ĠG it
format warning
sub path
sub string
sub dirs
ĠRe quired
=' ?
Ex ternal
log in
Ġ4 1
RE SH
10 10
ĠTest PositionalsNargs
Ġqu antize
frame r
Par ses
Ġstate ments
Ġinter faces
File Storage
Ġtarget s
ĠFor m
Ġfinal ize
ps f
Key boardInterrupt
sh util
12 2
Pro perty
Ġcomple to
top ics
RO UND
\\ \
Path Finder
Ġpad rÃ£o
Ġresol ving
Not Supp
32 1
Ġsha pes
extra ction
SE EK
Ġass inatur
ĠEn ter
Ġtheme s
AC CES
ĠDe tect
break points
ĠPy Err
Content s
Ġ6 125
system Id
ĠJSON L
ĠWS P
Ġmod al
Ġmodi fiers
bs d
over la
Ġbeha ves
DO CUMENT
15 0
Ġview s
buil der
Ġtable s
Ġcomplete ly
Ġfra c
Ġpop ulation
Ġtab nanny
roll back
Ġlar gest
>` _.
ĠFlask Client
Inter polation
Py File
Dis connected
Ġanchor s
CON ST
Dec orate
Ġforce load
OUT INE
ĠBo x
Ġap parent
scale b
sequent ly
ĠTh readed
FL ASK
Ġupper case
Ġord inal
idle lib
Rule Factory
report flags
ĠCalled ProcessError
sv n
Ġeff ects
ĠSO URCE
Ġhard link
Ġask ed
ĠTry ing
ĠConfig ure
ĠOr der
Ġdeleg ating
Ġcapa city
Men ubutton
RT UAL
Ġalpha rep
Do es
Sec Trust
ĠExec ute
Ġunbo unditems
cnf merge
Normal ize
saniti zed
expanding button
Ġmat rix
Ġalt sep
Ġshor ten
Ġnarrow ing
LAN G
Ġconfir m
ĠMark er
ĠâĶ ĶâĶĢâĶĢ
Ġfi xtures
ĠRec ord
Ġsit uation
canv height
instruction s
Ġsurro unding
Ar ch
urlen code
Overflow Method
Ġinfer red
she bang
attach ment
COR OUTINE
Installation Candidate
EXTENSION S
Ġpaned window
rig inal
ĠModi fy
Poin ts
Ġinterest ing
reli ef
Ġbelon gs
fu zz
pure lib
ĠCertificate Error
ĠHidden Text
Ġiteri tems
ĠNets cape
NotSupp orted
3 02
6 9
8 2
B ody
C ancel
D F
D ouble
E valuate
G ive
G NU
I ssue
N SE
P r
S AX
T arget
T ypedDict
W R
\ (
a i
d ll
o si
p n
x z
Ġ Keys
Ġi map
Ġc ra
Ġf lash
Ġf src
er ived
Ġre lies
ur al
Ġp seudo
Ġin exact
un raisable
as ucs
Ġto do
di stance
ri ed
ad vanced
co uld
() ",
Ġ( ?
es mtp
ĠP ure
ĠP lace
__ ),
__ ":
Ġco vered
Ġex er
Ġh its
ll ar
') [
sion Error
ex cep
Ġby testring
for get
)) ))
Ġhe xadecimal
ĠE scape
py file
Test Run
per manent
Ġexp orted
ĠB roken
string nl
Ġca path
ĠIn finity
option flags
call tip
sub stit
sub scriber
IN EL
Ġ(' .
comp at
comp act
Ġtoken defs
cli pboard
ign DTD
Ġman ifest
Ġ"" :
TI AL
Ġsh all
be ha
eco de
imp licit
ore ignDTD
ĠPy gments
Ġmost ly
lim bo
Ġmod ulo
NO TE
addr info
ĠPath Like
Ġrest ored
ret ries
Ġret orna
SO L
Tests From
COL UM
Ġsen sible
Ġgot o
ĠGener ates
ĠAd ditionally
Ġtab width
Ġpick ler
Ġpick ling
pool manager
iterable s
Sub Test
Multi part
compati bility
true div
Ġsc enari
Ġflush ing
Ġdelim iters
Ġseek ing
ĠIO Error
Ġcoun ting
Ġcapa ble
Ġcapa bility
ĠEntry Point
Ġincre ases
Ġhol ding
Section Error
tiv ity
ĠExec ution
Load s
Ġfore ver
Char acter
Provi des
Ġintro spection
ĠInstallation Candidate
micro soft
}] "
ĠMen u
Ġrespon sible
rm dir
CEP T
Ġoverla pping
rithmetic Error
Ġexis ted
Ġmacos x
ĠEnviron ment
Ġsemi colon
ĠTemporary PyFile
Ġri sk
ĠVeri fies
TRUE COLOR
ĠDescri ption
DIS ABLE
COMPLE TED
excep thook
! /
" ;
" ."""
- )
3 14
= ')
? ')
C D
C lean
C ancelledError
C ertificate
C ANCELLED
E mbed
F ork
F oreignDTD
H as
I M
J oin
M M
O ri
P ut
S V
S ingle
S erialize
S AMPLE
T ake
U SH
W CHAR
[ *
` _
b Ã¤r
c sidl
d uration
f lus
g name
g cd
p ect
q s
q nan
s under
t text
y per
Ġ âĶĢâĶĢâĶĢâĶĢâĶĢâĶĢâĶĢâĶĢâĶĢâĶĢâĶĢâĶĢâĶĢâĶĢâĶĢâĶĢâĶĢâĶĢâĶĢâĶĢâĶĢâĶĢâĶĢâĶĢâĶĢâĶĢâĶĢâĶĢâĶĢâĶĢâĶĢâĶĢ
se cs
re amed
Ġa ff
te res
st o
or tem
me mb
Ġf ault
Ġre m
Ġp m
Ġp es
Ġp text
Ġp open
Ġs lices
Ġn ti
Ġn bytes
Ġw erkzeug
un cache
un finished
un seen
): \
Ġan aly
Ġm s
Ġm ind
Ġm ortem
di mension
ri or
ri des
ra ising
ad hoc
si ft
Ġfor mer
ĠT arget
ĠT urn
Ġ" ?"
Ġ` <
Ġd ns
Ġd ados
Ġd lopen
Ġco ding
test file
Ġcon j
Ġcon cer
pe fully
it ude
Ġse le
Ġse ss
Ġse ps
fi xture
Re vision
ĠI EEE
Ġch ance
Ġme ant
par ties
Ġde s
Ġg one
Ġg it
Ġg nu
con ditional
(' '.
to k
sc r
(" [
(" {
ĠC OL
ĠC RLF
Ġwh atis
ĠF lush
Ġpro tect
Ġ: :
et ail
Ġr args
assert Regex
out ing
out file
ĠD I
ĠD id
ĠD ist
mo ke
mat ched
Ġun filtered
Ġun winding
pre ference
db g
pro bs
Ġat ual
ĠO uter
Ġpre vents
ĠW here
:` _
ls lices
ĠM H
ac teres
ĠV V
Ġle ftover
ne g
ne ed
ab y
Ġsub part
iz aÃ§Ã£o
Ġcomp liant
Ġca ret
Ġx bar
ĠL im
ĠL SH
Ġro utes
Ġcol li
Type Is
pi cal
Ġend points
Ġl n
Ġformat o
call ing
The se
ĠRe lease
IN F
IN K
Ex tend
den d
Ġmax digits
Ġcli pboard
Context Var
Ġ4 4
Ġconfig urable
Ġab br
RE SET
nore size
10 2
Ġcor rupt
Ġframe less
late st
Ġafter wards
Ġ"" ))
Ġmem len
Ġmem Ã³ria
Ġerr read
Ġmin ute
copy fileobj
Ġconnection chatty
speci fication
exec v
Ġdescri be
top ts
ĠJ an
]> ",
Lo ok
Ġreplace ments
AL LOW
raw text
Ġimp ossible
mb d
sta le
fin ities
Ġdir list
ched ule
sock file
ascii string
Ġresp ect
Ġsearch phrase
show traceback
Ġmon it
Ġappro ach
ret rieve
PRO CESS
Ġvar args
chunk size
ĠMo vie
Ġaccess or
Ġcould n
Ġdeterm ines
Ġfill ing
tim izador
Ġreal pos
At tr
Read s
Ġdis assembly
ado w
PO INTER
Data Type
PC build
custom list
Frame Info
Ġdefin itions
zone s
ph an
Ġus ando
Ġsimple s
Construct s
Ġ'< <
fill path
Ġmu ito
Ġseq n
tri bs
ÃŃ n
Exp ect
initial izer
compress or
ĠCli ent
Task Group
unpack ed
oper ations
Called ProcessError
FL USH
Ġwar mup
MO VE
Ġprece ded
Ġdisp atched
DIR S
Ġcatch ing
fact ors
xi ed
Ġoptim izer
Ġbig l
Ġfork server
Ġpercent age
ACK ET
Ġrot dig
Ġturn ed
PRE FER
ĠExec utor
free ze
Ġheap q
Ġgraph ics
Ġcar acteres
Ġ204 5
Ġ204 8
Ġmut ate
ĠSec ond
Ġparenthe sis
saniti ze
Ġmaint ype
Ġshor topts
deleg ate
Ġexport ing
let ter
Ġdead lock
ĠElement Tree
bottom frame
Ġabbrevi ation
bg pic
Ġdeli ber
Progress Type
RUN TIME
Ġam ong
charmap string
ĠEnviron Builder
Ġflus hed
Ġinvol ving
Ġenforce d
Ġdescend ants
Ġdiag no
Pri vate
SUPP ORTED
ĠPIP E
PA RE
Ġdy ld
Ġprime iro
Just ifyMethod
Ġmicro second
Ġreentr ant
ĠRMS Norm
Ġintroduce d
Ġ'** '
PAG ER
Ġsv n
Ġshif ted
dra in
tot ype
ĠIG NORE
sci i
RET URN
Ġaff ects
ĠTarget Python
etail s
" '{
' ?
' }:
) [-
. :
7 9
> )
? \
C HECK
D D
E ff
E IGHT
F inal
M Y
M ax
O PTION
T rack
U GE
U DP
Z a
Z PATH
a led
a lect
f r
h r
h ar
j ection
m ixed
p urpose
r al
s ax
u ing
y si
Ġ sel
Ġ ._
Ġa i
Ġa logger
Ġth rows
Ġth rown
er f
Ġre build
Ġre named
Ġre duces
Ġb old
Ġs i
Ġs ni
Ġs anity
an ger
an onymous
Ġe mp
ge the
Ġm d
Ġst ub
Ġ' [
ĠT akes
Ġv ector
is coroutine
.. ..
Ġ" >"
__ ().
Ġd rag
Ġco lo
lin ecache
la ter
text wrap
ver tical
ĠI mage
Ġde cre
Ġg m
con v
ol aris
ho le
file lineno
(" #
ĠC TE
ĠC alculate
Ġ[ ]:
va il
read only
Ġun quoting
ĠE st
ĠE HLO
ty pically
mal loc
Con tain
ĠW INDO
Ġbo unding
Ġtype id
py pi
Ġuse gmt
ĠR a
Ġheader sonly
ĠB ind
ĠB ased
Ġsub s
from string
ĠIn struction
Ġl margin
ĠRe gex
Ex actly
comp ound
Di ctionary
Di vide
ET ags
we b
EN OT
group ed
output s
sh allow
Ġbuil dbot
down loads
stra te
:] ))
cmd line
Ġinvalid ate
heme ral
pop ulate
Ġcolumn span
}) '
parser s
No des
Ġtraceback s
Option Parser
fs rc
HE EL
mask ValueError
ĠAs ync
auto matically
Ġdep end
Ġ'% '
SER T
SH UT
Ġnumeri cal
ĠComp ression
Ġ"- "
AS S
Al most
ĠDE LETE
ĠName Error
Ġrev ised
oper and
ĠIN F
ever y
('.') [
ective Level
ĠEntry Points
Ġaddition ally
('. ',
UNK NOWN
ĠRequests CookieJar
ynam ic
Comple x
ĠAuth entication
ĠUnsupported Operation
micro second
Named TemporaryFile
Ġinher its
Dummy List
US R
Bo th
ĠBoolean Var
Ġhour s
DOM Implementation
Ġpull dom
Pure Path
Sample Class
MAN D
Ġefficient ly
Ġprepar ation
Mutable Mapping
Ġconven tion
Ġsol ution
ĠNet maskValueError
Enabled For
ingu ish
NSE W
Ġexer cise
Eff ectiveLevel
& '
( "")
+ +
- (
/ :
0 6
2 17
4 40
6 50
9 7
> /<
D B
D UP
F ree
F ill
H op
I TE
L anguage
M atches
N L
N UT
N ested
O ffset
P ush
T akes
U tility
W ARD
] ["
] )))
b on
b lob
c r
c up
c losing
g ree
l ator
p list
r x
u ck
u ch
u so
w sp
x istent
y mp
z illa
| >
| \
Ġ mp
th ousands
re scale
st ride
de comp
Ġi ps
Ġc words
Ġf fn
Ġf sum
al o
al ized
Ġ= ?
Ġt rap
Ġre direction
en ame
ur aÃ§Ã£o
Ġb z
Ġs NaN
at tribs
Ġin data
un lock
Ġis atty
he lo
Ġto c
nt ries
Ġan al
Ġm Ãºl
ra ther
ra tios
co es
Ġst race
() /
() ')
Ġ( :
Ġ( <
ĠT able
ĠT ERM
Ġv s
ĠP h
ĠP ossible
Ġ" !
__ ).
__ }.{
pa que
pa wn
Ġd ashes
Ġex tent
get str
get sock
get opt
get attribute
lin ic
ma de
Ġh ang
am os
ver i
and del
Re ceive
') >
up load
Ġme t
Ġde sign
Ġde crement
Ġde compressed
Ġen velo
id b
Ġg race
Ġfile out
il led
to list
to tically
ĠS hell
ĠC allback
ĠC ANCELLED
key defs
ĠF urther
ĠF INISHED
Ġsu fficient
set list
el low
)) ]
)) ):
Ġ... ],
Return Value
no ther
no ptions
ĠD ue
men sÃ£o
app ear
Ġun safe
pre d
pre processor
Ġtr ansient
us able
Ġat Ã©
Ġal though
Ġkey Set
res ted
Ġline end
ĠU S
Ġresult ado
ten Ã§Ã£o
ist ration
ls h
Ġbo otstrap
py builddir
Ġapp lying
Ġexp lain
ĠB LE
Ġsub test
Ġcomp s
Ġmessage box
Ġla un
ĠH AS
Ġcol width
ĠEx it
ren code
ĠIn clu
ĠIn herit
not ab
Ġuser home
fe re
Ġsupp ly
Ġmode s
ĠRe ceive
=" \
Ġ(' #
ĠCon sider
split ter
return ing
Ġprint able
Ġval idity
method Signature
Ġ4 25
process ors
config uration
direct ly
Ġevent fun
Ġk illed
Ġ@ _
OR IG
Ġbase Name
Ġfol ded
"] ``.
**** *
Ġstate tokens
Ġ/ ):
Ġlast line
inter spersed
Ġsign atures
Ġmulti arch
index bracket
MA RK
Ġtemp dir
response s
decode unicodeescape
decode charmap
Ġ"" ),
pos sibilities
ĠCo mplete
ga ther
ĠFor ce
Ġlink name
Ġobj copy
DE VNULL
ĠX Path
ler ator
Ġloop back
Ġsee m
Ġtra ces
Ġtra versable
address list
Dict Mixin
Ġglobal ly
gra d
11 1
Se maphore
Ġdocument o
Ġrule factory
Ġarch s
clear stamp
Ġsuc ceeded
Ġsession s
NO TI
PE M
Ġbound aries
Ġskip keys
Ġcomm unicate
Ġext pos
TO DO
={ }):
stat uso
Ġvar kw
spect Loader
22 7
opt dict
Ġpip es
cho ose
full match
NAME D
anti ate
Gener ates
Ġdescription s
ĠSSL Error
shape size
seq n
13 60
Ġinstall s
Ġplace holder
Ġdis assemble
EC D
Help Source
Zip Info
Ġstrict ly
Connection Error
Ġhappen ed
tmp file
Construct or
setup tools
sum ing
fra gments
FILE NO
Mapping Protocol
ĠSub version
Command s
br anch
Col lect
Ġenc losing
ĠSimple XMLRPC
dec la
SIG ALRM
Ġunique ly
await able
Internal ServerError
uni versal
Auth entication
ĠNaN s
Ġbp number
"[ {
Default s
sv g
ĠsetUp Class
rs lices
Sh utDown
Ãº ni
[... ]``
Ġol dest
ĠQueue ShutDown
Ġparagraph s
ĠTemp Directory
NOT SET
slice len
Ġna ive
Ġcorner s
Ġfore ign
Ġpie ces
ĠUser s
Ġreach able
Ġstretch factor
Ġfig ures
Ġexport selection
Ġdead line
ĠSh utDown
clo ser
Memory Error
Unsupported Operation
Ġprec ise
Th readed
fast copy
double colon
ĠAli gn
ĠAli ases
prefer red
Ġcb name
Ġgui des
Ġ``~/ .
ĠExpect ing
Ġbas ically
urlen coded
dns name
Ġdiag on
concurrent ly
Alt Name
VI RTUAL
Ġsequ Ãªncia
Ob soleteHeaderDefect
expo sed
Ġnotifi cation
confir m
Graph ics
ĠTEST FN
ortun ately
="" ):
Den ied
DIRECT ORY
AV AIL
()* +,
ĠEMPTY STRING
Ġpalav ras
ĠFi re
dimension al
Ġdns names
PARE N
Ġgm toff
&' ()*+,
ymp totically
ĠmÃºl tip
Ġenvelo pe
ORIG IN
statuso utput
1360 57
" ',
' """
6 25
8 34
= <
C ert
C GI
D A
D K
D ENT
D etails
F UNC
G lobal
G uess
G ets
P T
X H
Y S
b eco
b box
c rc
d on
d ue
f handle
q dm
u ght
v Builder
} >"
} -{
Ġ ulti
on ecmd
in side
in her
Ġa head
or ab
de clar
Ġc enter
Ġf walk
er minate
Ġre name
Ġp lay
at s
Ġin tr
Ġe v
Ġto ler
one s
Ġ( "",
ĠT erm
is class
get state
get response
get randbits
Ġcon sult
it le
Ġh h
Ġdef er
ĠI nt
Ġen ded
ĠA uthorization
ĠS ort
(" :",
(" :")
list box
po ple
mo ved
read all
read buf
Ġun cache
Ġun pickle
Ġun conditionally
ĠE R
Co re
Ġset default
Ġ2 7
ĠN ull
back wards
ĠM is
ĠM use
ĠM issing
ĠR ed
ĠR ational
In cremental
uple x
Ġle ts
iz ers
ha ps
os fhandle
Ġassert Raises
Ġl num
ĠG ot
format week
ĠRe trieve
Ex tended
lay ers
Ġab ility
RE AL
ĠTest ing
Ġback ed
Ġqu ad
token type
Ġprovi ders
Un it
En vBuilder
Ġrec ip
MA GIC
TI VE
win error
Ġ5 03
Ġmake file
DE L
handler List
Lo cator
gra b
Ġoriginal ly
FI RST
Handler Test
Ġinitial ly
hash able
lim its
No w
Ġpri marily
clas sed
Parser Create
]] ]:
Ġcomm unication
Ġlock s
Ġselect foreground
Me asurement
Ġidentifi es
Ġfra ctions
DI FF
App le
TER S
Ġ"/ ",
TLS Version
Format s
Ġaccept able
CF G
ĠRead s
Ġrepe tition
Comp ile
Comp ares
Ġlow est
Ca pture
ĠString Var
Ġawa kened
Col lection
ĠTime stamp
compati bilities
Ġcalcul ation
cleanup s
final izer
Ġsile n
Ġlet ters
ĠReg ression
STR U
indi cator
Ġph ysi
iden tifiers
ĠClass Var
SY N
Ġlisten ing
printable s
ĠModule s
SOCK ET
ĠCol lect
Current ly
asyn ct
Generator Exit
Ġasynchronous ly
Ġep hemeral
Ġsto pping
FORMAT S
Ġsq rt
align ed
ĠSOCK S
Ġdescend ant
conflict ing
ENTI TY
Parsing Error
ĠPri vate
ĠMan ager
STO RE
Mis match
permission s
Listen er
Ġprac tice
ĠWINDO WS
Almost Equal
pople ft
! ).
% (
' ;
' >
) `
, -
, !=
3 77
A gent
B R
B Y
B lock
G MT
I MA
I MP
I SS
M in
M ay
N ag
Q Q
R a
S pace
S cheme
T op
T ab
T race
U LE
\ )
b race
b io
d text
e tition
f ortunately
i python
i che
j ob
j upyter
k a
l li
m yp
o par
o Info
q p
r test
s in
s nap
t def
t info
t ries
u time
v Server
w g
| ',
} _
Ġ ÃŃn
Ġ Ãºni
on error
in str
re si
re dir
re hen
re rs
re raised
Ġa vail
Ġa tenÃ§Ã£o
st able
or ters
de os
me brew
Ġc j
Ġc en
Ġc ryptography
Ġf ash
Ġf ingerprint
er tical
Ġre tain
en ume
Ġo mit
Ġp on
Ġp ep
Ġs Ã£o
Ġs info
Ġs quee
Ġs light
Ġs wap
Ġn threads
Ġn umerator
Ġw char
Ġin finity
Ġin teraction
Ġin consistent
an ny
un ge
un parse
def bc
he apreplace
tur a
ge m
Ġan tes
Ġm i
Ġm ist
di ce
ri ca
ra ys
ra gment
co ordinates
co eff
ul y
Ġst reamed
ĠT run
ĠT AG
ĠT IME
is abstractmethod
is EnabledFor
ch ksum
Ġu tils
__ """
pa ca
pa use
Ġd raw
Ġco ord
Ġfun Ã§Ãµes
Ġex e
get recursionlimit
test fuzz
la h
Ġcon sistency
Ġse quential
od ata
Ġh p
fi gs
ver ti
and oc
ve is
Ġas list
Ġas utf
ll ator
Ġch atty
up On
Ġde que
Ġg ap
ba re
ol ate
ĠA wa
ĠA GEN
ĠS H
ĠS afe
ĠS ymlink
ĠS hape
ĠS crollbar
... )
file mod
(" >
ĠC losing
ĠC aminho
Ġne ts
key map
Ġwh iche
ĠF ull
ĠF ORMAT
ĠF OO
do pen
line buffer
for wards
for gi
Ġpro du
set recursionlimit
Ġma gn
Ġ`` <
Ġ`` ('
vi sit
Ġr ng
Ġ0 8
no s
no mes
ff n
ff sets
args pec
app lies
Ġun installed
Ġun trusted
Ġun reserved
Ġun ambiguous
pre t
Co erce
Co mmon
Ġget state
us a
Ġlist box
Ġver sioned
url unsplit
Ġkey file
Ġdata sets
Ġad van
Ġad verti
ĠM od
py test
Ġpas te
In vocation
(): .
(): \
ĠV i
ĠB LOCK
ĠB lockingIOError
ne eds
ab orter
Ġsub modules
Ġsub dirs
Ġsub generator
iz ar
pen down
Ġcontext vars
Ġx refs
ĠL F
ĠL EN
ĠL azy
Ġac ct
Ġcheck sum
Ġz lib
ĠIn dent
Ġurl parts
pi log
pi ctures
Ġl dt
Ġformat ters
lic ated
ĠG C
format param
sub set
sub mit
valid ation
Ġup stream
ĠRe ader
ĠRe mote
sig ma
the tic
context var
Ġstart x
Ġdoc umented
comp iled
comp etition
sys te
sys root
Ġval name
Ġ4 04
scri be
Ġdist s
Ġconfig Set
RE SS
Ġsize of
Ġsize EndCentDir
config Type
check hide
Di ff
im ulate
gh i
Ġper m
Ġper plex
Ġper iodi
ffe rent
ĠUn der
Ġvi sited
Ġvi deos
Ġbuffer size
Ġiter values
Ġiter keys
decode rawunicodeescape
ET ag
ET AIL
wo uld
TI CAL
ĠCo mmon
group ing
Key Set
Ġ5 17
bin ascii
Request Field
ref leak
ref cycles
Ġtrue color
ĠX code
Ġlocal time
Ġlocal host
Ġindi cator
Ġinclu sive
TH RESH
\\ ',
Ġresol ves
env py
Ġimp licitly
For ce
extra cted
11 5
Ġpi ctures
UN T
Response ReturnValue
AC CESS
AC CEPT
HTTP RequestHandler
UT O
json ify
GI L
De pendency
mon ic
ĠDe leg
Content Range
issue comment
ĠNo App
Ġraw mode
Ġ7 2
Ġ'. '.
Ġcomm its
Ġext Keys
Ġattr text
DO T
Ġrender s
Ġrest ri
Ġlong opts
Console Output
Ġdoctest s
ĠMo st
global trace
gram as
wri tes
Ġfp in
cho me
Ġright most
logger Dict
Unicode EncodeError
Ġjson lines
Ġfra gments
Ġreal name
Ġterminal s
go ogle
AG AIN
14 15
warn ed
ĠID NA
13 3333
ĠPre vious
ĠPre pared
prepare r
Ġlib paths
Value Ex
Multi ple
17 2
ĠUN BOUND
comment list
IG NO
atis fiable
Ġmu sic
tz name
tz path
Ġstri pping
Ġperform s
Ġperform ing
parsed ate
tab size
On Close
Ġhex tets
IL L
Ġchain ing
vid os
xx testfuzz
Ġsym bols
timestamp s
Ġrevision s
ĠToken List
ĠToken iza
ni us
integer s
Ġsig int
JSON Decoder
iden tity
Ġzone info
Ġspecification s
Ġhard ware
BO OL
Ġinte rested
Ġ``( ',
ĠAc cording
Ġbig ger
Ġsatis fies
ĠHelp Formatter
Ð° Ð
Ġdeleg ation
OL D
Ġincre ased
Ġincre asing
One Invocation
("- ",
Ġsmal lest
ĠLiteral String
unicodeescape string
ĠInter polation
sym table
37 3
Ġcar reg
ĠSec ureTransport
rpc clt
ĠInternal ServerError
Shell Embed
Ġunix from
deleg ation
Ġ'+ '
Ġ'; '
tilt angle
Ġsto pped
ĠLine ar
)? ')
CL U
ĠâĶ ľâĶĢâĶĢ
collection s
ĠLO AD
agen s
Mac OS
Progress Column
stri pped
Ġsim ulate
Ġsim ultane
Ġdecla re
Ġflus hes
exclu sive
rawunicodeescape string
capa bilities
ib ling
Ġstar ty
Setup State
Correct ly
ĠIncremental Decoder
ĠIncremental Encoder
assertLess Equal
ĠFILE NAME
bet ween
Ġconcaten ated
("= ")
Ġpartition ed
refer rers
Ġestim ated
:, }
Ġll st
ĠImmutable MultiDict
ĠCor oInfo
Ġcanv height
represent ation
ĠAP Is
ĠCar rega
ĠSV G
ĠparÃ¢metro s
Ġuniform ly
Ġ39 86
Com ment
-# -#
Ġsole ly
Ġaccident ally
-? [
rele vant
Ġmim ic
getfile syste
Ġ***************************************************************** *****
Give upOn
Pr inter
beha vi
Has Attr
ĠCOL UM
PREFER RED
Exactly OneInvocation
650 52
NUT YPE
NOTI FIED
Ġdiagon ally
asynct ask
ĠÃŃn dice
Ġfash ion
anny Nag
ĠAwa ited
Ġwhiche ver
forgi ving
Ġadvan cing
THRESH OLD
ĠNoApp Exception
" #
" (
" -
" ({
' '\
) ``,
) (*
6 02
: {
: """
C ho
C ha
D EN
F raction
H t
I C
P R
P lease
R ou
T S
W a
b undle
c ance
d k
h ard
o v
o id
p w
p wd
p ragma
q dn
r st
s lot
z lib
z ily
} </
Ġ life
th ose
Ġa verage
Ġc mp
al pn
Ġre ap
Ġp print
at on
at ype
Ġin tention
Ġin spection
un wrap
def ine
tur l
ge thost
() ._
si tivity
ĠP age
ĠP EM
od ing
Ġh uge
Ġstr ftime
ĠI mplementation
Ġde rive
(' {
Ġpa cket
ĠA U
ĠA b
ĠS DK
Ġra te
file mode
ĠC PU
ĠF ault
Ġ: ]
set blocking
Ġ`` %
ys Log
assert ExactlyOneInvocation
Ġ[ --
Ġexce ed
Ġun related
Ġset locale
Ġmo ment
Ġkey defs
ĠW in
ĠW ARNING
su bject
ĠM akes
Equal ity
Ġsub directories
Ġsub classed
temp ting
Ġla ck
ĠL C
ren dered
source file
Ġany where
ĠG uess
ĠRe store
IN DENT
=" #
=" <
item getter
split drive
Ġval s
cre dits
arg count
iter tools
Ġturtle s
linen umber
Ġtimeout s
ĠUn less
MA LL
pos xy
Name Sequence
Ġfinal izer
sh im
Ġmin utes
FF FD
DE F
ĠX H
Ġlocal context
Ġdescri bes
Ġindi cation
ĠJ upyter
CO PY
Ġtra ver
ĠHTTP Error
\\ $
Ġpy gments
Ġshow tip
ĠWe ak
multi cast
Ġauto spec
:] ]
Ġfin ishes
'' ')
ĠNo Return
ĠNo thing
Base Test
ĠFile Type
PE D
ĠPro mpt
ĠPro duce
ĠPro vide
child Nodes
ĠBase Test
ĠSt atus
view er
Ġregister ing
Ġwrap length
skip keys
Ġdigest s
App lies
ĠAd just
Ġtri ck
Ġrecent ly
Down load
ĠExp at
Ġcy clic
Source Loader
month name
Dec l
lr u
xml rpc
Ġconnect ing
rest ype
Ġsimp lify
atom ic
Ġevalu ates
same file
Ġreli ably
Ġoptim ize
Ġcombin ing
GE ST
ĠModule Type
dis k
__} ({
Ġexpi red
Ġconflict s
optim ize
Ġclo sure
Ġcap turing
ĠConver ts
Ġgrid ded
ĠResource Denied
Ġ; ;
Named Tuple
Per AU
ĠMet a
Bo olean
ĠSocket IO
We ak
ĠAssume s
AA AA
inv okes
Ġestabli sh
ĠSU PP
Ġcri tical
Ġspin box
ock opt
oto Image
BUIL D
Dispatch er
Random NameSequence
ĠStack Summary
WSGI Server
ĠTop level
ĠFree BSD
Ġcoer cion
Comb ine
ĠKE Y
copi ed
DISABLE D
OPTION AL
strate gy
declar ation
Ġtoler ance
Ġphysi cal
SYN C
$ &'()*+,
% )
( "".
) ()
) (?
+ '
/ --
1 994
4 7
> ;
> ``
> ':
? ")
A I
A ss
B roken
C alcula
C RLF
C FArray
E ditable
G zipFile
H us
H MAC
I mplement
I OR
K ILL
L ATE
P ip
S er
S END
T Any
T AG
T Accessor
\ ']
] \
a vi
a inst
b count
b idden
c j
c size
d ly
f ront
g us
g ap
g if
h old
k ies
n world
n exus
o ser
s r
t as
t ch
u size
w el
z ma
z able
Ġ utcoffset
ī Ī
in c
re versed
Ġa ch
Ġa mbiguous
st all
st ress
st retch
or thook
de sired
Ġi termonth
Ġth reshold
Ġth ousands
Ġc ent
Ġf r
Ġf ro
Ġf lashes
Ġf acility
er a
Ġt udo
Ġre ve
Ġre open
Ġre sets
ur andom
Ġp ol
Ġp ic
Ġp ub
Ġs pe
Ġn diff
Ġin package
Ġe type
ge tenv
Ġto wards
Ġ""" _
Ġ""" ))
Ġan g
li ance
li ca
lo gs
ri b
one xt
co ord
ut a
Ġst ra
si d
si o
Ġ' !
Ġ' (':
ĠT ensor
es ponse
Ġv end
ĠP atch
ĠP retty
ser ter
Ġand roid
Ġ" ]"
__ }'
ct rl
pa pp
Ġd umb
Ġco ords
get info
get doc
get node
get EffectiveLevel
test source
test suite
la ck
pe m
pe at
it alize
od ate
Ġh ist
Ġh yphen
ver tices
Ġwith year
Re quested
Ġdi retÃ³rio
Ġme ets
Ġde tach
con t
(' ''
to file
ĠS ans
ĠS erialize
ĠS alva
ho ver
(" '
(" ~/
code c
ĠC atch
ĠC FArray
Ġ1 994
ĠF ol
ĠF FN
line junk
Ġlo t
Ġtest CaseClass
Ġpro p
Ġpro be
Ġpro ced
time delta
Ġr hs
Ġhe apreplace
Ġ[ ,
ĠD OS
ĠD uplicate
mo unts
men ds
Ġun structured
pre par
pre serve
pre dictions
ty pename
Ġget proxies
Ġmo unt
Ġno me
url safe
qui vos
Ġpre set
Ġline junk
Ġad mon
Ġmethod Name
ĠN UL
ĠW WW
Ġbo ther
ĠM box
In exact
fun coes
Ġapp e
fix o
Ġcall tip
fig ures
Ġbu gs
ĠB lock
ĠB OS
ab ling
ron Python
Ġsub normal
Ġcomp uting
Ġcomp utes
Ġchar junk
Ġla mbd
Ġ3 33
Ġ3 03
Ġro bot
ĠEx emplo
from widechar
from stringandsize
Ġrun source
tin stall
Ġend pos
Ġend chars
sub interp
ĠRe try
doc str
the red
term ines
Ġmax split
split table
Ġj oe
comp s
ST ALL
ag ainst
Ġtoken izador
Ġ4 01
color str
Ġconfig Type
til de
10 15
Ġback off
cate gories
config parser
Ġqu an
Ġk no
start line
linen um
ume ro
dist inct
has attr
Ġmulti cast
root x
root y
ym od
round s
reg istered
Ġiter ating
Get Pixels
Ġhelp s
be red
copy right
Request CacheControl
pas v
Ġti e
ĠIP ython
stream ing
Ġentry points
war noptions
Ġimp ressao
pri ate
gra tion
Ġdir path
Ġass ump
25 7
import ing
AC H
ĠSet ConsoleCursor
******** ****
Is Instance
Ġsepar ating
ĠException Group
tra ces
hash digest
Ġresp ected
}) ",
Ġ[' ']
net works
flag list
Ġiden tities
Ġsplit root
Ġkw only
Ġspa cing
Ġtop ic
Ġdecode s
Ġextension Name
loop back
indent width
Ġconfiguration s
TO OL
Ġappro x
ĠPath Distribution
ĠLo oks
ĠTurtle Graphics
Ġcorrespon d
pad y
Ġown ed
30 3
CH UNK
CH ANGE
ĠAl ternative
Ġnecess Ã¡rio
Ġmen us
resol ution
Ġ". ".
sets ockopt
ĠAd am
Ġinsert ing
As UTF
seq s
vide os
CF LAG
ado res
Ã¡ rios
dest ination
uage m
Ġappear ance
Ġ', ':
ĠInvalid URL
MAX LINE
decimal nl
Ġus a
Ac quire
Ġenume ra
Ġ// =
setup term
Ġfix ing
ĠCF Const
Ġyour self
ĠComp uted
CON TEXT
TYPE S
tab width
Ġreader s
Ġhex tet
ÃŃ vel
ĠVersion Control
Ġdestin ations
pick led
Col lector
sq l
Ġdownload ing
Ali ases
Ġclean ing
Ġblank s
From MappingProtocol
walk packages
cf string
ĠTask ID
ĠTask Group
mime types
Ġsimp li
Ġdelim s
cion Ã¡rio
ĠLink Collector
ĠCustom Context
fact s
merge d
9999 9999
Ġzone s
ĠStart ing
DocTest Parser
hd r
Ġ"{ !
Protocol State
Ġ30 8
vant age
VAR num
Ġdecoder s
Ġmix er
Ġignor able
Ġundo buffer
gent ly
Ġopinion ated
document s
ĠConver te
Non Multipart
draw line
mu sic
Ġeffective ly
CERT FILE
ryp ted
ĠFI RST
ĠDec orate
Ġul ps
ĠSecurity Const
Ġconsistent ly
(".") [
ĠDeco mp
insensitive ly
Ġ'; ':
Ġsubstit ute
ĠCO MP
scrip ten
Ġsumm ar
paragraph s
unbo undop
[^ /
public Id
Ġbl ame
Ġnorm case
ĠREP ORT
Ġrc pt
ĠMin imum
Extension Keys
Cre ation
Ġexis tence
Ġedi ted
Ġga thered
RUN NING
ĠLZMA File
Ġlate st
ava Script
ĠRo unded
ĠRPC Server
ĠParam Spec
Ġstand alone
ĠRO UGE
bot frame
0000000 3
Ġcla use
Ġsequ Ãªncias
ĠNexus Tokenizer
fro mencodedobject
Ġ"; "
accep ts
syn chronize
Ġreprodu cer
intern et
Ġexam ine
Ġrpc clt
Ġheapp op
TEMP LATE
CLO SED
THE SIS
Fast Copy
reach able
care ts
ymbol Table
Dest roy
lan ation
Ġgray scale
Ġrl completer
Ġcomput ation
ĠFe b
Ġscenari o
aby l
ĠLim it
adow ed
Ġdeliber ately
/: ;=
getsock name
PAREN THESIS
STRU CTION
BR ACKET
ISS ING
lli gently
Ġmagn itude
ĠBLOCK SIZE
GiveupOn FastCopy
Hus kies
IOR esponse
TAccessor Value
Ġach ie
Ġcent dir
Ġpic name
ĠSans IOResponse
Ġadmon ition
ĠTurtleGraphics Error
FromMappingProtocol T
" (?
' #
/ ")
0 123456789
< !
A bsolute
C FA
C DATA
C ALL
H older
I ABLE
I gnore
I terates
K EN
L abel
M ail
N annyNag
P art
T cl
U UID
V EL
V eri
Z H
] [-
] }"
_ ):
d rag
f et
g one
g win
i or
i red
i tim
i mag
k CFA
l locator
m ber
n od
o led
p ects
r no
u ss
in itialize
in dented
re able
re den
Ġa pi
Ġa lert
le ans
de tail
ti ca
ti gu
ar n
Ġt xt
Ġt amanho
Ġo sc
Ġp th
Ġs ay
an cy
un recognized
un structured
Ġ""" +
Ġm andatory
lo y
python home
ĠT ake
ĠT reat
is module
ser vice
pa ble
get ints
get Message
pe ak
Ġh cls
', )
ba k
ĠS cale
ĠS IZE
file list
ĠF ork
pt ures
el t
po ols
ĠD own
read link
Ġun blocked
Ġun recognized
pre fers
ĠE m
ument ation
Ġget members
pro d
Ġver tex
ĠO R
Ġ{ **
Ġ2 1
Ġ2 6
ĠN E
ĠN ext
ĠR ound
In struction
info url
date d
Ġca file
Ġca ution
Ġla zily
Ġassert Equal
ĠIn dicates
by ref
ĠG ive
ĠG zipFile
Ġsupp osed
format ting
ĠRe al
[" _
ME TH
ee ded
Ġback log
LE VEL
token ized
start up
ĠDefault Context
og gle
Ġsign um
mode s
vai la
ĠOS X
ga i
inst anti
bin dir
Ġwa ys
Ġwa iters
eco mp
AR CH
gener ated
wh y
HTTP Message
ĠSet up
}) ")
ĠPy CF
ĠZ H
Ġpla u
ID TH
node Type
ank s
15 7
Ġselect background
auto complete
Ġgot ten
Ġquote char
modi fy
NT AX
ĠUN NAMED
Ġleg itim
Call ing
ĠBu ffer
Cli ck
initial space
SU B
Ġside bar
Ġsc rolled
SS AGE
ĠZip ImportError
Ġpack ing
idle Conf
ori ent
Ref Handler
Su ch
('< <
Ġunpack ing
lt n
Sh ift
BO SE
Ġslice len
Ġfree ze
Ġrot ated
ĠTimeout Expired
rand below
Ġinherit ance
ĠABC s
Ġincre ase
('. '):
ĠInter face
Ġser ving
ĠValid ate
ĠProcess Error
12345 12345
Ġ'\\ '
awa its
ĠEN ABLE
Ġ40 5
Entity RefHandler
Valid ate
mean ing
Ġdra in
Ġcover age
ĠSh ort
COM MAND
Ġsyn chron
REC ORD
bla ck
bla ke
Ġconsider ing
yes no
Ġsubscriber s
prefer reden
(': ',
ĠWri tes
peer cert
Ġapproxim ate
Ġfraction al
Buffered Reader
Ġ(* )
Ġallo cate
INI TIAL
reference d
ĠObject s
ĠRecur sively
ĠOptim ization
ĠInput Source
FOR WARD
ĠSha redMemory
Ġsecre t
abcde abcde
SENT INEL
Ġcance led
SCA PE
anger ous
beco me
Ġulti m
defbc defbc
Ht tp
Rou te
hard link
Equality Func
Ġrobot s
kCFA llocator
reable List
tigu ous
METH OD
preferreden coding
kCFAllocator Default
" ><
) {
) __
) },
/ "
/ -
0 33
3 01
? \\
@ {
B E
C RT
D ash
E ither
E GG
E ACCES
F SIZE
G H
G LU
M MDF
N F
O VER
P kg
Q DN
R outing
U rl
W in
] -
a unch
b k
b mp
b ble
c ra
c and
d as
d type
e v
e mitted
f ar
f ingerprint
g b
g ns
g uessed
i co
l c
m bo
p us
q File
r te
s nan
t ary
v olume
w ch
w ild
x form
y ellow
} ))
Ã ´
â Ģ
ļ til
se ed
se quential
in place
in sertions
re build
Ġa to
st ill
st dev
st ors
de velo
`` ),
Ġi os
Ġi tokens
Ġc k
Ġc ame
Ġc python
Ġc sp
Ġc flags
Ġc rop
Ġc sidl
Ġf on
Ġf data
ti mal
ar a
ar di
ar quivos
Ġt un
Ġt rou
Ġre con
Ġre used
ur ns
Ġo timizador
Ġp variance
Ġp kl
Ġb rowse
ing s
Ġs ft
Ġs alt
Ġn ice
at open
Ġw ww
Ġw ishes
Ġw anted
Ġin so
Ġin stru
Ġin compatibilities
an ext
un able
mp ro
Ġis class
he app
): :
Ġto Return
Ġto filedate
Ġm one
li ent
lo cated
ri co
ra o
Ġreturn list
ul a
Ġst yli
() -
() }")
si zes
Ġfor ma
Ġ' ):
is function
is ascii
ĠP ad
ĠP LC
ed From
Ġd p
Ġd v
Ġd under
Ġco ur
Ġco ol
Ġco ded
Ġco variance
Ġex ename
get line
get uid
get prop
test case
ble u
ver ted
Re main
ĠI RI
') ")
') )),
sp ite
up loaded
Ġde cl
Ġde spite
(' ',
(' ''\
Ġpa res
ĠA ct
ĠA rray
to lines
... ,
") ),
Ġ* ([
ĠC L
ĠC R
ĠC OR
ĠC RC
ĠC ERTIFICATE
Ġwh l
Ġ1 0000
ĠF C
ĠF QDN
Ġar r
Ġar bit
Ġfrom lines
Ġfrom stringandsize
Ġfrom filedate
Ġit n
Ġr Ã¡
Ġr gb
ta ken
po si
assert HasAttr
out come
Ġso b
ĠD ate
mo s
read s
men coding
app licable
), )
Ġtr ansp
ĠE g
ĠE OS
ĠE valuate
put request
Co llator
us al
scre ve
Ġno body
Ġal arm
Ġpo or
Ġpo ols
ĠO p
ip her
Ġkey list
Ġkey bindings
Con stant
Ġpre di
Ġ% -
Ġ2 01
Ġ2 373
Ġline starts
Ġad vantage
ribu te
und ay
Ġnew est
Ġmethod response
ĠN AN
ĠM ain
Test Class
Ġexp at
Ġexp lanation
ac me
ac cording
size of
Ġsub st
Ġsub item
Ġsub sample
Ġsub strings
Ġsub interpreter
Ġsub nets
Ġcomp type
Ġcomp licated
Ġchar sets
Ġca ptures
ĠL E
Ġ3 04
Ġro om
Ġro lling
Ġro llback
from kindanddata
main loop
tin y
tin link
with filename
with asciistring
Ġcheck points
ĠIn voke
Ġend line
option xform
unt u
ĠRe presents
ĠRe qFile
Ġfo orab
Ġstart line
Ġmax length
ĠCon venience
âĶ Ĥ
char det
write lines
[" __
split dict
split root
err pipe
ag ain
move to
Ġ4 13
Ġ4 40
pr inted
RE EN
arch s
bug gy
10 16
ext n
ext page
Ġqu eri
Ġevent Name
Ġk inds
"] ))
"] ["
Ġ/ )
im mediately
iter keys
map dict
Ġlast indent
Ġpos sibility
inter rupted
abc s
Un like
Un necessary
Ġcolor string
Ġthere by
Ġprefix o
Ġexec v
ĠURL Error
Ġvi sitor
Get Current
EN AME
ite ly
ite rencode
tk inter
can onic
min hash
Ġhttp only
Request Kwargs
Pro mpt
Ġsome where
Ġwrite lines
ĠJ ython
CO UNT
Exception s
typ ecode
Ġdiffe ren
Ġdecor ate
St arts
war mup
Ġtag ged
pass through
Ġimp lied
ĠĠĠĠĠĠĠĠĠĠĠĠĠĠĠĠĠĠĠĠĠĠĠĠĠĠĠĠĠĠĠĠ ĠĠĠĠĠĠĠĠĠĠĠĠĠĠĠĠĠ
ĠĠĠĠĠĠĠĠĠĠĠĠĠĠĠĠĠĠĠĠĠĠĠĠĠĠĠĠĠĠĠĠ ĠĠĠĠĠĠĠĠĠĠĠĠĠĠĠĠĠĠ
}") .
Ġwait pid
tra fo
UL D
Ġresp ects
Ġ[' --
De serialize
debug ging
ĠPy Py
Ġsearch engine
Ġ6 5
ĠPar ses
Ġ7 0
Ġ7 5
Ġ7 8
comple to
Ġsuc ces
ĠSe lection
Version Conflict
NO WAIT
Ġio menu
Ġmon key
Ġconstruct ing
Run s
cep ts
Ġtrans mit
Ġtrans former
Ġfa z
ĠLo okup
ĠLo RA
last cmd
warning registry
full circle
Ġclear ing
NAME S
skip Unless
medi an
PP ER
Ġgot s
Ad just
DI GEST
column configure
App Data
Ġabsolute ly
Ġ". *
shape Index
shape poly
Ġ"/ ".
Ġcert file
Ġrandom ly
Ġ'_ '.
Ġ[" }),
As k
Server Disconnected
mis match
04 15
PO P
Ã¡ li
Data Mixin
ĠRead TimeoutError
Multi LineDocstring
cer tificate
Ġim mediate
SH A
Py Time
ĠSpeci fy
Ġlower cased
[[ _
ĠValue Terminal
Ġfix up
ĠConsole Options
Ġput ter
Ġpartial s
AS ENAME
iso calendar
Ġpr inter
Ġpr Ã³
menu dict
ÃŃ da
Ġdouble colon
got onext
ĠDo main
SU P
SU PER
delay ed
rag ent
Ġduplic ated
pick ler
Line ar
Ġdiff lib
ĠPas so
ED S
ĠHandle s
Helper Meta
Ho wever
Ġpen size
Ġ20 68
SIG N
locale name
Ġsw allows
poly gon
ĠReg isters
ĠExtra i
Parameter Source
Ġvalidate command
abstract methods
Regex Lexer
Ġunpack er
Level Name
Ġeas ily
report Unnecessary
mount point
Candidate s
18 3
Close Handle
Ġdesc ending
Ġdb m
IS DIR
Ġembed dings
Ġpkg util
ĠLi b
Ġexpan sion
named tuple
mer rno
Ġdocs dict
("- ")
Bad Parameter
ĠUpdate s
Update s
Supp ort
ĠCol lection
Ġblue prints
Ġeditable s
Ġpat s
Ġmut ated
Replace ment
delim s
annotation lib
draw poly
ĠFI FO
ĠRequirement Set
ĠPool Key
Ġ"* ":
mapho res
Ġinvocation s
My Types
deleg ating
Ġexemp lo
rl completer
Link edFrom
('# !/
REC ASE
Ġconsist ing
cum ulate
wi GLU
Zero OrMore
ĠCandidate Evaluator
Ġ'? '
Ġ"\\ \\
Ġsal vos
LOAD ING
pie ce
Tra it
Ġ*( ","
ĠWri ter
Ġeager ly
percent age
ava il
Ġiso format
Ġmanage ment
CRE ATED
schedule d
Syntax Split
ĠSu ch
Int Enum
she ar
-------------------------------- ----
NE EDS
tcl Commands
Ġau dio
ĠBe fore
Ġexten sao
Ġshear factor
Back end
}+ $",
Ġintern et
GEN ER
Ob tain
fro merrno
Ġestim ate
Ġve z
Bin dings
Ġcanv width
accep ted
Ġshr ink
WWWW WWWW
~~~~~~~~ ~~~~~~~~
BUIL T
!! !!
(", ")
Ġradi us
Ġradi ans
ĠNamed Tuple
currentLine Item
327 68
]| [
ĠTextIO Wrapper
mak er
Ð°Ð± Ð²
Ġsusp ended
Installer Type
HTTPS Connection
Optim ize
Ġconte udo
ĠSHO ULD
multip ly
DescriptionWith MultiLineDocstring
onen tial
styli ze
OPEN SSL
Ġmarsh alled
rwx rwx
Negative One
affected Type
("." ):
overla pping
Ġfrac part
Arch ive
osi ting
COLUM NS
phan umeric
ĠCompression Error
ĠPh otoImage
Ġgrace fully
IMA GE
ĠÃºni co
enume rate
Ġslight ly
Ġprodu cing
ĠLEN GTH
IGNO RECASE
Ġcarreg ar
Ġsimultane ously
getfilesyste mencoding
ĠAwaited Info
Ġfro mencodedobject
Ġang ular
Ġstra ight
Ġvend or
ĠWWW Authenticate
Ġappe ared
Ġkno ws
Mail box
ĠSIZE OF
bk df
ardi zed
Ġtrou ble
Ġinso far
Ġmone tary
ĠrÃ¡ pid
ĠReqFile Lines
1016 73
Ġqueri ed
fromerrno withfilename
" _
* :
* ?
+ ")
/ \
1 32
1 42
5 70
7 4
: ')
A SH
C ycle
E V
F ixed
M ain
N et
O TH
P ack
R ot
R OR
T A
U B
[ (
a enter
a bove
b f
b m
b isect
d ation
d able
d ry
d ynamic
f it
f lash
f walk
g ates
k ernel
m ixin
n ag
n umpy
p ub
r an
s quare
t n
t rie
v ec
in ject
in teraction
re do
st atistics
de tection
Ġf lexible
al ing
ar bitrary
Ġt d
Ġre du
Ġre construct
ur ator
Ġp latlib
un specified
un locked
as su
Ġis function
Ġis pkg
nt o
Ġ""" >>>
li cies
lo de
ri tems
co dable
ut ines
ul p
() [:
si st
Ġ' '),
ĠT wo
ĠP op
Ġ" ~"
Ġu mask
__ "
get pass
test Method
Ġse ct
Re fs
Ġdi alect
sp in
Ġg ate
(' =
ĠA nother
to ol
ĠS c
ĠS ER
ĠF il
ĠF IX
list Methods
line starts
ĠĠĠĠĠĠĠĠĠĠĠĠĠĠĠĠ ĠĠĠĠĠĠĠĠĠĠĠĠĠĠĠĠĠĠĠĠĠĠĠĠĠĠĠĠĠĠ
Ġhe apify
ĠE ditor
Ġget Description
Ġmo ves
op le
mm ort
ĠO riginal
Ġpre sented
Ġnew index
Ġ< ,
Ġtext ual
ĠN either
:` (
back ward
led ge
ĠM erge
ĠR IGHT
In dent
In teractive
ac quired
size EndCentDir
Ġcontext ual
Ġ3 6
Ġro utines
ĠEx tension
from hex
ĠIn clude
Ġany one
func name
sub scribe
ĠRe f
cor respon
Ġ(' __
exp ort
Ġsource code
Ġserver thread
vo cab
Ġdist inguish
ĠDecimal s
RE TR
ME SSAGE
ĠTest Response
config urator
RL ock
"] ]:
var names
File Handler
Un available
MA SK
ite ritems
sh m
sh or
Ġexc info
pas sing
Ġcomple ter
Ġinclu sion
IP V
IP PROTO
Ġtra cer
timeout s
Not S
pack ing
ĠĠĠĠĠĠĠĠĠĠĠĠĠĠĠĠĠĠĠĠĠĠĠĠĠĠĠĠĠĠĠĠ ĠĠĠĠĠĠĠĠĠĠĠĠĠĠĠĠ
Ġnormal izing
ĠAt tempts
Ġfull path
Ġnet works
normal ization
AB I
XX HH
Ġmod path
ĠPro vides
ĠRun s
Ġskip initialspace
filter warnings
ĠPath Info
gn oring
ĠSp inner
ĠDi gest
FA IL
page s
Ġactive foreground
Ġdeterm in
ABC Meta
Ġidentifi cation
DI ST
EL D
screen info
Ġ", "
Ġ[" -
Requirement Information
Ġinsert s
Style Class
Ch anged
Conf Parser
Ġ'/ ')
Ġ'/ ':
stop frame
ĠQ U
configure d
ĠApp end
ĠConsole Renderable
under line
Process ing
ĠCh unk
Proxy Manager
Ġweek s
Ġbasic Config
Ġdisabled foreground
progress bar
uff le
editable s
RA SE
Ġrea ches
Ġord inary
ĠIndex Content
Ġ~ (
ĠFormat ter
ĠFormat Control
Debug HelperMeta
eri od
ĠSMTP ServerDisconnected
ĠStream Handler
Su c
Ġpe ak
Ġpe ople
sleep ing
Sh utdown
does n
Ġsubsequent ly
Color System
Ġ'# ':
EE K
Traceback Type
Ġrecommen dation
CHAR S
Ġexclu sive
Ġexternal ly
Ġ'* ':
Sec ond
ĠInter preter
ĠInter rupted
Ġmodification s
HA H
Ġleak ed
Send file
trun cated
au di
delim iter
surrogate pass
ĠResource Warning
ĠPool Manager
Simple XMLRPC
Ġpin ned
let te
Str ucture
Tree Item
ĠRaw Turtle
hour s
Ġdiffer s
em ulated
Modi fy
Tra versable
Ġsurro unded
embed ded
BLOCK SIZE
CHARACTER S
Pick le
('" ',
ĠDef ine
bet a
ĠPAT CH
ĠPAT TERN
Ġdevi ation
Ġnotifi ed
Wh ile
ĠAR GS
ĠFake Socket
Align Method
Ġsecre ts
ĠSearchDialog Base
ĠSign ature
TMP FILE
Ġautor aise
prep end
Iden tity
Ġtechni cally
Ġcolli sions
veri fiable
FUNC TION
ĠTerm inal
ĠER ROR
ĠMis c
ĠAU TH
Ġlegitim ate
trie ves
ĠFIX ME
ĠInterrupted Error
& ',
' '),
' [\
' /'
* ',
+ ')
2 000
4 88
4 33
5 6
6 2
8 000
; ,
; ')
> '),
> '):
A vailable
A rg
B F
B UND
C IP
C CESS
G ot
G PT
H ide
H RASE
I dle
L TER
L ZMA
M id
N exus
O W
O l
O CH
P atch
S Z
S can
S uper
S FT
S kipping
W LINE
_ `
` -
a le
a de
a head
a utor
b d
b all
c sp
c time
c sh
d w
e quivalent
f wd
f dopen
g ge
g mtime
h yphen
l m
n p
n codedstring
o res
o sing
o thing
p ct
p kgs
p lica
q sl
r u
r limit
u c
v or
y code
Ġ Î
Ġ served
Ġ urlencode
in cremental
re me
re ino
re wind
Ġa dobe
te leport
st ty
le ting
de pending
`` -
Ġc atches
Ġc abe
al ty
al gorithm
er ies
ti getstr
sel ine
ar c
ar ding
Ġt text
Ġre dir
Ġre je
en tic
en ough
Ġp lat
Ġp ymod
Ġb and
Ġb zip
Ġs x
Ġs ÃŃ
Ġn umero
at trib
Ġin c
Ġin s
Ġin place
Ġe ps
Ġe lt
un e
un display
un limited
un filtered
un verified
un ycode
as test
as unicodeescapestring
as rawunicodeescapestring
ro unded
Ġis tep
he apt
Ġto gg
Ġto uch
Ġan n
Ġm t
Ġm diff
Ġm argin
li der
lo cate
co ll
ul ating
Ġst ay
() ;
Ġfor wards
Ġ( #
Ġ( ((
ĠT ZPATH
Ã§ as
is ol
is method
is space
is sym
ĠP G
ĠP ack
ĠP ush
ĠP HRASE
ch g
Ġ" |
ment ari
__ "]
__ ``.
Ġd d
Ġd m
Ġd rives
Ġd arwin
Ġco st
get ters
get reply
get addrinfo
get statusoutput
