{"<PAD>":0,"<BOS>":1,"<EOS>":2,"<UNK>":3,"<SEP>":4,"@app.route":5,"@app.get":6,"@app.post":7,"@app.put":8,"@app.delete":9,"### Instruction:":10,"### Response:":11,"!":12,"\"":13,"#":14,"$":15,"%":16,"&":17,"'":18,"(":19,")":20,"*":21,"+":22,",":23,"-":24,".":25,"/":26,"0":27,"1":28,"2":29,"3":30,"4":31,"5":32,"6":33,"7":34,"8":35,"9":36,":":37,";":38,"<":39,"=":40,">":41,"?":42,"@":43,"A":44,"B":45,"C":46,"D":47,"E":48,"F":49,"G":50,"H":51,"I":52,"J":53,"K":54,"L":55,"M":56,"N":57,"O":58,"P":59,"Q":60,"R":61,"S":62,"T":63,"U":64,"V":65,"W":66,"X":67,"Y":68,"Z":69,"[":70,"\\":71,"]":72,"^":73,"_":74,"`":75,"a":76,"b":77,"c":78,"d":79,"e":80,"f":81,"g":82,"h":83,"i":84,"j":85,"k":86,"l":87,"m":88,"n":89,"o":90,"p":91,"q":92,"r":93,"s":94,"t":95,"u":96,"v":97,"w":98,"x":99,"y":100,"z":101,"{":102,"|":103,"}":104,"~":105,"¡":106,"¢":107,"£":108,"¤":109,"¥":110,"¦":111,"§":112,"¨":113,"©":114,"ª":115,"«":116,"¬":117,"®":118,"¯":119,"°":120,"±":121,"²":122,"³":123,"´":124,"µ":125,"¶":126,"·":127,"¸":128,"¹":129,"º":130,"»":131,"¼":132,"½":133,"¾":134,"¿":135,"À":136,"Á":137,"Â":138,"Ã":139,"Ä":140,"Å":141,"Æ":142,"Ç":143,"È":144,"É":145,"Ê":146,"Ë":147,"Ì":148,"Í":149,"Î":150,"Ï":151,"Ð":152,"Ñ":153,"Ò":154,"Ó":155,"Ô":156,"Õ":157,"Ö":158,"×":159,"Ø":160,"Ù":161,"Ú":162,"Û":163,"Ü":164,"Ý":165,"Þ":166,"ß":167,"à":168,"á":169,"â":170,"ã":171,"ä":172,"å":173,"æ":174,"ç":175,"è":176,"é":177,"ê":178,"ë":179,"ì":180,"í":181,"î":182,"ï":183,"ð":184,"ñ":185,"ò":186,"ó":187,"ô":188,"õ":189,"ö":190,"÷":191,"ø":192,"ù":193,"ú":194,"û":195,"ü":196,"ý":197,"þ":198,"ÿ":199,"Ā":200,"ā":201,"Ă":202,"ă":203,"Ą":204,"ą":205,"Ć":206,"ć":207,"Ĉ":208,"ĉ":209,"Ċ":210,"ċ":211,"Č":212,"č":213,"Ď":214,"ď":215,"Đ":216,"đ":217,"Ē":218,"ē":219,"Ĕ":220,"ĕ":221,"Ė":222,"ė":223,"Ę":224,"ę":225,"Ě":226,"ě":227,"Ĝ":228,"ĝ":229,"Ğ":230,"ğ":231,"Ġ":232,"ġ":233,"Ģ":234,"ģ":235,"Ĥ":236,"ĥ":237,"Ħ":238,"ħ":239,"Ĩ":240,"ĩ":241,"Ī":242,"ī":243,"Ĭ":244,"ĭ":245,"Į":246,"į":247,"İ":248,"ı":249,"Ĳ":250,"ĳ":251,"Ĵ":252,"ĵ":253,"Ķ":254,"ķ":255,"ĸ":256,"Ĺ":257,"ĺ":258,"Ļ":259,"ļ":260,"Ľ":261,"ľ":262,"Ŀ":263,"ŀ":264,"Ł":265,"ł":266,"Ń":267,"ĠĠ":268,"čĊ":269,"ĠĠĠĠ":270,"ĠĠĠ":271,"th":272,"on":273,"se":274,"in":275,"re":276,"Ġa":277,"te":278,"ĠĠĠĠĠĠĠ":279,"st":280,"le":281,"or":282,"de":283,"``":284,"Ġi":285,"Ġth":286,"me":287,"\"\"":288,"Ġc":289,"Ġf":290,"al":291,"Ġthe":292,"er":293,"ti":294,"Ġ=":295,"sel":296,"self":297,"ar":298,"Ġt":299,"Ġre":300,"en":301,"ur":302,"Ġo":303,"Ġp":304,"Ġb":305,"ĠĠĠĠĠĠĠĠĠĠĠ":306,"ing":307,"Ġs":308,"Ġn":309,"at":310,"Ġw":311,"Ġin":312,"an":313,"Ġe":314,"tion":315,"un":316,"\"\"\"":317,"ce":318,"```":319,"ue":320,"as":321,"yth":322,"Ġself":323,"ython":324,"ro":325,"mp":326,"Ġis":327,"def":328,"he":329,"tur":330,"ame":331,"turn":332,"ge":333,"):":334,"Ġto":335,"Ġif":336,"nt":337,"Ġ\"\"\"":338,"ĠĠĠĠĠĠĠĠ":339,"Ġan":340,"Ġm":341,"li":342,"ec":343,"di":344,"lo":345,"ri":346,"one":347,"ra":348,"ad":349,"co":350,"Ġreturn":351,"ut":352,"ul":353,"Ġst":354,"ck":355,"ot":356,"()":357,"ter":358,"si":359,"None":360,"Ġ#":361,"python":362,"Ġfor":363,"ile":364,"Ġ'":365,"Ġof":366,"ate":367,"Ġ(":368,"ĠT":369,"es":370,"Ġv":371,"xt":372,"£o":373,"Ã£o":374,"Ã§":375,"is":376,"Ã§Ã£o":377,"ĠP":378,"..":379,"ch":380,"mple":381,"Ġwi":382,"ser":383,"Ġand":384,"Ġ\"":385,"Ġu":386,"ment":387,"ĠNone":388,"__":389,"Ġ`":390,"ct":391,"ed":392,"alue":393,"name":394,"pa":395,"Ġd":396,"Ġco":397,"Ġbe":398,"Ġfun":399,"ror":400,"Ġex":401,"Ġnot":402,"get":403,"lin":404,"test":405,"pp":406,"la":407,"Ġcon":408,"der":409,"pe":410,"it":411,"Ġ-":412,"ma":413,"Ġse":414,"ĠPython":415,"ss":416,"od":417,"Ġh":418,"._":419,"ble":420,"ke":421,"ption":422,"am":423,"fi":424,"text":425,"ult":426,"Ġ_":427,"qu":428,"ver":429,"ly":430,"las":431,"and":432,"ve":433,"ĠĠĠĠĠĠĠĠĠĠĠĠĠĠĠ":434,"Ġor":435,"Ġdef":436,"Ġas":437,"Ġstr":438,"ll":439,"que":440,"Ġwith":441,"Re":442,">>":443,"ype":444,"Ġdi":445,"',":446,"ted":447,"ĠfunÃ§Ã£o":448,"ĠI":449,"')":450,"ise":451,"gs":452,"sion":453,"sp":454,"rror":455,"Error":456,"Ġch":457,"ect":458,"up":459,"bj":460,"Ġme":461,"rom":462,"ction":463,"par":464,"Ġde":465,"Ġen":466,"Ġvalue":467,"id":468,"Ġg":469,"con":470,"('":471,"str":472,"ba":473,"Ġthat":474,"sert":475,"Ġpa":476,"Ġfile":477,"ol":478,"lass":479,"il":480,"path":481,"ata":482,"ĠA":483,"to":484,"ation":485,"\",":486,"ĠS":487,"ts":488,"...":489,"sc":490,"ex":491,"\")":492,"Ġname":493,"all":494,"sed":495,"Ġra":496,"ho":497,"file":498,"(\"":499,"ader":500,"code":501,"Ġ*":502,"ĠC":503,"bu":504,"ault":505,"Ġby":506,"rue":507,"Ġne":508,"key":509,"ort":510,"age":511,"fo":512,"Ġwh":513,"Ġ1":514,"Ġ->":515,"ĠF":516,"do":517,"list":518,"Ġar":519,"ven":520,"line":521,"int":522,"for":523,"ĠĠĠĠĠĠĠĠĠĠĠĠĠĠĠĠ":524,"Ġlo":525,"Ġtest":526,"bject":527,".\"\"\"":528,"Ġon":529,"Ġpro":530,"eci":531,"Ġfrom":532,"Ġ:":533,"Ġsu":534,"Ġit":535,"pt":536,"set":537,"Ġma":538,"Ġpar":539,"et":540,"ther":541,"Ġ``":542,"vi":543,"Ġraise":544,"time":545,"el":546,"Ġr":547,"um":548,"ule":549,"so":550,"len":551,"tr":552,"ta":553,"ase":554,"ze":555,"))":556,"ance":557,"Ġ...":558,"`.":559,"Return":560,"end":561,"ys":562,"ĠThe":563,"che":564,"ig":565,"tem":566,"Ġ0":567,"po":568,"no":569,"Ġdo":570,"ure":571,"Ġthis":572,"Ġhe":573,"assert":574,"ff":575,"alse":576,"ded":577,"Ġ[":578,"able":579,"Ġobject":580,"lse":581,"out":582,"va":583,"Ġelse":584,"Ġ+":585,"Ġexce":586,"ding":587,"Ġare":588,"Ġso":589,"ĠD":590,"class":591,"tes":592,"mo":593,"thod":594,"quest":595,"args":596,"read":597,">>>":598,"mat":599,"odule":600,"men":601,"app":602,"Ġun":603,"pre":604,"ok":605,"error":606,"),":607,"Ġpath":608,"Ġ==":609,"stance":610,"rent":611,"Ġtr":612,"ĠE":613,"ument":614,"db":615,"ty":616,"cri":617,"ix":618,"00":619,"est":620,"put":621,"Ġres":622,"Co":623,"mal":624,"mplement":625,"Ġstring":626,"Ġget":627,"ĠIf":628,"Ġset":629,"Ġem":630,"us":631,"Ġcan":632,"mplemen":633,"Ġmo":634,"op":635,"pro":636,"Ġque":637,"ger":638,"Ġimplement":639,"Ġwill":640,"Ġlist":641,"Ġat":642,"ada":643,"Ġarg":644,"Implemen":645,"param":646,"Ġsp":647,"red":648,"mm":649,"Ġver":650,"scre":651,"mplete":652,"Ġno":653,"his":654,"rie":655,"Ġoption":656,"value":657,"uld":658,"andle":659,"Ġal":660,"Ġy":661,"escri":662,"ange":663,"Ġuma":664,"ust":665,"rect":666,"Descri":667,"Ġpo":668,"ĠO":669,"url":670,"amada":671,"Ġchamada":672,"Crie":673,"ip":674,"qui":675,"qual":676,"Escre":677,"Escreva":678,"DescriÃ§Ã£o":679,"Ġkey":680,"low":681,"Ġ{":682,").":683,"Con":684,"Implemente":685,"type":686,"ord":687,"urce":688,"Ġtry":689,"cess":690,"res":691,"dir":692,"ber":693,"Ġdefault":694,"ir":695,"Ġpre":696,"Ġdata":697,"Ġ%":698,"Ġ2":699,"Ġline":700,"Ġad":701,"ĠU":702,"cal":703,"ribu":704,"und":705,"ht":706,"Ġresult":707,"Ġnew":708,"Ġ<":709,"ten":710,"ist":711,"Ġmethod":712,"Ġfunction":713,"ory":714,"aÃ§Ã£o":715,"Ġtext":716,"Ġsho":717,"reate":718,"Ġversion":719,"ca":720,"Ġ__":721,"mport":722,"Ġexcept":723,"Complete":724,"ĠN":725,"tent":726,"ixo":727,"baixo":728,"Ġabaixo":729,"ĠimplementaÃ§Ã£o":730,"ĠĠĠĠĠĠĠĠĠĠĠĠĠĠĠĠĠĠĠ":731,"ĠW":732,"ssage":733,"Ġargument":734,"Ġwe":735,":`":736,"back":737,"Ġ|":738,"**":739,"ator":740,"onse":741,"ls":742,"Ġbo":743,"Ġtype":744,"Ġos":745,"led":746,"kw":747,".__":748,"Ġ>>>":749,"ary":750,"su":751,"ĠTrue":752,"ĠM":753,"mmand":754,"py":755,"Ġhas":756,"ĠThis":757,"val":758,"iven":759,"Ġ)":760,"True":761,"art":762,"Ġuse":763,"Equal":764,"lines":765,"wn":766,"ĠR":767,"Test":768,"Ġpas":769,"In":770,"uple":771,"atch":772,"info":773,"fun":774,"ĠFalse":775,"col":776,"Ġapp":777,"per":778,"sing":779,"Ġlen":780,"ken":781,"bo":782,"Ġexp":783,"'s":784,"append":785,"heck":786,"__(":787,"fix":788,"Ġheader":789,"Ġsys":790,"Ġcall":791,"ac":792,"Ġtime":793,"date":794,"ent":795,"():":796,"Ġspeci":797,"urrent":798,"Ġerror":799,"ĠReturn":800,"Ġgiven":801,"fig":802,"Ġused":803,"Ġshould":804,"ds":805,"assertEqual":806,"Ġbu":807,"ich":808,"umber":809,"ress":810,"cation":811,"ize":812,"attr":813,"init":814,"ĠV":815,"],":816,"ters":817,"Ġwhen":818,"ak":819,"data":820,"ĠB":821,"Ġle":822,"add":823,"Ġall":824,"coding":825,"ecimal":826,"ith":827,"ces":828,"ne":829,"ack":830,"link":831,"size":832,"Ġother":833,"])":834,"wa":835,"rame":836,"ab":837,"ron":838,"ind":839,"tive":840,"Ġsub":841,"iel":842,"--":843,"Ġrequest":844,"ning":845,"Ġcal":846,"ected":847,"ild":848,"iz":849,"Ġmodule":850,"Ġread":851,"Ġcode":852,"rint":853,"race":854,"string":855,"Ġimport":856,"pen":857,"tera":858,"sg":859,"rite":860,"Ġwhich":861,"inal":862,"sponse":863,"ave":864,"instance":865,"Ġcomp":866,"\":":867,"version":868,"tle":869,"ses":870,"yle":871,"Ġout":872,"Ġint":873,"Ġcontext":874,"ated":875,"Ġclass":876,"Ġchar":877,"ception":878,"::":879,"'t":880,"tribu":881,"lib":882,"tain":883,"Ġmessage":884,"module":885,"temp":886,"ci":887,"pla":888,"dex":889,"Ġca":890,"vent":891,"viron":892,"Ġx":893,"Ġla":894,"form":895,"ĠL":896,"header":897,"Ġ3":898,"Ġro":899,"lock":900,"ha":901,"Ġinstance":902,"lit":903,"ĠH":904,"False":905,"Ġcol":906,"andler":907,"default":908,"ĠEx":909,"ask":910,"from":911,"ren":912,"Ġac":913,"main":914,"Ġadd":915,"server":916,"Ġspecifi":917,"ener":918,"ream":919,"gth":920,"ork":921,"lable":922,"Ġnumber":923,"kwargs":924,"oki":925,"Ġdirect":926,"Ġcurrent":927,"Ġone":928,"Ġ>":929,"os":930,"Ġbut":931,"source":932,"Type":933,"Ġ**":934,"alueError":935,"oin":936,"Ġlog":937,"ic":938,"Ġwid":939,"Ġonly":940,"ĠĠĠĠĠ":941,"Ġrun":942,"ample":943,"ON":944,"Ġitem":945,"tern":946,"tin":947,"Ġassert":948,"with":949,"ari":950,"ulti":951,"Ġcheck":952,"Ġtuple":953,"Ġisinstance":954,"Ġz":955,"join":956,"lose":957,"]:":958,"lat":959,"Ġbytes":960,"lif":961,"Ġho":962,"ield":963,"ffer":964,"ĠIn":965,"by":966,"Ġmust":967,"roup":968,"place":969,"xtra":970,"uth":971,"Ġbool":972,"Ġurl":973,"pi":974,"irst":975,"tp":976,"Ġelif":977,"Ġend":978,"':":979,"Ġl":980,"Ġwhe":981,"Ġany":982,"not":983,"option":984,"Ġclas":985,"Ġuser":986,"ting":987,"Ġpass":988,"func":989,"fy":990,"cket":991,"reak":992,"arning":993,"Ġformat":994,"lic":995,"call":996,"Ġexception":997,"ER":998,"ĠG":999,"ckage":1000,"word":1001,"Ġoptional":1002,"Ġcontain":1003,"fe":1004,"Ġsupp":1005,"The":1006,"Ġdoes":1007,"Ġfirst":1008,"quire":1009,"ard":1010,"format":1011,"Ġmode":1012,"ef":1013,"sub":1014,"ĠValueError":1015,"valid":1016,"unt":1017,"Ġup":1018,"ny":1019,"Ġhave":1020,"Ġvalues":1021,"om":1022,"ved":1023,"ĠRe":1024,"Ġfo":1025,"Ġ`_":1026,"IN":1027,"=\"":1028,"doc":1029,"sig":1030,"='":1031,"'),":1032,"aise":1033,"ou":1034,"ments":1035,"cl":1036,"the":1037,"orted":1038,"Ex":1039,"Ġcreate":1040,"cor":1041,"Ġli":1042,"sition":1043,"den":1044,"context":1045,"Ġstart":1046,"tial":1047,"pdb":1048,"ine":1049,"item":1050,"ail":1051,"fter":1052,"wid":1053,"Ġmay":1054,"term":1055,"vel":1056,"Ġ('":1057,"ection":1058,"Ġparame":1059,"ĠĠĠĠĠĠ":1060,"Ġmax":1061,"exp":1062,"cur":1063,"Ġcommand":1064,"Ġcalled":1065,"Ġclasse":1066,"Ġcli":1067,"ĠCon":1068,"Ġwas":1069,"Ġreturned":1070,"use":1071,"().":1072,"tribute":1073,"âĶ":1074,"pace":1075,"uct":1076,"sole":1077,"Ġarguments":1078,"char":1079,"Ġfilename":1080,"lp":1081,"load":1082,"lay":1083,"indo":1084,"write":1085,"okie":1086,"mpty":1087,"terable":1088,"indow":1089,"request":1090,"Ġdoc":1091,"Ġresponse":1092,"[\"":1093,"split":1094,"return":1095,"yn":1096,"urtle":1097,"Ġargs":1098,"act":1099,"Ġj":1100,"state":1101,"latform":1102,"err":1103,"Ġlines":1104,"Ġprint":1105,"rap":1106,"comp":1107,"Pdb":1108,"Ġ[]":1109,"xy":1110,"Context":1111,"fore":1112,"ner":1113,"âĶĢ":1114,"Ġdirectory":1115,"Ġcase":1116,"TP":1117,"ST":1118,"ag":1119,"sent":1120,"Ġsource":1121,"nd":1122,"Ġencoding":1123,"Ġmatch":1124,"log":1125,"Ġserver":1126,"vo":1127,"'))":1128,"dict":1129,"rip":1130,"try":1131,"Ġcharac":1132,"Ġexpected":1133,"quen":1134,"Ġover":1135,"sys":1136,"obj":1137,"Ġtoken":1138,"']":1139,"nection":1140,"Decimal":1141,"cli":1142,"arget":1143,"Ġval":1144,"//":1145,"Ġ''":1146,"ull":1147,"Ġstyle":1148,"Ġnames":1149,"lease":1150,"['":1151,"method":1152,"Ġinto":1153,"ght":1154,"dent":1155,"move":1156,"Ġdict":1157,"icode":1158,"Ġ4":1159,"Ġusing":1160,"Ġspecified":1161,"cre":1162,"ant":1163,"âĶĢâĶĢ":1164,"scri":1165,"command":1166,"Ġreturns":1167,"Ġdist":1168,"color":1169,"Ġconfig":1170,"ans":1171,"Ġcontent":1172,"its":1173,"Ġab":1174,"ĠDecimal":1175,"lob":1176,"pr":1177,"ste":1178,"Ġreg":1179,"loat":1180,"process":1181,"RE":1182,"dout":1183,"aises":1184,"ote":1185,"arg":1186,"nore":1187,"ĠReturns":1188,"arch":1189,"Ġopen":1190,"ME":1191,"filename":1192,"Ġthread":1193,"ptional":1194,"Ġthen":1195,"til":1196,"anged":1197,"ual":1198,"sure":1199,"bug":1200,"10":1201,"unk":1202,"Ġsame":1203,"ormal":1204,"wise":1205,"ee":1206,"ĠTest":1207,"Ġback":1208,"cache":1209,"ribution":1210,"run":1211,"Ġyield":1212,"Ġ!":1213,"efault":1214,"cate":1215,"ext":1216,"ĠĠĠĠĠĠĠĠĠĠĠĠĠĠĠĠĠĠĠĠĠĠĠĠ":1217,"Ġoutput":1218,"Ġsize":1219,"width":1220,"Ġcor":1221,"ach":1222,"config":1223,"Ġ+=":1224,"Ġig":1225,"Ġqu":1226,"())":1227,"Ġ!=":1228,"trace":1229,"direct":1230,"Ġoptions":1231,"Ġevent":1232,"cls":1233,"ign":1234,"frame":1235,"rapp":1236,"Ġk":1237,"Ġbreak":1238,"Ġmsg":1239,"If":1240,"LE":1241,"token":1242,"ute":1243,"TTP":1244,"TE":1245,"start":1246,"Ġvari":1247,"Ġallow":1248,"SI":1249,"com":1250,"Ġ@":1251,"(),":1252,"tended":1253,"ap":1254,"check":1255,"OR":1256,"Ġstream":1257,"Ġbase":1258,"Ġexist":1259,"Par":1260,"clu":1261,"Ġnon":1262,"foo":1263,"adata":1264,"user":1265,"RL":1266,"Ġits":1267,"yp":1268,"new":1269,"exception":1270,"Di":1271,"Ġfol":1272,"ree":1273,"tinue":1274,"Ġ--":1275,"\"]":1276,"Ġwhile":1277,"tro":1278,"****":1279,"``.":1280,"Ġcls":1281,"ath":1282,"Ġstate":1283,"sign":1284,"close":1285,"ined":1286,"host":1287,"ĠDefault":1288,"ew":1289,"var":1290,"ark":1291,"Ġ/":1292,"Ġprovi":1293,"utf":1294,"Ġenviron":1295,"point":1296,"Raises":1297,"im":1298,"mation":1299,"gh":1300,"iter":1301,"Ġframe":1302,"Ġturtle":1303,"Ġinter":1304,"ay":1305,"map":1306,"ft":1307,"ĠĠĠĠĠĠĠĠĠĠĠĠĠĠĠĠĠĠĠĠĠĠĠ":1308,"Ġlast":1309,"message":1310,"igh":1311,"function":1312,"Ġpos":1313,"inter":1314,"Ġprocess":1315,"Ġfla":1316,"linen":1317,"late":1318,"length":1319,"Ġafter":1320,"parse":1321,"content":1322,"Ġ..":1323,"File":1324,"Ġempty":1325,"abc":1326,"struct":1327,"ight":1328,"Un":1329,"md":1330,"Ġhost":1331,"Ġnext":1332,"ume":1333,"work":1334,"ity":1335,"ati":1336,"Ġcolor":1337,"changed":1338,"ager":1339,"vert":1340,"lect":1341,"This":1342,"mit":1343,"En":1344,"rgs":1345,"splay":1346,"dist":1347,"Any":1348,"Ġman":1349,"wait":1350,"ub":1351,"tadata":1352,"og":1353,"ill":1354,"has":1355,"lean":1356,"ternal":1357,"quence":1358,"Ġextra":1359,"Ġsign":1360,"Ġthere":1361,"prefix":1362,"Ġmulti":1363,"fla":1364,"Ġrec":1365,"Ġper":1366,"[:":1367,"Ġrange":1368,"ffe":1369,"Ġprefix":1370,"other":1371,"object":1372,"ĠType":1373,"style":1374,"Ġexec":1375,"Ġwidget":1376,"Ġpackage":1377,"open":1378,"lineno":1379,"Res":1380,"root":1381,"Ġfound":1382,"Ġerrors":1383,"mpt":1384,"Ġpassed":1385,"Ġthan":1386,"Ġyou":1387,"mode":1388,"hen":1389,"max":1390,"lobal":1391,"Ġwidth":1392,"quirement":1393,"row":1394,"Ġindex":1395,"Ġht":1396,"ym":1397,"Ġinput":1398,"itial":1399,"index":1400,"Ġbefore":1401,"encode":1402,"Returns":1403,"ustom":1404,"Ġcache":1405,"kip":1406,"input":1407,"uto":1408,"ĠURL":1409,"Ġtimeout":1410,"msg":1411,"meth":1412,"round":1413,"assertRaises":1414,"ĠDefaults":1415,"result":1416,"Ġ8":1417,"spec":1418,"stead":1419,"bar":1420,"Ke":1421,"Ġblock":1422,"vai":1423,"ures":1424,"trol":1425,"formation":1426,"Ġparameter":1427,"Ġroot":1428,"derr":1429,"reg":1430,"ive":1431,"Ġfiles":1432,"Ġinst":1433,"vailable":1434,"ches":1435,"ĠOptional":1436,"ĠUn":1437,"MA":1438,"son":1439,"Ġtemp":1440,"response":1441,"names":1442,"Ġgener":1443,"ml":1444,"didate":1445,"Ġvi":1446,"Ġparent":1447,"level":1448,"Ġoper":1449,"Ġren":1450,"Ġhandle":1451,"bytes":1452,"Ġbuffer":1453,"Ġele":1454,"Ġsocket":1455,"environ":1456,"umn":1457,"Ġiter":1458,"'.":1459,"encoding":1460,"Ġwork":1461,"decode":1462,"headers":1463,"ync":1464,"Ġ\"\"":1465,"pos":1466,"\".":1467,"ET":1468,"wo":1469,"Ġtrace":1470,"Get":1471,"://":1472,"TI":1473,"gest":1474,"ating":1475,"ous":1476,"Ġmem":1477,"sible":1478,"'\\":1479,"ĠOS":1480,"ĠExtended":1481,"ody":1482,"ld":1483,"match":1484,"ton":1485,"lear":1486,"IO":1487,"replace":1488,"we":1489,"are":1490,"teger":1491,"ĠCo":1492,"ies":1493,"Ġvalid":1494,"ging":1495,"Ġparser":1496,"Ġvariable":1497,"ĠExtendedContext":1498,"EN":1499,"print":1500,"group":1501,"ga":1502,"ify":1503,"base":1504,"fd":1505,"Ġsh":1506,"dera":1507,"Ġposition":1508,"ite":1509,"doctest":1510,"ime":1511,"output":1512,"ong":1513,"Ġhelp":1514,"rc":1515,"ctionary":1516,"local":1517,"ponse":1518,"Ġheaders":1519,"Ġpdb":1520,"count":1521,"Ġtarget":1522,"Ġattribute":1523,"Ġoff":1524,"ĠFor":1525,"ready":1526,"derable":1527,"win":1528,"ĠTypeError":1529,"Name":1530,"gment":1531,"Ġlink":1532,"Ġinstead":1533,"lication":1534,"ake":1535,"buffer":1536,"ers":1537,"alled":1538,"Ġtask":1539,"Ġhandler":1540,"find":1541,"utable":1542,"options":1543,"Ġfinal":1544,"(_":1545,"Ġcontinue":1546,"tk":1547,"strip":1548,"Ġinformation":1549,"can":1550,"Ġerr":1551,"ps":1552,"present":1553,"Ġaddress":1554,"Key":1555,"Ġignore":1556,"Ġorig":1557,"inst":1558,"Ġlength":1559,"Ġ5":1560,"du":1561,"min":1562,"create":1563,"ither":1564,"tocol":1565,"Ġhttp":1566,"Ġremo":1567,"bin":1568,"dition":1569,"ion":1570,"Ġzip":1571,"Ġwhere":1572,"Ġfollow":1573,"Ġversionchanged":1574,"sh":1575,"Ġmore":1576,"exc":1577,"arnings":1578,"release":1579,"Ġobjects":1580,"Ġcom":1581,"Ġexc":1582,"port":1583,"Ġobj":1584,"Ġeach":1585,"ful":1586,"be":1587,"Ġmin":1588,"Ġcharacters":1589,"Ġalso":1590,"12":1591,"sage":1592,"stdout":1593,"of":1594,"ero":1595,"FF":1596,"des":1597,"Ġmake":1598,"Ġ{}":1599,"Ġorder":1600,"ĠSee":1601,"copy":1602,"ple":1603,"like":1604,"Ġconnection":1605,"Ġct":1606,"Request":1607,"'):":1608,"sor":1609,"ingle":1610,"pas":1611,"ister":1612,"DE":1613,"Ġtyp":1614,"next":1615,"speci":1616,"exec":1617,"nown":1618,"Ġwithout":1619,".\"":1620,"Ġavailable":1621,"tributes":1622,"ref":1623,"Ġfail":1624,"Pro":1625,"``,":1626,"99":1627,"Ġctx":1628,"Ġraised":1629,"indows":1630,"Ġneed":1631,"Ġ'''":1632,"Ġrepresent":1633,"creen":1634,"afe":1635,"uture":1636,"uper":1637,"Ġbuil":1638,"ways":1639,"Ġtrue":1640,"added":1641,"down":1642,"Ġtwo":1643,"Ġrequi":1644,"package":1645,"tension":1646,"Ġsingle":1647,"Ġbeen":1648,"Ġexample":1649,"ĠX":1650,"Ġsome":1651,"ized":1652,"izer":1653,"ssion":1654,"Ġstrings":1655,"Ġlike":1656,"tifi":1657,"repr":1658,"Ġti":1659,"Ġlocal":1660,"sue":1661,"tuple":1662,"Ġ.":1663,"ler":1664,"Ġfloat":1665,"Ġwri":1666,"Ġinteger":1667,"Ġchange":1668,"Ġlogger":1669,"side":1670,"expected":1671,"Ġalready":1672,"http":1673,"ang":1674,"Ġcookie":1675,"ĠIt":1676,"Ġwa":1677,"ax":1678,"Ġcomple":1679,"ear":1680,"Ġdictionary":1681,"arts":1682,"coded":1683,"Ġop":1684,"atus":1685,"Ġdisplay":1686,"Ġdescri":1687,"Ġindi":1688,"SL":1689,"ighli":1690,"([":1691,"ery":1692,"Ġimplementation":1693,"Ġinclu":1694,"Set":1695,"top":1696,"Ġcur":1697,"Ġotherwise":1698,"Ġsecon":1699,"ĠIP":1700,"mage":1701,"feren":1702,"IP":1703,"ush":1704,"req":1705,"thread":1706,"('-":1707,"Ġwrite":1708,"Ġ]":1709,"items":1710,"ymlink":1711,"TH":1712,"ĠJ":1713,"----":1714,"Ġdistribution":1715,"eca":1716,"Ġloop":1717,"CO":1718,"]>":1719,"Ġeven":1720,"Ġparse":1721,"Ġitems":1722,"rec":1723,"attern":1724,"Ġchild":1725,"Ġenvironment":1726,"Ġunder":1727,"click":1728,"handler":1729,"(*":1730,"sable":1731,"ints":1732,"Lo":1733,"update":1734,"eco":1735,"Ġcopy":1736,"Ġid":1737,"Ġcallback":1738,"stream":1739,"Ġwrapp":1740,"Ġclient":1741,"Ġthey":1742,"zip":1743,"Ġterm":1744,"64":1745,"Ġgroup":1746,"AD":1747,"Ġsee":1748,"FC":1749,"Ġbin":1750,"\"{":1751,"fied":1752,"ep":1753,"Ġfunc":1754,"dit":1755,"issing":1756,"Ġiterable":1757,"Ġport":1758,"cally":1759,"Exception":1760,"exist":1761,"dd":1762,"event":1763,"mod":1764,"Ġbyte":1765,"handle":1766,"Ġact":1767,"Ġtra":1768,"Ġsche":1769,"box":1770,"Ġstack":1771,"address":1772,"RO":1773,"ĠHTTP":1774,"hes":1775,"Ġversionadded":1776,"\\\\":1777,"cated":1778,"Ġreplace":1779,"Ġsystem":1780,"Ġentry":1781,"Ġrecord":1782,"only":1783,"AL":1784,"if":1785,"Ġgetattr":1786,"ular":1787,"Dict":1788,"Path":1789,"sha":1790,"Ġmark":1791,"Ġprovided":1792,"ert":1793,"Ġparam":1794,"off":1795,"bel":1796,"sho":1797,"ffix":1798,"irs":1799,"typ":1800,"values":1801,"Ġsupport":1802,"pping":1803,"ili":1804,"cept":1805,"Ġnamed":1806,"Ġcontaining":1807,"Ġmethods":1808,"help":1809,"tyle":1810,"build":1811,"lection":1812,"Ġpad":1813,"ates":1814,"andard":1815,"timeout":1816,"lete":1817,"make":1818,"Ġsequence":1819,"Ġdiffe":1820,"Ġ>=":1821,"((":1822,"AR":1823,"utton":1824,"Ġmetadata":1825,"Ġsuper":1826,"keys":1827,"iled":1828,"Ġ*,":1829,"ancel":1830,"Ġparameters":1831,"ĠOSError":1832,"Ġclose":1833,"Ġpy":1834,"Ġdecor":1835,"Ġresol":1836,"Not":1837,"St":1838,"env":1839,"Ġauth":1840,"Ġeither":1841,"Ġactual":1842,"Ġfind":1843,"tag":1844,"pped":1845,"raw":1846,"Ġwhether":1847,"platform":1848,"ast":1849,"âĶĢâĶĢâĶĢâĶĢ":1850,"pack":1851,"].":1852,"da":1853,"war":1854,"ersion":1855,"exit":1856,"ecause":1857,"Python":1858,"[-":1859,"auth":1860,"right":1861,"Ġoffset":1862,"ML":1863,"current":1864,"Ġglobal":1865,"ground":1866,"Ġfil":1867,"Ġtag":1868,"atches":1869,"modules":1870,"32":1871,"ound":1872,"aster":1873,"Ġdebug":1874,"Ġsha":1875,"ĠĠĠĠĠĠĠĠĠ":1876,"table":1877,"pass":1878,"errors":1879,"Ġinfo":1880,"ĠArgs":1881,"raise":1882,"Ġchunk":1883,"Ġcharacter":1884,"Ġimp":1885,"Ġcallable":1886,"pri":1887,"Ġ10":1888,"Ġshow":1889,"gra":1890,"Ġclick":1891,"ighlight":1892,"Ġhasattr":1893,"]>(":1894,"bool":1895,"ĠWe":1896,"For":1897,"extra":1898,"}\"":1899,"ĠĠĠĠĠĠĠĠĠĠĠĠĠĠĠĠĠĠĠĠĠĠĠĠĠĠĠĠĠĠĠĠ":1900,"ĠRFC":1901,"mb":1902,"Ġjust":1903,"`,":1904,"sen":1905,"alog":1906,"Ġoriginal":1907,"multi":1908,"Ġbeing":1909,"01":1910,"Ġsection":1911,"Ġdoesn":1912,"Ġscheme":1913,"cted":1914,"Ġproxy":1915,"Ġapplication":1916,"ves":1917,"Ġbuild":1918,"cii":1919,"stra":1920,"stderr":1921,"supp":1922,"ĠAn":1923,"okies":1924,"Ġkwargs":1925,"sta":1926,"losed":1927,"Ġalways":1928,"11":1929,"Ġconsole":1930,"Ġdel":1931,"Ġensure":1932,"SON":1933,"imp":1934,"Ġtests":1935,"ns":1936,"SE":1937,"loc":1938,"Ġword":1939,"Ġcustom":1940,"fin":1941,"Ġ\\":1942,"FI":1943,"fil":1944,"Ġflag":1945,"Ġpi":1946,"api":1947,"range":1948,"send":1949,"Ġspec":1950,"Ġkeyword":1951,"Handler":1952,"ynt":1953,"Ġplatform":1954,"ries":1955,"\"):":1956,"UN":1957,"licy":1958,"gener":1959,"ject":1960,"tal":1961,"wh":1962,"socket":1963,"part":1964,"Ġdir":1965,"Ġ<=":1966,"eader":1967,"Ġass":1968,"ĠText":1969,"Ġuntil":1970,"25":1971,"yntax":1972,"oc":1973,"Ġpart":1974,"import":1975,"TION":1976,"ĠKey":1977,"fer":1978,"Ġsend":1979,"Ġpython":1980,"ide":1981,"Ġba":1982,"Ġdate":1983,"Ġbet":1984,"ĠEn":1985,"Create":1986,"Ġnormal":1987,"Ġinitial":1988,"hed":1989,"Ġattributes":1990,"16":1991,"ĠNot":1992,"Ġhash":1993,"ĠAt":1994,"Ġfinally":1995,"rary":1996,"sep":1997,"Ġauto":1998,"Ġtheme":1999,"ading":2000,"Ġ'\\":2001,"Response":2002,"hell":2003,"tered":2004,"AN":2005,"Ġscreen":2006,"lation":2007,"wer":2008,"std":2009,"Ġresource":2010,"ride":2011,"AC":2012,"old":2013,"bit":2014,"gments":2015,"}\")":2016,"lask":2017,"ched":2018,"lue":2019,"fir":2020,"exists":2021,"Ġnode":2022,"HTTP":2023,"Ġstop":2024,"ĠAny":2025,"Ġmember":2026,"Ġwait":2027,"Se":2028,"ore":2029,"Ġfull":2030,"Ġwarnings":2031,"gex":2032,"ĠSet":2033,"hook":2034,"Ġdefaults":2035,"********":2036,"Ġremoved":2037,"ature":2038,"Is":2039,"ving":2040,"ally":2041,"Ġreq":2042,"block":2043,"float":2044,"mem":2045,"rou":2046,"ould":2047,"Ġcount":2048,"Ġnet":2049,"voke":2050,"bili":2051,"Ġold":2052,":]":2053,"ctx":2054,"parent":2055,"Ġconn":2056,"flags":2057,"UT":2058,"json":2059,"Ġsepar":2060,"sock":2061,"imum":2062,"Ġmanager":2063,"Ġelement":2064,"starts":2065,"Ġform":2066,"ascii":2067,"Ġproper":2068,"lower":2069,"uration":2070,"Ġwould":2071,"ĠException":2072,"GI":2073,"Ġindent":2074,"complete":2075,"Ġlevel":2076,"Ġhere":2077,"Ġbody":2078,"Ġtotal":2079,"Ġflags":2080,"tra":2081,"ray":2082,"EP":2083,"UL":2084,"cmd":2085,"man":2086,"Ġadded":2087,"Ġdefined":2088,"parts":2089,"Ġlook":2090,"dirs":2091,"tail":2092,"files":2093,"Ġsock":2094,"Ġmultiple":2095,"less":2096,"normal":2097,"tring":2098,"ĠCheck":2099,"hash":2100,"fa":2101,"ĠIPv":2102,"Ġboth":2103,"conn":2104,"Ġbecause":2105,"Ġinvalid":2106,"ical":2107,"number":2108,"task":2109,"location":2110,"ĠRes":2111,"\"))":2112,"txt":2113,"resp":2114,"heme":2115,"pop":2116,"ZE":2117,"wrap":2118,"Ġ(\"":2119,"Ġcolumn":2120,"Ġfin":2121,"Ġcalls":2122,"Ġtypes":2123,"Ġoc":2124,"Ġresp":2125,"lative":2126,"preter":2127,"Ġstdout":2128,"ween":2129,"AME":2130,"ols":2131,"Ġrequests":2132,"})":2133,"},":2134,"stack":2135,"Ġ['":2136,"licit":2137,"Ġsupported":2138,"pare":2139,"Ġcreated":2140,"net":2141,"De":2142,"Ġupdate":2143,"actory":2144,"List":2145,"ain":2146,"mon":2147,"ĠDe":2148,"flag":2149,"proxy":2150,"aded":2151,"Ġmock":2152,"order":2153,"ations":2154,"ĠĠĠĠĠĠĠĠĠĠĠĠĠĠĠĠĠĠĠĠĠĠĠĠĠĠĠ":2155,"Ġprompt":2156,"Ġdon":2157,"Ġsuch":2158,"ends":2159,"Ġdomain":2160,"Ġsetting":2161,"debug":2162,"Ġreferen":2163,"Ġcannot":2164,"mt":2165,"oted":2166,"By":2167,"prompt":2168,"ĠGet":2169,"tributeError":2170,"break":2171,"scheme":2172,"ĠWhen":2173,"offset":2174,"Ġiden":2175,"ont":2176,"rict":2177,"ĠPy":2178,"domain":2179,"LS":2180,"ited":2181,"Ġscri":2182,"Ġwant":2183,"Ġsplit":2184,"ĠZ":2185,"ĠOther":2186,"Ġbetween":2187,"SC":2188,"Ġexit":2189,"tic":2190,"ields":2191,"vision":2192,"nel":2193,"template":2194,"remove":2195,"Ġpla":2196,"Content":2197,"ince":2198,"Ġsubclass":2199,"Ġcharset":2200,"AB":2201,"target":2202,")),":2203,"rough":2204,"rg":2205,"Ġbar":2206,"sitive":2207,"''":2208,"Ġpossible":2209,"allow":2210,"Ġss":2211,"Ġdecorator":2212,"Ġkw":2213,"Ġsearch":2214,"Case":2215,"Ġcandidate":2216,"Ġdocument":2217,"eded":2218,"gress":2219,"Ġ'-":2220,"Ġsignal":2221,"startswith":2222,"Ġmost":2223,"ID":2224,"callback":2225,"Ġdown":2226,"Ġcontains":2227,"Ġlocation":2228,"Ġconver":2229,"xies":2230,"Ġmaster":2231,"Ġ6":2232,"issue":2233,"parser":2234,"Ġparts":2235,"Ġspa":2236,"ĠNo":2237,"html":2238,"system":2239,"gg":2240,"Ġte":2241,"Ġmatches":2242,"symlink":2243,"orts":2244,"ssl":2245,"insert":2246,"loader":2247,"ĠPar":2248,"Ġrule":2249,"Hel":2250,"lper":2251,"Ġraw":2252,"Ġarch":2253,"fp":2254,"ling":2255,"lim":2256,"position":2257,"Ġdifferent":2258,"clear":2259,"Ġ7":2260,"Ġthem":2261,"lied":2262,"comple":2263,"Ġsuc":2264,"ĠJSON":2265,"Ġabs":2266,"No":2267,"ĠWS":2268,"ose":2269,"node":2270,"cale":2271,"Ġsecond":2272,"Ġbinary":2273,"sive":2274,"Check":2275,"Ġencoded":2276,"Ġrv":2277,"Ġpoint":2278,"XX":2279,"known":2280,"ank":2281,"sca":2282,"whe":2283,"ĠSe":2284,"Base":2285,"my":2286,"ry":2287,"0000":2288,"abs":2289,"void":2290,"Header":2291,"Ġmod":2292,"Ġkeys":2293,"ĠWindows":2294,"Ġimage":2295,"Ġpri":2296,"Ġmodi":2297,"directory":2298,"show":2299,"Args":2300,"Version":2301,"allback":2302,"params":2303,"Ġtop":2304,"AT":2305,"So":2306,"ek":2307,"Ġlineno":2308,"Ġpattern":2309,"Ġsession":2310,"Ġfunctions":2311,"Ġwindow":2312,"Ġinternal":2313,"esca":2314,"first":2315,"case":2316,"digest":2317,"ĠFile":2318,"Ġlimit":2319,"clas":2320,"ites":2321,"ution":2322,"section":2323,"cookie":2324,"ittest":2325,"Ġparsed":2326,"unicode":2327,"ĠUse":2328,"allable":2329,"lush":2330,"Ġsubprocess":2331,"Po":2332,"paths":2333,"quires":2334,"Ġlogging":2335,"orig":2336,"Ġref":2337,"Ġexceptions":2338,"NO":2339,"PE":2340,"vate":2341,"Parser":2342,"fg":2343,"imple":2344,"Info":2345,"io":2346,"Class":2347,"Ġcmd":2348,"Ġfield":2349,"Ġdecode":2350,"Ġbased":2351,"fail":2352,"Ġio":2353,"Ġever":2354,"Ġequal":2355,"Ġextension":2356,"Ġuses":2357,"Ġtitle":2358,"Ġbound":2359,"Ġrequirement":2360,"loop":2361,"gits":2362,"Ġtar":2363,"ĠĠĠĠĠĠĠĠĠĠĠĠ":2364,"Ġmon":2365,"Ġ'.":2366,"ĠPro":2367,"child":2368,"Ġconstruct":2369,"Ġremove":2370,"Ġpaths":2371,"Implemented":2372,"Ġ{\"":2373,"ĠRun":2374,"]]":2375,"Ġste":2376,"gative":2377,"Ġrequired":2378,"Deco":2379,"Ġzero":2380,"Ġcorrect":2381,"bs":2382,"Ġ&":2383,"Ġskip":2384,"Ġstandard":2385,"Ġcomm":2386,"stamp":2387,"Ġali":2388,"rid":2389,"ĠBase":2390,")):":2391,"Ġmatching":2392,"Found":2393,"over":2394,"indent":2395,"site":2396,"Ġenv":2397,"precated":2398,"Ġtraceback":2399,"Run":2400,"own":2401,"ug":2402,"ward":2403,"Ġsent":2404,"Ġdest":2405,"Ġscript":2406,"pture":2407,"Ġrunning":2408,"SSL":2409,"WS":2410,"ras":2411,"ĠNotImplemented":2412,"Ġresults":2413,"Ġcontents":2414,"ĠNote":2415,"akes":2416,"Ġoccur":2417,"orary":2418,"metadata":2419,"otal":2420,"patch":2421,"ĠSt":2422,"ĠOtherwise":2423,"entry":2424,"LI":2425,"Li":2426,"Ġext":2427,"cep":2428,":`~":2429,"Ġiterator":2430,"Ġattr":2431,"Ġconfiguration":2432,"Ġbeha":2433,"quote":2434,"TO":2435,"Ġthrough":2436,"Ġprotocol":2437,"Ġappro":2438,"DO":2439,"olean":2440,"andom":2441,"Ġload":2442,"addr":2443,"Ġrender":2444,"Ġpage":2445,"Ġfuture":2446,"assertIs":2447,"mock":2448,"ization":2449,"num":2450,"TypeError":2451,"Ġcontrol":2452,"ending":2453,"Ġrenderable":2454,"filter":2455,"Ġmissing":2456,"(\"/":2457,"Parse":2458,"ties":2459,"uring":2460,"ĠPath":2461,"vious":2462,"Ġwheel":2463,"xer":2464,"ĠY":2465,"Ġrest":2466,"Ġrece":2467,"types":2468,"Ġssl":2469,"Ġrow":2470,"ameter":2471,"Ġanother":2472,"mail":2473,"Ġnamespace":2474,"Ġcre":2475,"tend":2476,"quirements":2477,"bility":2478,"ĠList":2479,"ING":2480,"outine":2481,"emp":2482,"LO":2483,")))":2484,"15":2485,"Ġrepr":2486,"Ġallowed":2487,"ĠKeyError":2488,"itespace":2489,"echo":2490,"Ġtrans":2491,"rgument":2492,":\\":2493,"={":2494,"button":2495,"Ġfa":2496,"\"),":2497,"Ġheight":2498,"vari":2499,"Ġta":2500,"ĠCreate":2501,"teration":2502,"Ġlong":2503,"asic":2504,"async":2505,"essage":2506,"ret":2507,"Ġabout":2508,"ason":2509,"coder":2510,"Ġexact":2511,"Ġsuffix":2512,"TestCase":2513,"Ġrunner":2514,"ĠAttributeError":2515,"safe":2516,"classes":2517,"OS":2518,"stat":2519,"Ġrelative":2520,"pared":2521,"view":2522,"Option":2523,"ĠOn":2524,"ĠLo":2525,"after":2526,"Ġaction":2527,"fiel":2528,"\").":2529,"buf":2530,"Ġhttps":2531,"Ġbehavi":2532,"Ġns":2533,"leanup":2534,"wd":2535,"ately":2536,"most":2537,"Bytes":2538,"last":2539,"->":2540,"wrapp":2541,"Ġregister":2542,"ĠIterable":2543,"PRO":2544,"Ġunicode":2545,"Ġqueue":2546,"fs":2547,"ories":2548,"Ġvar":2549,"sigint":2550,"enti":2551,"chunk":2552,"rtype":2553,"spatch":2554,"Ġneeded":2555,"000":2556,"Ġhighlight":2557,"raph":2558,"Ġcursor":2559,"kg":2560,"Ġtheir":2561,"Ġpresent":2562,"Ġspecial":2563,"script":2564,"ĠWSGI":2565,"Ġexisting":2566,"total":2567,"warning":2568,"Ġaga":2569,"ĠStyle":2570,"uthor":2571,"gin":2572,"Ġraises":2573,"escape":2574,"__,":2575,"Ġappend":2576,"Ġonce":2577,"Invalid":2578,"Ġfilter":2579,"search":2580,"Ġlock":2581,"Console":2582,"Ġdoctest":2583,"Ġinstalled":2584,"ids":2585,"ĠMo":2586,"Ġleft":2587,"gn":2588,"Optional":2589,"flow":2590,"nan":2591,"Ġstderr":2592,"body":2593,"global":2594,"Ġke":2595,"stry":2596,"vars":2597,"Ġview":2598,"Ġinv":2599,"Ġevents":2600,"cy":2601,"OF":2602,"]):":2603,"Ġret":2604,"spect":2605,"ĠSp":2606,"Ġloader":2607,"Text":2608,"console":2609,"Ġmapping":2610,"vale":2611,"Ġexists":2612,"ditional":2613,"ell":2614,"Ġsorted":2615,"Ġwrap":2616,"Ġselect":2617,"cimal":2618,"Ġoperation":2619,"RI":2620,"tically":2621,"tokens":2622,"gram":2623,"face":2624,"Sp":2625,"wri":2626,"Ġremain":2627,"Ġlabel":2628,"22":2629,"opt":2630,"Ġq":2631,"invoke":2632,"Ġpip":2633,"tails":2634,"iling":2635,"Ġquery":2636,"lueprint":2637,"cle":2638,"cert":2639,"Ġfd":2640,"erver":2641,"Ġdone":2642,"Ġwithin":2643,"02":2644,"Ġfp":2645,"Ġstruct":2646,"Ġcompati":2647,"cording":2648,"Ġtokens":2649,"leg":2650,"chor":2651,"resource":2652,"olute":2653,"Ġbuf":2654,"Ġfollowing":2655,"Me":2656,"mark":2657,"our":2658,"Ġstatus":2659,"buil":2660,"respon":2661,"Ġmessages":2662,"Ġaccess":2663,"Ġsafe":2664,"cho":2665,"Ġcould":2666,"ĠTurtle":2667,"Ġnewline":2668,"Ġrelease":2669,"ĠDi":2670,"Ġattemp":2671,"ĠExample":2672,"full":2673,"lying":2674,"Ġarchive":2675,"Ġmain":2676,"duce":2677,"meta":2678,"Ġright":2679,"ĠNS":2680,"mbda":2681,")]":2682,"widget":2683,"50":2684,"FA":2685,"requires":2686,"Ġenable":2687,"ignore":2688,"mportError":2689,"Ġspecify":2690,"istry":2691,"__.":2692,"fic":2693,"Ġawait":2694,"II":2695,"med":2696,"Ġdialog":2697,"fn":2698,"Ġclear":2699,"mac":2700,"Ġpassword":2701,"ump":2702,"Ġvia":2703,"kze":2704,"secon":2705,"Ġ`__":2706,"Ġreadrc":2707,"Ġchanges":2708,"kzeug":2709,"String":2710,"ects":2711,"org":2712,"Ġredirect":2713,"stru":2714,"Ġwere":2715,"Ġhook":2716,"ĠContent":2717,"ensure":2718,"Ġurllib":2719,"Ġvariables":2720,"annel":2721,"uplic":2722,"Ġpara":2723,"chars":2724,"defaults":2725,"HE":2726,"page":2727,"bose":2728,"NAME":2729,"ĠFFF":2730,"Ġprevious":2731,"stract":2732,"ĠFFFD":2733,"Add":2734,"ĠSo":2735,"onent":2736,"timeError":2737,"nosigint":2738,">`.":2739,"Bu":2740,"Ġhand":2741,".\")":2742,"skip":2743,"connection":2744,"ĠĠĠĠĠĠĠĠĠĠĠĠĠĠĠĠĠĠĠĠ":2745,"Ġexplicit":2746,"PTION":2747,"cs":2748,"Ġaccep":2749,"Ġindicate":2750,"Mo":2751,"empty":2752,"sco":2753,"Ġcell":2754,"argument":2755,"Ġtable":2756,"Ġactive":2757,"logger":2758,"quences":2759,"Ġoperand":2760,"fol":2761,"mask":2762,"orter":2763,"display":2764,"42":2765,"del":2766,"atures":2767,"Ġ\"\\":2768,"Ġconvert":2769,"ĠAs":2770,"quivale":2771,"quivalent":2772,"SO":2773,"Ġdot":2774,"traceback":2775,"Unicode":2776,"Callable":2777,"Ġdigest":2778,"Ġfileinput":2779,"resh":2780,"Ġfoo":2781,"Dirs":2782,"Ġcorrespon":2783,"auto":2784,"Ġcer":2785,"Ġsince":2786,"Ġ'__":2787,"ished":2788,"Tests":2789,"Ġtemplate":2790,"nf":2791,"({":2792,"Ġdisable":2793,"used":2794,"xa":2795,"Ġtakes":2796,"Ġreference":2797,"=[":2798,"][":2799,"array":2800,"anti":2801,"Ġgo":2802,"ĠBy":2803,"symlinks":2804,"Gener":2805,"tions":2806,"usted":2807,"SIZE":2808,"record":2809,"ĠResponse":2810,"tten":2811,"Ġstill":2812,"ish":2813,"Ġduring":2814,"Ġasync":2815,"pression":2816,"Ġautoma":2817,"Ġdeterm":2818,"Ġrequires":2819,"\"\\":2820,"Warning":2821,"Ġtree":2822,"client":2823,"Ġinterpreter":2824,"Ġwrapper":2825,"cul":2826,"medi":2827,"convert":2828,"cessed":2829,"Ġjson":2830,"pad":2831,"invalid":2832,"Ġavoid":2833,"apping":2834,"Ġfields":2835,"perty":2836,"COL":2837,"SCII":2838,"ValueError":2839,"Ġisn":2840,"rial":2841,"supported":2842,"istribution":2843,"install":2844,"Ġcalling":2845,"penden":2846,"--------":2847,"}'":2848,"served":2849,"Ġelements":2850,"executable":2851,"sted":2852,"ash":2853,"six":2854,"lash":2855,"Ġdatetime":2856,"ABC":2857,"status":2858,"Ġclosed":2859,"annot":2860,"Ġwhat":2861,"Ġidentifi":2862,"Ġway":2863,"ything":2864,"Ġcomplete":2865,"compile":2866,"Decode":2867,"Ġour":2868,"Ġcookies":2869,"Ġbuiltin":2870,"Ġfra":2871,"Ġsen":2872,"Ġdep":2873,"Ġdeprecated":2874,"Ġsure":2875,"ĠRequest":2876,"Pre":2877,"cing":2878,"ived":2879,"left":2880,"Ġfill":2881,"tim":2882,"Ġreal":2883,"optional":2884,"Ġdocstring":2885,"dump":2886,"inner":2887,"Ġown":2888,"Ġenti":2889,"latformDirs":2890,"ĠNotImplementedError":2891,"ression":2892,"Ġmodules":2893,"register":2894,"30":2895,"PP":2896,"Up":2897,"upp":2898,"thing":2899,"ĠĠĠĠĠĠĠĠĠĠ":2900,"Ġtuples":2901,"ough":2902,"Ġoverride":2903,"CH":2904,"ww":2905,"Ġopt":2906,"ele":2907,"Input":2908,"candidate":2909,"Ġterminal":2910,"go":2911,"ansp":2912,"Ġstd":2913,"peed":2914,"Ġgot":2915,"expand":2916,"charset":2917,"BytesIO":2918,"20":2919,"Ad":2920,"Ġstep":2921,"PTIONS":2922,"DI":2923,"EL":2924,"Ġcho":2925,"ĠAl":2926,"Ġinvok":2927,"100":2928,"cancel":2929,"pid":2930,"spa":2931,"Ġusage":2932,"label":2933,"Ġnecess":2934,"Ġquote":2935,"xff":2936,"yload":2937,"onical":2938,"().__":2939,"column":2940,"Ġconstructor":2941,"App":2942,"fc":2943,"ystem":2944,"Ġthreads":2945,"Ġmemory":2946,"member":2947,"At":2948,"}:":2949,"utdown":2950,"olor":2951,"VER":2952,"uid":2953,"quee":2954,"apter":2955,"Ġbehavior":2956,"Read":2957,"ĠGener":2958,"TY":2959,"Ġthese":2960,"screen":2961,"Ġtrailing":2962,"Ġfe":2963,"Ġfalse":2964,"ordin":2965,"stdin":2966,"wheel":2967,"88":2968,"GET":2969,"bind":2970,"delete":2971,"Ġip":2972,"Ġmen":2973,"resol":2974,"Ġquoted":2975,"Ġdescription":2976,"Ġabsolute":2977,"lected":2978,"Ġ\".":2979,"Ġdirectly":2980,"TER":2981,"util":2982,"sets":2983,"Ġnum":2984,"Ġmap":2985,"Ġmail":2986,"Ġlay":2987,"âĶĢâĶĢâĶĢâĶĢâĶĢâĶĢâĶĢâĶĢ":2988,"rt":2989,"ĠAd":2990,"setting":2991,"istered":2992,"nored":2993,"Ġzipfile":2994,"</":2995,"her":2996,"unter":2997,"Ġissue":2998,"lap":2999,"theme":3000,"Ġworks":3001,"nor":3002,"rup":3003,"Ġtake":3004,"ĠImportError":3005,"ĠSSL":3006,"shape":3007,"post":3008,"datetime":3009,"Ġ12":3010,"Ġproxies":3011,"ptor":3012,"Ġunderlying":3013,"MP":3014,"Time":3015,"Ġ\"/":3016,"protocol":3017,"Ġrepresentation":3018,"Ġpadding":3019,"ĠRuntimeError":3020,"AG":3021,"warnings":3022,"rep":3023,"Ġmime":3024,"property":3025,"Ġleast":3026,"Ġendpoint":3027,"dered":3028,"Ġpop":3029,"helper":3030,"ĠTo":3031,"').":3032,"Ġwhitespace":3033,"tags":3034,"Ġ80":3035,"Ġshape":3036,"Ġappropri":3037,"Ġ):":3038,"Ġ\",":3039,"acy":3040,"Ġregular":3041,"14":3042,"19":3043,"aN":3044,"Ġcert":3045,"ĠPEP":3046,"extend":3047,"scape":3048,"TLS":3049,"Ġrandom":3050,"Ġverify":3051,"Ġaccording":3052,"rowser":3053,"tition":3054,"rich":3055,"Ġ'_":3056,"Ġ[\"":3057,"Ġgenerator":3058,"Ġtab":3059,"Requirement":3060,"okup":3061,"tificate":3062,"Ġwrapped":3063,"PI":3064,"tio":3065,"oken":3066,"warn":3067,"Ġinsert":3068,"Ġedit":3069,"assertIn":3070,"Ġtimes":3071,"packages":3072,"Ġdescriptor":3073,"As":3074,"cus":3075,"Ġrecur":3076,"rive":3077,"ested":3078,"exceptions":3079,"Style":3080,"seq":3081,"dev":3082,"roll":3083,"ansport":3084,"'])":3085,"tom":3086,"riple":3087,"Format":3088,"Ġevery":3089,"ki":3090,"ĠID":3091,"inity":3092,"Ġseconds":3093,"Ġautomatically":3094,"bly":3095,"finity":3096,"Ġrequirements":3097,"ĠEOF":3098,"Ġpolicy":3099,"Ġinclude":3100,"Message":3101,"Server":3102,"Ġtoo":3103,"Ġmean":3104,"ixin":3105,"platformdirs":3106,"Ġtags":3107,"mis":3108,"title":3109,"pauthor":3110,"example":3111,"extension":3112,"trans":3113,"rate":3114,"vide":3115,"Ġregistered":3116,"which":3117,"13":3118,"Doc":3119,"aris":3120,"uess":3121,"queue":3122,"continue":3123,"ENT":3124,"Ġpick":3125,"Ġnetloc":3126,"Ġmight":3127,"cookies":3128,"ics":3129,"Ġinstall":3130,"NotFound":3131,"sis":3132,"Ġ'%":3133,"Ġdirectories":3134,"connect":3135,"non":3136,"ULT":3137,"rule":3138,"ority":3139,"Ġtri":3140,"Ġspace":3141,"ameters":3142,"control":3143,"Ġreading":3144,"raceback":3145,"ily":3146,"Ġ'{":3147,"Ġsets":3148,"ressed":3149,"atic":3150,"mitted":3151,"distribution":3152,"Ch":3153,"ĠPre":3154,"gen":3155,"ick":3156,"Ġshell":3157,"ĠĠĠĠĠĠĠĠĠĠĠĠĠ":3158,"terator":3159,"ffect":3160,"Ren":3161,"even":3162,"orch":3163,"Ġinstances":3164,"Ġcommands":3165,"rier":3166,"ĠĠĠĠĠĠĠĠĠĠĠĠĠĠĠĠĠ":3167,"prepare":3168,"rge":3169,"Ġcapture":3170,"ĠLin":3171,"Ġsupplied":3172,"ffered":3173,"ĠXML":3174,"FAULT":3175,"04":3176,"ditable":3177,"Ġboolean":3178,"Ġaccept":3179,"Ġspecific":3180,"Ġdebugger":3181,"'re":3182,"To":3183,"day":3184,"valu":3185,"Ġcomment":3186,"Ġhandling":3187,"(-":3188,")[":3189,"Ġwho":3190,"Ġasyn":3191,"ĠSig":3192,"background":3193,"Ġplace":3194,"PlatformDirs":3195,"Ġsa":3196,"Ġsave":3197,"Ġhow":3198,"PlatformDirsABC":3199,"\"],":3200,"appname":3201,"bound":3202,"umeri":3203,"Ã©":3204,"Ġthose":3205,"enter":3206,"cesses":3207,"step":3208,"Ġignored":3209,"Ġcorresponding":3210,"lank":3211,"Ġmeta":3212,"Ġproject":3213,"Ġcases":3214,"Ġprovide":3215,"Ġfailed":3216,"Ġkeep":3217,"CF":3218,"Fin":3219,"diff":3220,"Ġdis":3221,"special":3222,"generator":3223,"edit":3224,"hread":3225,"Ġsegments":3226,"pool":3227,"Ġjoin":3228,"head":3229,"ado":3230,"appen":3231,"Conf":3232,"compare":3233,"Ġrepresenting":3234,"alk":3235,"tip":3236,"Ġbegin":3237,"BU":3238,"EC":3239,"EX":3240,"Ġlib":3241,"ĠĠĠĠĠĠĠĠĠĠĠĠĠĠ":3242,"__`":3243,"quested":3244,"Ġent":3245,"Ġitself":3246,"Ġ{'":3247,"Ġlexer":3248,"Ġclasses":3249,"FO":3250,"Ġcancel":3251,"Ġrep":3252,"Ġexpression":3253,"Ġunless":3254,"Ġsuccess":3255,"oci":3256,"tar":3257,"Ġfn":3258,"fier":3259,"Ġlon":3260,"Iterable":3261,"factory":3262,"Ġinspect":3263,"teral":3264,"vice":3265,"ĠUT":3266,"Ġexactly":3267,"Ġmailbox":3268,"src":3269,"Ġdetails":3270,"Ġtemporary":3271,"Ġassoci":3272,"struction":3273,"select":3274,"Ġ'/":3275,"Ġparsing":3276,"Ġcompile":3277,"words":3278,"33":3279,"IME":3280,"gith":3281,"iterable":3282,"long":3283,"stop":3284,"Ġwarning":3285,"Ġpairs":3286,"ĠAdd":3287,"points":3288,"Ġmaximum":3289,"namespace":3290,"wards":3291,"Segment":3292,"Ġlayout":3293,"arison":3294,"github":3295,"60":3296,"Ġ9":3297,"Ġequivalent":3298,"Ġans":3299,"contain":3300,"Ġuseful":3301,"pkg":3302,"Ġreset":3303,"unding":3304,"usr":3305,"byte":3306,"CE":3307,"PO":3308,"bad":3309,"space":3310,"Ġ}":3311,"utor":3312,"Ġda":3313,"Value":3314,"ĠQ":3315,":`.":3316,"zen":3317,"any":3318,"Ġtokenizer":3319,"Ġcached":3320,"Ġresolve":3321,"Ġappropriate":3322,"CK":3323,"Ã¡":3324,"tify":3325,"Ġuni":3326,"Ġwritten":3327,"Ġcommon":3328,"80":3329,"Log":3330,"bb":3331,"jor":3332,"height":3333,"Ġtesting":3334,"capi":3335,"ĠInst":3336,"ĠContext":3337,"Result":3338,"Data":3339,"Sub":3340,"lus":3341,"mes":3342,"comm":3343,"ĠRead":3344,"Ġcoroutine":3345,"closed":3346,"uation":3347,"allation":3348,"done":3349,"hostname":3350,"Ġmenu":3351,"ctive":3352,"separ":3353,"inel":3354,"dest":3355,"Ġencode":3356,"Ġlar":3357,"tools":3358,"Ġrather":3359,"=_":3360,"redirect":3361,"Ġfont":3362,"Ġreason":3363,"assertTrue":3364,"Ġversions":3365,"Ġcurrently":3366,"Ġformatter":3367,"Ġexecutable":3368,"Help":3369,"uted":3370,"uage":3371,"zer":3372,"requirement":3373,"Ġrepe":3374,"Ġselection":3375,"mmutable":3376,"Ġbuilt":3377,"Ġidle":3378,"password":3379,"Ġassume":3380,"Method":3381,"PC":3382,"Tr":3383,"Zip":3384,"reset":3385,"ilar":3386,"matches":3387,"Ġexpand":3388,"Ġbutton":3389,"crement":3390,"'{":3391,"custom":3392,"flush":3393,"Ġthing":3394,"rozen":3395,"ĠUnicode":3396,"Ġmonth":3397,"Multi":3398,"cc":3399,"seek":3400,"defined":3401,"configure":3402,"Ġcompleted":3403,"DecodeError":3404,"ATH":3405,"ets":3406,"uble":3407,"tect":3408,"chain":3409,"__)":3410,"Ġgu":3411,"Ġcompare":3412,"=\"/":3413,"Ġthreading":3414,"34":3415,"Ġpair":3416,"modi":3417,"Ġassociated":3418,"Frame":3419,"tests":3420,"verse":3421,"Ġnow":3422,"subprocess":3423,"****************":3424,"Group":3425,"SET":3426,"ative":3427,"cer":3428,"ali":3429,"Ġdigits":3430,"cio":3431,"ĠĠĠĠĠĠĠĠĠĠĠĠĠĠĠĠĠĠĠĠĠĠĠĠĠ":3432,"Ġinterface":3433,"bed":3434,"Ġreturning":3435,"Ġ\"__":3436,"\"])":3437,">`":3438,"NT":3439,"Ġstrict":3440,"amily":3441,"Ġdefin":3442,"Ġchanged":3443,"codes":3444,"paredRequest":3445,"SER":3446,"Ġsymlink":3447,"Ġ_,":3448,"Connection":3449,"ware":3450,"endswith":3451,"llo":3452,"dirname":3453,"Ġappear":3454,"Ġcaller":3455,"Ġwords":3456,"17":3457,"Ġtb":3458,"Ġsort":3459,"Ġ',":3460,"ĠStop":3461,"resses":3462,"errno":3463,"signal":3464,"manager":3465,"System":3466,"sample":3467,"ws":3468,"Ġtail":3469,"uri":3470,"Ġsite":3471,"Ġgi":3472,"Ġreceived":3473,"}.":3474,"Ġim":3475,"Comp":3476,"Ġallows":3477,"Iteration":3478,"SH":3479,"sort":3480,"asure":3481,"__()":3482,"Ġ100":3483,"ordinates":3484,"none":3485,"ored":3486,"Ġfallback":3487,"Ġblueprint":3488,"ĠInvalid":3489,"zone":3490,"Ġspecifies":3491,"subclass":3492,"imilar":3493,"registry":3494,"winapi":3495,"https":3496,"raises":3497,"jar":3498,"mor":3499,"Ġhappen":3500,"Ġnegative":3501,"Ġarqui":3502,"suffix":3503,"session":3504,"distro":3505,"bitrary":3506,"Ġseparator":3507,"children":3508,"future":3509,"gate":3510,"('\\":3511,"Ġprogress":3512,"teractive":3513,"SION":3514,"events":3515,"ph":3516,"strict":3517,"Ġ\"<":3518,"ĠĠĠĠĠĠĠĠĠĠĠĠĠĠĠĠĠĠĠĠĠĠ":3519,"readline":3520,"Ġunittest":3521,"Ġrecent":3522,"MAX":3523,"Ġnecessary":3524,"decimal":3525,"Ġbest":3526,"Ġadditional":3527,"mething":3528,"Ġspaces":3529,"builtin":3530,"tmp":3531,"ĠFlask":3532,"Ġcanonical":3533,"ĠUN":3534,"renderable":3535,"comment":3536,"locals":3537,"anguage":3538,"finished":3539,"Ġentries":3540,"ux":3541,"lice":3542,"Ġus":3543,"plain":3544,"INE":3545,"methods":3546,"Handle":3547,"Mixin":3548,"window":3549,"zero":3550,"Ġregex":3551,"unittest":3552,"ummy":3553,"Ġwell":3554,"loads":3555,"Ġconverted":3556,"pattern":3557,"Ġsimple":3558,"Ġsequences":3559,"Ġlocale":3560,"releases":3561,"Ġtarinfo":3562,"Ġcompatibility":3563,"tree":3564,"Ġmak":3565,"Ġnumbers":3566,"Ġbreakpoint":3567,"Ġgenerate":3568,"Ġcompletion":3569,"sensitive":3570,"With":3571,"remain":3572,"lex":3573,"Ġcnf":3574,"Ġsco":3575,"ĠPdb":3576,"Ġdelete":3577,"baz":3578,"Control":3579,"ĠRaise":3580,"ORD":3581,".')":3582,"IG":3583,"Jar":3584,"this":3585,"Construct":3586,"okieJar":3587,"Ġextract":3588,"Ġhandlers":3589,"24":3590,"UR":3591,"aa":3592,"tils":3593,"ecur":3594,"disable":3595,"pager":3596,"ĠOPTIONS":3597,"Inter":3598,"Ġless":3599,"Ġdistributions":3600,"Ġchildren":3601,"wrapper":3602,"PROTO":3603,"Py":3604,"Ġhead":3605,"Ġleg":3606,"TEST":3607,"specific":3608,"Ġcandidates":3609,"ĠSpeci":3610,"Ġcertificate":3611,"(?":3612,"Argument":3613,"gle":3614,"ms":3615,"Ġlin":3616,"store":3617,"Ġdele":3618,"venv":3619,"ĠĠĠĠĠĠĠĠĠĠĠĠĠĠĠĠĠĠĠĠĠĠĠĠĠĠĠĠĠĠĠ":3620,"Ġlower":3621,"Ac":3622,"ents":3623,"Ġ'<":3624,"Ġday":3625,"sgi":3626,"framework":3627,"Ġactually":3628,"Ġshared":3629,"Ġenabled":3630,"qa":3631,"Ġrel":3632,"ength":3633,"dispatch":3634,"verbose":3635,"etch":3636,"variable":3637,"IX":3638,"precation":3639,"Ġpool":3640,"cursor":3641,"Lib":3642,"Ġlonger":3643,"[[":3644,"egg":3645,"ĠK":3646,"rection":3647,"Ġstat":3648,"Ġdecoded":3649,"Ġenume":3650,"splitlines":3651,"Ġbackground":3652,"Ġknown":3653,"TML":3654,"Ġâ":3655,"Ġmeans":3656,"Ġaddr":3657,"Ġ\"\")":3658,"fields":3659,"'],":3660,"Ġ\"%":3661,"('/":3662,"Ġleading":3663,"rence":3664,"Ġproperly":3665,"rb":3666,"Ġ()":3667,"erify":3668,"Ġpost":3669,"Ġlambda":3670,"ĠHo":3671,"Ġmany":3672,"Ġpackages":3673,"SP":3674,"limit":3675,"sertion":3676,"Ġapply":3677,"Example":3678,"Ġbackend":3679,"simple":3680,"home":3681,"fileobj":3682,"ĠĠĠĠĠĠĠĠĠĠĠĠĠĠĠĠĠĠ":3683,"installed":3684,"Ġtermin":3685,"mediately":3686,").\"\"\"":3687,"TR":3688,"hex":3689,"Ġdt":3690,"Ġnoqa":3691,"ĠValue":3692,"render":3693,"Ġparams":3694,"Can":3695,"Man":3696,"Ġ//":3697,"itable":3698,"ĠApp":3699,"Ġprogram":3700,"Ġyear":3701,"ĠMe":3702,"Length":3703,"year":3704,"loaded":3705,"Ġarbitrary":3706,"cast":3707,"ĠMake":3708,"commands":3709,"ĠĠĠĠĠĠĠĠĠĠĠĠĠĠĠĠĠĠĠĠĠĠĠĠĠĠ":3710,"Ġimported":3711,"Ġagainst":3712,"Adapter":3713,"Call":3714,"null":3715,"Ġnever":3716,"setup":3717,"application":3718,"001":3719,"istory":3720,"ĠBu":3721,"Ġstarting":3722,"AND":3723,"Like":3724,"Def":3725,"ift":3726,"Ġtk":3727,"undo":3728,"digits":3729,"Ġdependen":3730,"Ġcomparison":3731,"Ġconfigure":3732,"runner":3733,"signed":3734,"Range":3735,"sum":3736,"see":3737,"standard":3738,"Ġescape":3739,"parameters":3740,"Ġgre":3741,"Environ":3742,"itialize":3743,"Dis":3744,"IT":3745,"ice":3746,"Ġbind":3747,"sit":3748,"setdefault":3749,"ases":3750,"atis":3751,"multiple":3752,"rupt":3753,"dle":3754,"git":3755,"Ġfut":3756,"until":3757,"Ġsep":3758,"quired":3759,"irt":3760,"ĠNO":3761,"Ġformatted":3762,"Ġexplicitly":3763,"ource":3764,"Ġfix":3765,"Ġincomplete":3766,"Ġanchor":3767,"Ġserial":3768,"now":3769,"Ġ25":3770,"ĠRaises":3771,"returns":3772,"should":3773,"Ġindicates":3774,"Down":3775,"vas":3776,"lies":3777,"ORMA":3778,"[:-":3779,"Ġmembers":3780,"Ġhigh":3781,"fill":3782,"ĠCF":3783,"Ġyour":3784,"Ġincluding":3785,"ULL":3786,"fra":3787,"Ġnumeri":3788,"Ġmu":3789,"Ġmove":3790,"ĠConsole":3791,"ĠComp":3792,"fully":3793,"FILE":3794,"Ġcreating":3795,"*.":3796,".)":3797,"]]:":3798,"when":3799,"Ġsyntax":3800,"ratio":3801,"ĠPo":3802,"Ġdst":3803,"ĠExp":3804,"formed":3805,"adap":3806,"Ġimportlib":3807,"MTP":3808,"gine":3809,"Ġput":3810,"Ġcondition":3811,"Ġlow":3812,"ĠĠĠĠĠĠĠĠĠĠĠĠĠĠĠĠĠĠĠĠĠĠĠĠĠĠĠĠ":3813,"Ġpositional":3814,"Ġlocals":3815,"mission":3816,"PIP":3817,"action":3818,"Ġfactory":3819,"ross":3820,"()``":3821,"Ġ'',":3822,"Ġ\"-":3823,"(\"\\":3824,"focus":3825,"Ġpositive":3826,"Ġcorrectly":3827,"second":3828,"resolve":3829,"tc":3830,"Ġ'')":3831,"Ġvirt":3832,"ĠEach":3833,"ĠMIME":3834,"Ġwriting":3835,"CON":3836,"Temp":3837,"utils":3838,"ĠTk":3839,"ĠAll":3840,"ĠColor":3841,"Ġstatement":3842,"Ġfails":3843,"PROTOCOL":3844,"tz":3845,"Ġ),":3846,"regex":3847,"Ġcy":3848,"losing":3849,"ĠĠĠĠĠĠĠĠĠĠĠĠĠĠĠĠĠĠĠĠĠ":3850,"Convert":3851,"clude":3852,"ATA":3853,"Tuple":3854,"unction":3855,"Ġstri":3856,"ĠPY":3857,"partition":3858,"ĠAPI":3859,"TestInput":3860,"Ġremote":3861,"DEFAULT":3862,"Mapping":3863,"mk":3864,"na":3865,"rstrip":3866,"arted":3867,"Ġrepo":3868,"cell":3869,"Ġstarts":3870,"Ġusername":3871,"Ġ42":3872,"Ġentire":3873,"ĠPdbTestInput":3874,"85":3875,"Ca":3876,"gory":3877,"Ã³":3878,"Ġtorch":3879,"()\"\"\"":3880,"Ġseq":3881,"ĠArgument":3882,"ĠOpen":3883,"Ġhashes":3884,"Ġsubclasses":3885,"Ġperform":3886,"binary":3887,"An":3888,"FN":3889,"Note":3890,"UE":3891,"Var":3892,"into":3893,"lots":3894,"ĠHel":3895,"sidered":3896,"Ġreplaced":3897,"Runner":3898,"Ġimmediately":3899,"ATE":3900,"image":3901,"oo":3902,"Ġanything":3903,"dim":3904,"channel":3905,"Ġcopi":3906,"ĠSub":3907,"project":3908,"Ġcau":3909,"ĠĠĠĠĠĠĠĠĠĠĠĠĠĠĠĠĠĠĠĠĠĠĠĠĠĠĠĠĠ":3910,"Loader":3911,"Ġmodify":3912,"TYPE":3913,"Module":3914,"Ġest":3915,"ĠTLS":3916,"Ġ-=":3917,"Ġcause":3918,">'":3919,"YY":3920,"remo":3921,"roy":3922,"Reg":3923,"parsed":3924,"bases":3925,"Ġpartial":3926,"tab":3927,"Ġruntime":3928,"Ġfolder":3929,"AS":3930,"HI":3931,"Ġreader":3932,"Ġrequested":3933,"iso":3934,"Ġconsidered":3935,"Source":3936,"queezer":3937,"23":3938,"89":3939,"On":3940,"dge":3941,"pip":3942,"orld":3943,"fici":3944,"Reader":3945,"span":3946,"proxies":3947,"Ġtimestamp":3948,"Ġcreates":3949,"Ġ('-":3950,"before":3951,"ACE":3952,"Renderable":3953,"When":3954,"ices":3955,"Ġnone":3956,"under":3957,"ged":3958,"quoted":3959,"Ġloaded":3960,"called":3961,"ĠConvert":3962,"charac":3963,"ORT":3964,"Ġstdin":3965,"/$":3966,"59":3967,"=['":3968,"Item":3969,"just":3970,"lict":3971,"sired":3972,"aming":3973,").__":3974,"eek":3975,"Ġworking":3976,"Process":3977,"Ġsettings":3978,"Al":3979,"tri":3980,"Ġcabc":3981,"Ġpr":3982,"roken":3983,"Ġsegment":3984,"idx":3985,"policy":3986,"Ġhelper":3987,"Ġsomething":3988,"menu":3989,"Ġnothing":3990,"calls":3991,"encoded":3992,"Ġglobals":3993,"ĠPyUnicode":3994,"limited":3995,"field":3996,"Ġenumerate":3997,"sequence":3998,"real":3999,"recur":4000,"Ġnargs":4001,"Ġemail":4002,"hether":4003,"ĠString":4004,"dings":4005,"arily":4006,"month":4007,"ĠMock":4008,"Ġrecursive":4009,")}":4010,".,":4011,"Screen":4012,"cure":4013,"cwd":4014,"equal":4015,"font":4016,"nb":4017,"vt":4018,"Ġ16":4019,"Ġhex":4020,"Ġinvoked":4021,"settings":4022,"ÃŃ":4023,"ors":4024,"Ġbad":4025,"ĠDE":4026,"opts":4027,"ĠBF":4028,"Ġchars":4029,"Exp":4030,"threads":4031,"werkzeug":4032,"Ġdocumentation":4033,"Buil":4034,"ĠUTF":4035,"Ġtre":4036,"cos":4037,"extract":4038,"Cli":4039,"Ġqui":4040,"Ġinner":4041,"ĠDoc":4042,"Ġsetup":4043,"Infinity":4044,"ĠVersion":4045,"Ġneeds":4046,"ĠStopIteration":4047,"Dec":4048,"gor":4049,"Ġbrowser":4050,"Ġinit":4051,"Ġdouble":4052,"negative":4053,"Ġspecifier":4054,"validate":4055,"environment":4056,"Ġshort":4057,"Ġmarker":4058,"Ġaccepts":4059,"cent":4060,"eg":4061,"fds":4062,"got":4063,"initial":4064,"urro":4065,"ĠCh":4066,"ithm":4067,"yntaxError":4068,"Ġagain":4069,"gu":4070,"lr":4071,"wsgi":4072,"tical":4073,"atched":4074,"ueue":4075,"__',":4076,"Ġselected":4077,"Ġdid":4078,"compress":4079,"normalize":4080,"IL":4081,"ait":4082,"orage":4083,"titem":4084,"ĠPO":4085,"ielded":4086,"Proxy":4087,"Ġfinder":4088,"Manager":4089,"alid":4090,"Ġ<<":4091,"Ġhostname":4092,"entication":4093,"Ġasyncio":4094,",))":4095,"Distribution":4096,"WW":4097,"tb":4098,"~~":4099,"Ġob":4100,"uting":4101,"etwork":4102,"tinuation":4103,"coro":4104,"Ġpipe":4105,"AX":4106,"LINE":4107,"ring":4108,"Ġbits":4109,"Ġforce":4110,"ĠSho":4111,"ĠDo":4112,"bove":4113,"Ġcodes":4114,"Encoding":4115,"angle":4116,"generate":4117,"issues":4118,"original":4119,"NotFoundError":4120,"SU":4121,"ess":4122,"ising":4123,"Ġdispatch":4124,"ĠCall":4125,"Ġnote":4126,"ĠName":4127,"coming":4128,"Ġtied":4129,"support":4130,"Ġreferences":4131,"ĠFFFDx":4132,"Ġidentifier":4133,"ZipFile":4134,"Rec":4135,"[_":4136,"ĠEnsure":4137,"See":4138,"Ġaround":4139,"delay":4140,"Ġcm":4141,"rag":4142,"ĠTcl":4143,"Ġsum":4144,"urllib":4145,"Ġprepare":4146,"Ġprovides":4147,"Ġfullname":4148,"Ġdestin":4149,"Open":4150,"serve":4151,"ĠThere":4152,"Command":4153,"Config":4154,"Ġweek":4155,"requests":4156,"returncode":4157,"Ġhandled":4158,"+'\\":4159,"OUT":4160,"cat":4161,"missing":4162,"Ġduplic":4163,"Ġdrive":4164,"query":4165,"parameter":4166,"Ġfileobj":4167,"ĠCli":4168,"ĠBo":4169,"Exit":4170,"ĠOnly":4171,"Ġtrig":4172,"precationWarning":4173,"66":4174,"Met":4175,"br":4176,"ition":4177,"ja":4178,"internal":4179,"Ġcfg":4180,"Ġbit":4181,"Ġspeed":4182,"Ġsuitable":4183,"agraph":4184,"Ġextras":4185,"herit":4186,"gr":4187,"pha":4188,"}{":4189,"Ġawa":4190,"enable":4191,"Ġesc":4192,"unded":4193,"Ġchain":4194,"Ġmac":4195,"Ġmade":4196,"kwds":4197,"pick":4198,"archive":4199,"Ensure":4200,"Ġfailure":4201,"Ġchunks":4202,"ĠParse":4203,"ParseError":4204,"sa":4205,"ottom":4206,"usage":4207,"Ġlists":4208,"Ġlater":4209,"works":4210,"Ġ\"\",":4211,"wever":4212,"Ġalias":4213,"separator":4214,"03":4215,"Line":4216,"ater":4217,"highlight":4218,"erkzeug":4219,"Ġnested":4220,"dialog":4221,"preters":4222,"Ġsupports":4223,"kipped":4224,"Col":4225,"sten":4226,"erm":4227,"getattr":4228,"ĠRen":4229,"collect":4230,"board":4231,"Ġexpect":4232,"groups":4233,"Ġbytearray":4234,"Ġproperty":4235,"Ġremaining":4236,"Environment":4237,"tty":4238,"onents":4239,"amin":4240,"ĠIterator":4241,"ĠASCII":4242,"(\"%":4243,"ĠLog":4244,"ĠHTML":4245,"Ġcollection":4246,"decodeutf":4247,"specified":4248,"Ġfragment":4249,"Ġmimetype":4250,"ĠidleConf":4251,"mortem":4252,"grid":4253,"xml":4254,"reader":4255,"Ġap":4256,"Ġside":4257,"ĠTime":4258,"lashes":4259,"Ġdiff":4260,"Ġpoints":4261,"libc":4262,"ĠUnion":4263,"Ġmarkup":4264,"Finder":4265,"gorithm":4266,"Event":4267,"KE":4268,"Ġobs":4269,"Ġbasic":4270,"chron":4271,"Ġum":4272,"logging":4273,"colorize":4274,"Ġtasks":4275,"Ġdisabled":4276,"65":4277,"iti":4278,"sq":4279,"that":4280,"Ġred":4281,"Ġsample":4282,"Ġpassing":4283,"compati":4284,"ypes":4285,"Start":4286,"HO":4287,"NaN":4288,"cfg":4289,"dt":4290,"vid":4291,"Ġtur":4292,"ĠTraceback":4293,"ĠPas":4294,"Inst":4295,"attrs":4296,"Ġstyles":4297,"READ":4298,"'''":4299,"Ġrules":4300,"Ġstructure":4301,"Ġnor":4302,"ante":4303,"Remove":4304,"Ġproduce":4305,"Ġ``\"":4306,"tach":4307,"progress":4308,"Ġready":4309,"argv":4310,"ually":4311,"running":4312,"Ġintegers":4313,"Ġdownload":4314,"Ali":4315,"Thread":4316,"bre":4317,"Ġclean":4318,"anchor":4319,"fication":4320,"Ġchecking":4321,"ublic":4322,"Stream":4323,"netloc":4324,"follow":4325,"Ġcycle":4326,"save":4327,"true":4328,"Ġblank":4329,"Ġsc":4330,"Ġedge":4331,"Ġconsu":4332,"0001":4333,"Ġcalcul":4334,"breakpoint":4335,"modified":4336,"SS":4337,"uff":4338,"attributes":4339,"Ġinside":4340,"ants":4341,"Ġexpo":4342,"quent":4343,"Ġpayload":4344,"Ġ[])":4345,"Ġfollowed":4346,"Options":4347,"Ġvars":4348,"Ġarquivo":4349,",)":4350,"Ġangle":4351,"Ġaddresses":4352,"curses":4353,"Ġhtml":4354,"ASCII":4355,"RPC":4356,"aving":4357,"flask":4358,"rfc":4359,"Ġabove":4360,"Ġetc":4361,"dicate":4362,"sibly":4363,"ĠNew":4364,"ĠYou":4365,"globals":4366,"(**":4367,"ED":4368,"editable":4369,"slots":4370,"xx":4371,"Ġpor":4372,"Ġsym":4373,"ntry":4374,"Ġusu":4375,"Ġguess":4376,"allRequirement":4377,"moj":4378,"tokenizer":4379,"Ġtempfile":4380,"TIME":4381,"\"'":4382,"From":4383,"Task":4384,"}\\":4385,"Ġrev":4386,"rop":4387,"Ġmid":4388,"Ġ[],":4389,"Ġprefer":4390,"Index":4391,"pipe":4392,"Ġoverflow":4393,"signatures":4394,"minator":4395,"shutdown":4396,"Ġconnect":4397,"Ġlookup":4398,"scale":4399,"Ġlegacy":4400,"OM":4401,"PY":4402,"slash":4403,"leep":4404,"Ġomitted":4405,"Ġstrip":4406,"change":4407,"teract":4408,"Ġwriter":4409,"Ġopts":4410,"Ġplatforms":4411,"marker":4412,"Ġdetermine":4413,"192":4414,"40":4415,"fold":4416,"ools":4417,"Ġstored":4418,"ctools":4419,"keypatch":4420,"strings":4421,"ĠRemove":4422,"Ġprocessing":4423,"[:]":4424,"Ġtear":4425,"Ġoccurs":4426,"Ġaccepted":4427,"Ġmakes":4428,"aminho":4429,"reason":4430,"lexer":4431,"aller":4432,"unpack":4433,"Ġhi":4434,"const":4435,"fileno":4436,"ĠDis":4437,"Ġreadline":4438,"cies":4439,"ĠHandle":4440,"signature":4441,"Ġattempt":4442,"Library":4443,"dot":4444,"Ãª":4445,"Ġflush":4446,"alt":4447,"ession":4448,"Ġglob":4449,"Ġ:=":4450,"oper":4451,"Ġyet":4452,"Ġcontainer":4453,"dar":4454,"stics":4455,"Ġegg":4456,"Ġ'--":4457,"pper":4458,"Ġconsi":4459,"exe":4460,"tials":4461,"999":4462,"Ġtell":4463,"ridden":4464,"asurement":4465,"Called":4466,"PATH":4467,"ZZ":4468,"sequent":4469,"\"\",":4470,"tity":4471,"Ġsimilar":4472,"ĠTh":4473,"Ġenc":4474,"ĠSkip":4475,"Ġweak":4476,"izing":4477,"cached":4478,"Ġinstanti":4479,"Ġincluded":4480,"Helper":4481,"where":4482,"Ġprivate":4483,"Ġpickle":4484,"ecurity":4485,"PIPE":4486,"ficient":4487,"nbsp":4488,"Ho":4489,"]))":4490,"cleanup":4491,"gre":4492,"walk":4493,"ansi":4494,"based":4495,"Ġprocessed":4496,"timestamp":4497,"latin":4498,"INFO":4499,"vocation":4500,"appauthor":4501,"Address":4502,"cating":4503,"final":4504,"tell":4505,"descri":4506,"div":4507,"ĠTuple":4508,"condition":4509,"ĠNormal":4510,"izes":4511,"MAC":4512,"Ġbarrier":4513,"seconds":4514,"FL":4515,"RA":4516,"cf":4517,"fmt":4518,"turtle":4519,"Ġdelay":4520,"ixel":4521,"using":4522,"hooks":4523,"UTF":4524,"ĠZip":4525,"Timeout":4526,"alias":4527,"TESTFN":4528,"SPACE":4529,"rest":4530,"strap":4531,"lement":4532,"Ġrea":4533,"Ġsile":4534,"coun":4535,"ulate":4536,"otstrap":4537,"isdir":4538,"Ġconst":4539,"vers":4540,"verify":4541,"ĠSimple":4542,"without":4543,"processing":4544,"Ġgenerated":4545,"ĠXXX":4546,"Ġextensions":4547,"override":4548,"folder":4549,"67":4550,"BT":4551,"Find":4552,"Le":4553,"hand":4554,"arante":4555,"Ġwar":4556,"ĠTask":4557,"Ġcontro":4558,"Ġpack":4559,"coroutine":4560,"Ġkind":4561,"interpreter":4562,"Ġbuffering":4563,"www":4564,"Ġwhose":4565,"Term":4566,"mall":4567,"mtime":4568,"mime":4569,"windows":4570,"Ġ^":4571,"selection":4572,"Ġpen":4573,"payload":4574,"Ġdisc":4575,"Ġdecimal":4576,"exact":4577,"fork":4578,"posix":4579,"ĠDistribution":4580,"ĠOption":4581,"ipv":4582,"Ġlanguage":4583,"foreground":4584,"Ġexecuted":4585,"Ġconnections":4586,"Ġresolution":4587,"Ġdebugging":4588,"Ġresources":4589,"origin":4590,"29":4591,"Qu":4592,"hmac":4593,"Ġcate":4594,"Ġconversion":4595,"irc":4596,"Ġchecks":4597,"ĠCookieJar":4598,"track":4599,"Ġspam":4600,"completion":4601,"Ġscope":4602,"channels":4603,"moji":4604,"dst":4605,"ines":4606,"static":4607,"tivate":4608,"Ġannot":4609,"ctype":4610,"Ġcoordinates":4611,"lambda":4612,"Ġconf":4613,"ĠAB":4614,"Ġproble":4615,"ĠOver":4616,"ĠMy":4617,"State":4618,"Socket":4619,"\"}":4620,"MO":4621,"QU":4622,"Ġfall":4623,"Ġreport":4624,"Ġsimp":4625,"Ġutil":4626,"Ġupper":4627,"Ġord":4628,"nominator":4629,"Ġalgorithm":4630,"Ġ20":4631,"ĠIndex":4632,"Ġexecution":4633,"handlers":4634,"Mock":4635,")(":4636,"CT":4637,"eq":4638,"ceed":4639,"Ġmerge":4640,"found":4641,"ĠFBT":4642,"Ġopened":4643,"model":4644,"Ġidx":4645,"finite":4646,"Ġseparate":4647,">\"":4648,"Oper":4649,"USE":4650,"Wrapp":4651,"Ġ~":4652,"ĠError":4653,"inion":4654,"ĠCan":4655,"dom":4656,"Ġspan":4657,"execute":4658,"lapsed":4659,"77":4660,"CI":4661,"cb":4662,"mro":4663,"dec":4664,"route":4665,"paces":4666,"Ġdelim":4667,"ĠWerkzeug":4668,"Ġlet":4669,"Ġcomponent":4670,"subtype":4671,"Ġvarious":4672,"SIG":4673,"Ġfailures":4674,"dumps":4675,"element":4676,"Ġunique":4677,"Ġescap":4678,"rev":4679,"urpo":4680,"Ġmy":4681,"ĠCa":4682,"prog":4683,"username":4684,"Direct":4685,"Division":4686,"Ġ]):":4687,"Ġtrack":4688,"ticular":4689,"Ġcompatible":4690,"contains":4691,"Defect":4692,"Ġnumeric":4693,">.":4694,"await":4695,"available":4696,"ond":4697,"sem":4698,"atom":4699,"attribute":4700,"locale":4701,"Ġ((":4702,"ĠIN":4703,"Internal":4704,"Theme":4705,"Ġliteral":4706,"Ġ/,":4707,"ĠUnix":4708,"Ġmeaning":4709,"Operation":4710,"AF":4711,"NU":4712,"Network":4713,"basic":4714,"uter":4715,"paren":4716,"idle":4717,"ĠFind":4718,"active":4719,"subTest":4720,"dentials":4721,"description":4722,"Wrapper":4723,"hide":4724,"segments":4725,"alle":4726,"Ġrevision":4727,"Ġpatch":4728,"uni":4729,"ĠTO":4730,"Ġcounter":4731,"Ġdirection":4732,"Ġraising":4733,"force":4734,"Ġ``'":4735,"Ġbox":4736,"Ġexponent":4737,"cion":4738,"stateful":4739,"Ġ''.":4740,"ĠFormat":4741,"Debug":4742,".\\":4743,"Rule":4744,"ared":4745,"Ġiteration":4746,"Ġcleanup":4747,"defects":4748,"utc":4749,"Ġ\"_":4750,"Ġconstra":4751,"Ġseen":4752,"mplementation":4753,"Ġgets":4754,"Ġprece":4755,"Ġ32":4756,"Ġchecked":4757,"iteral":4758,"interp":4759,"Ġstacklevel":4760,"memory":4761,"Accept":4762,"sertionError":4763,"remote":4764,".\",":4765,"Raise":4766,"]],":4767,"}')":4768,"Ġthree":4769,"eri":4770,"lices":4771,"ĠToken":4772,"Ġpathname":4773,"ĠNULL":4774,"Ġappname":4775,"Ġusers":4776,"Ġsignature":4777,"ference":4778,"reqs":4779,"mary":4780,"ni":4781,"}\",":4782,"utput":4783,"()`":4784,"Ġends":4785,"mplemented":4786,"Ġaltern":4787,"unknown":4788,"SIX":4789,"zipfile":4790,"ARD":4791,"ĠDeprecationWarning":4792,"fullname":4793,"Trans":4794,"cv":4795,"rp":4796,"Ġable":4797,"Ġpid":4798,"Ġsw":4799,"Ġetag":4800,"unch":4801,"Ġfilesystem":4802,"Ġtransport":4803,"sitional":4804,"Ġoverridden":4805,"MENT":4806,"SIS":4807,"ĠEnable":4808,"tasks":4809,")``":4810,"emon":4811,"retry":4812,"Ġinvoke":4813,"roid":4814,"ĠSMTP":4815,"ĠThese":4816,"Ġtrun":4817,"provi":4818,"Ġrounding":4819,"pically":4820,"ĠGiven":4821,"extras":4822,"Ġvisible":4823,"END":4824,"Ġreplacement":4825,"Ġnetwork":4826,"HEAD":4827,"candidates":4828,"sistent":4829,"Ġguarante":4830,"OP":4831,"Ġreserved":4832,"Ġwon":4833,"Ġevt":4834,"Ġdue":4835,"getvalue":4836,"fies":4837,"poly":4838,"note":4839,"Ġoutside":4840,"formatter":4841,"ĠReg":4842,"ĠStream":4843,"ĠDict":4844,"Ġdetermined":4845,"extensions":4846,"MultiDict":4847,"Ġdeleted":4848,":%":4849,"integer":4850,"ori":4851,"rase":4852,"__.__":4853,"Ġmajor":4854,"Ġregion":4855,"ĠĠĠĠĠĠĠĠĠĠĠĠĠĠĠĠĠĠĠĠĠĠĠĠĠĠĠĠĠĠ":4856,"rows":4857,"ĠCommand":4858,"Ġfilters":4859,"spam":4860,"Ġlarge":4861,"Ġcontrols":4862,"86":4863,"=(":4864,"aw":4865,"gcolor":4866,"ence":4867,"Ġsrc":4868,"Ġheading":4869,"capture":4870,"ĠNumber":4871,"ĠMapping":4872,"Ġdistro":4873,"Ġjustify":4874,"Ġtakefocus":4875,"ĠLink":4876,"disabled":4877,"Ġvirtual":4878,"SPE":4879,"glob":4880,"oring":4881,"Ġrequire":4882,"Ġbpo":4883,"Ġbelow":4884,"Ġdisp":4885,"Ġcanvas":4886,"terminal":4887,"contents":4888,"Ġhandles":4889,"Pool":4890,"Ġattrs":4891,"editwin":4892,"Ġbeginning":4893,"Auth":4894,"Verify":4895,"best":4896,"otes":4897,"Ġdump":4898,"idget":4899,"(\"--":4900,"ĠCustom":4901,"tack":4902,"classmethod":4903,"Ġunchanged":4904,"ĠExtra":4905,"Ġround":4906,"layout":4907,"Ġblocks":4908,"basename":4909,"Ġlinks":4910,"ighligh":4911,"rawing":4912,"HeaderParseError":4913,"DIR":4914,"ĠGenerator":4915,"Logger":4916,")\"\"\"":4917,"31":4918,"75":4919,"ailed":4920,"Ġmask":4921,"Ref":4922,"idden":4923,"Ġpager":4924,"scroll":4925,"endpoint":4926,"recv":4927,"ĠAssertionError":4928,"Extra":4929,"Wri":4930,"ever":4931,"tls":4932,"inja":4933,"Ġcatch":4934,"Ġbeco":4935,"Ġsig":4936,"Ġcompute":4937,"cision":4938,"Parameter":4939,"Ġbytecode":4940,"Ġindentation":4941,"Ġlabels":4942,"score":4943,"upper":4944,"Ġappauthor":4945,"ircular":4946,"Su":4947,"ased":4948,"nap":4949,"shell":4950,"Ġtz":4951,"Ġstore":4952,"Ġstatic":4953,"Ġstarted":4954,"partial":4955,"Ġparticular":4956,"Ġraiseit":4957,"ackage":4958,"Ġcompress":4959,"Ġfilenames":4960,"Ġknow":4961,"Union":4962,"Ġvalidate":4963,"256":4964,"ĠBaseException":4965,"345":4966,"ĠArguments":4967,"Ġsilent":4968,">\\":4969,"Flask":4970,"JSON":4971,"bits":4972,"fact":4973,"iters":4974,"utes":4975,"week":4976,"ilter":4977,"Ġproba":4978,"visible":4979,"Ġmouse":4980,"Ġdatabase":4981,"bypass":4982,"styles":4983,"shot":4984,"FFFF":4985,"Ġindices":4986,"Versions":4987,"Ġalign":4988,"ĠTurtleScreen":4989,"Ġspecifying":4990,"sitory":4991,"Ġdestination":4992,"Directory":4993,"Token":4994,"vance":4995,"resize":4996,"Ġpe":4997,"Ġskipped":4998,"Ġ(-":4999,"Ġdete":5000,"Ġdesired":5001,"('<":5002,"ĠĠĠĠĠĠĠĠĠĠĠĠĠĠĠĠĠĠĠĠĠĠĠĠĠĠĠĠĠĠĠĠĠĠĠ":5003,"prev":5004,"Ġemit":5005,"ĠUsed":5006,"callable":5007,"ĠNaN":5008,"ĠMay":5009,"abstract":5010,"Exec":5011,"STR":5012,"sentinel":5013,"results":5014,"Ġblocking":5015,"Ġrepresents":5016,"network":5017,"cpython":5018,"pth":5019,"zy":5020,"indi":5021,"merge":5022,"Ġph":5023,"Ġbp":5024,"ria":5025,"ando":5026,"veni":5027,"Ġprevent":5028,"ĠHMAC":5029,"termine":5030,"Ġcomments":5031,"9999":5032,"255":5033,"Ġmonkeypatch":5034,"âĶĢâĶĢâĶĢâĶĢâĶĢâĶĢâĶĢâĶĢâĶĢâĶĢâĶĢâĶĢâĶĢâĶĢâĶĢâĶĢ":5035,"Make":5036,"rel":5037,"Ġeffect":5038,"lookup":5039,"cogn":5040,"Regex":5041,"Ġchannel":5042,"construct":5043,"Ġunpack":5044,"Ġbuffered":5045,"hashes":5046,"Ġerrno":5047,"tuples":5048,"ĠAlso":5049,"Level":5050,"lt":5051,"Ġtriple":5052,"ended":5053,"Ġ\"\"\":":5054,"polation":5055,"Instance":5056,"correct":5057,"logical":5058,"Resource":5059,"Ġseek":5060,"importer":5061,"Formatter":5062,"DATA":5063,"Given":5064,"bol":5065,"gi":5066,"iden":5067,"ink":5068,"Ġcl":5069,"Ġctypes":5070,"Ġreverse":5071,"Ġevalu":5072,"Ġ\"--":5073,"Ġsever":5074,"ĠMessage":5075,"Ġshutdown":5076,"eroDivision":5077,"completed":5078,"Ġboundary":5079,"Ġfeature":5080,"ĠInstallRequirement":5081,"Ġreached":5082,"eroDivisionError":5083,"=%":5084,">\",":5085,"OK":5086,"nargs":5087,"sleep":5088,"wb":5089,"Ġfamily":5090,"Ġeas":5091,"Ġhmac":5092,"Ġgeneric":5093,"allowed":5094,"Ġmodified":5095,"----------------":5096,"HITE":5097,"\"[":5098,"Write":5099,"gic":5100,"push":5101,"uuid":5102,"Ġqual":5103,"ino":5104,"inted":5105,"report":5106,"Ġimplemented":5107,"Ġrepla":5108,"Ġforward":5109,"')),":5110,"ĠCalled":5111,"mount":5112,"Ġzone":5113,"Ġabstract":5114,"Ġbases":5115,"Ġoperator":5116,"Ġauthentication":5117,"bilities":5118,"Ġtaken":5119,"ĠSome":5120,"delta":5121,"ĠPreparedRequest":5122,"Candidate":5123,"Cache":5124,"Record":5125,"(['":5126,")\"":5127,"18":5128,"Close":5129,"Default":5130,"Over":5131,"junk":5132,"sv":5133,"requirements":5134,"ane":5135,"Ġenough":5136,"exer":5137,"Ġmath":5138,"Ġpoly":5139,"Ġ200":5140,"Ġresulting":5141,"Ġ\"\".":5142,"Ġnormally":5143,"Generic":5144,"ĠAdded":5145,"Ġcancelled":5146,"Ġusually":5147,"Terminal":5148,"fut":5149,"speed":5150,"winfo":5151,"Ġeff":5152,"raction":5153,"Ġdesc":5154,"prec":5155,"Copy":5156,"ĠsetUp":5157,"Ġverbose":5158,"terate":5159,"minor":5160,"Ġnormalized":5161,"labels":5162,"remainder":5163,"Client":5164,"=-":5165,"duplic":5166,"rs":5167,"same":5168,"uce":5169,"xd":5170,"yield":5171,"Ġtmp":5172,"aniti":5173,"hello":5174,"Ġdb":5175,"ĠSO":5176,"etag":5177,"accept":5178,"Ġspecification":5179,"interpreters":5180,"HTTPAdapter":5181,"blocking":5182,"Ġplain":5183,"LIZE":5184,"Ġeditor":5185,"Ġdependency":5186,"ORMALIZE":5187,"CS":5188,"IS":5189,"Use":5190,"eval":5191,"xi":5192,"orsel":5193,"Ġfrozen":5194,"Ġreli":5195,"Ġborder":5196,"mapped":5197,"tems":5198,"Ġunexpected":5199,"Ġembed":5200,"Ġprereleases":5201,"ĠRule":5202,"THON":5203,"Sequence":5204,"ĠStart":5205,"buttons":5206,"DocTest":5207,"BUG":5208,"DL":5209,"LIP":5210,"NS":5211,"Sh":5212,"Tag":5213,"batch":5214,"hd":5215,"Ãº":5216,"ensor":5217,"()[":5218,"Ġcontinuation":5219,"Ġhard":5220,"Ġask":5221,"Ġsuite":5222,"bootstrap":5223,"rong":5224,"Ġexamples":5225,"grade":5226,"Ġwaiting":5227,"resources":5228,"Frameworks":5229,"SPECI":5230,"-%":5231,"Ġincoming":5232,"literal":5233,"Ġ({":5234,"testlimited":5235,"Conver":5236,"ĠWhether":5237,"Ġoptim":5238,"Ġindicating":5239,"impl":5240,"FIC":5241,"wrapped":5242,"enticate":5243,"distributions":5244,"compatible":5245,"testlimitedcapi":5246,"SSIZE":5247,"WHITE":5248,"[...":5249,"history":5250,"will":5251,"Ġpkg":5252,"utine":5253,"ĠFrame":5254,"Ġprog":5255,"Ġproto":5256,"Ġcast":5257,"icro":5258,"ĠConstruct":5259,"ights":5260,"Ġbuilder":5261,"ĠSequence":5262,"abspath":5263,"Ġsteps":5264,"ĠCFWS":5265,"KEY":5266,"WHITESPACE":5267,")'":5268,"BO":5269,"syntax":5270,"wide":5271,"}/":5272,"Ġok":5273,"Ġissubclass":5274,"heel":5275,"racket":5276,"ssue":5277,"does":5278,"pointer":5279,"Ġreadable":5280,"Ġhome":5281,"wraps":5282,"Ġsuccessfully":5283,"ained":5284,"but":5285,"vos":5286,"orator":5287,"arrow":5288,"Ġtabs":5289,"Ġinte":5290,"Ġinteractive":5291,"ados":5292,"Ġ\"{":5293,"('.')":5294,"proto":5295,"single":5296,"Ġsubsequent":5297,"Ġmodel":5298,"Ġbinding":5299,"Ġdirs":5300,"Ġrestore":5301,"PreparedRequest":5302,"SystemError":5303,"RenderableType":5304,"LIPSIS":5305,"600":5306,"big":5307,"cm":5308,"rv":5309,"super":5310,"details":5311,"Ġthough":5312,"ĠTry":5313,"aged":5314,"Ġ``(":5315,"ĠMulti":5316,"links":5317,"Ġminimum":5318,"Protocol":5319,"finder":5320,"Ġretrie":5321,"cremental":5322,"urrogate":5323,"'ll":5324,"ypically":5325,"once":5326,"sequences":5327,"erce":5328,"enum":5329,"Ġslice":5330,"Ġinstruction":5331,"unlink":5332,"ective":5333,"los":5334,"Ġextended":5335,"mapping":5336,"ĠST":5337,"forward":5338,"entries":5339,"Ġcomponents":5340,"Ġzf":5341,"funcs":5342,"Ġoverri":5343,"TED":5344,"Keys":5345,"Ġrendered":5346,"HeaderDefect":5347,"Ġbuiltins":5348,"ĠmacOS":5349,"Popen":5350,"URL":5351,"Window":5352,"cname":5353,"gon":5354,"ified":5355,"ness":5356,"pull":5357,"Ġclosing":5358,"ĠPer":5359,"quit":5360,"ĠAc":5361,"ĠEvent":5362,"aries":5363,"ERR":5364,"curity":5365,"reground":5366,"Ġcallbacks":5367,"ABLE":5368,"fspath":5369,"VERSION":5370,"Ġstripped":5371,"Builder":5372,"'d":5373,"NORMALIZE":5374,"Object":5375,"Session":5376,"alen":5377,"tet":5378,"Ġbatch":5379,"getitem":5380,"major":5381,"keep":5382,"Ġgra":5383,"ĠAN":5384,"':'":5385,"ĠTests":5386,"private":5387,"Ġseparated":5388,"Ġinternally":5389,"padding":5390,"Ġlibrary":5391,"TIMEOUT":5392,"Windows":5393,"triple":5394,"Ġrele":5395,"Ġol":5396,"expi":5397,"(\"<":5398,"Ġtrusted":5399,"Ġspinner":5400,"ĠUp":5401,"ĠLi":5402,"Ġregistry":5403,"ĠURLs":5404,"Ġdifference":5405,"ranges":5406,"Ġupdated":5407,"IDGET":5408,"chronous":5409,"26":5410,"AST":5411,"cd":5412,"zed":5413,"tear":5414,"Ġfmt":5415,"urther":5416,"Ġbig":5417,"Ġsatis":5418,"__\",":5419,"Ġdefine":5420,"Ġ***":5421,"reduce":5422,"Ġexpan":5423,"Ġ30":5424,"Ġsuppress":5425,"interval":5426,"ĠParameter":5427,"ĠIDLE":5428,"Ġsaved":5429,"ĠQueue":5430,"ĠValues":5431,"ĠHelp":5432,"Ġcategory":5433,"(\\":5434,"Match":5435,"cid":5436,"fallback":5437,"gnore":5438,"always":5439,"Ġshe":5440,"Ġslash":5441,"unix":5442,"dian":5443,"Ġfork":5444,"ĠIO":5445,"ffff":5446,"proc":5447,"Ġ{!":5448,"reakpoint":5449,"Ġlim":5450,"region":5451,"download":5452,"ALL":5453,"ALUE":5454,"Ġrepeat":5455,"Ġassumed":5456,"ANDARD":5457,"adapters":5458,"Ġexposed":5459,"200":5460,">',":5461,"Color":5462,"VE":5463,"blue":5464,"hi":5465,"}\".":5466,"Ð°":5467,"Ġge":5468,"Ġfit":5469,"Ġfree":5470,"Ġsmall":5471,"diffe":5472,"olated":5473,"Ġarray":5474,"Ġrfc":5475,"Ġresume":5476,"Ġlogic":5477,"Ġruns":5478,"INET":5479,"Ġextracted":5480,"Ġpercent":5481,"Ġdelta":5482,"anked":5483,"Ġsentinel":5484,"ELLIPSIS":5485,"okupError":5486,"Ġdefinition":5487,"ĠNOT":5488,"ĠDocTest":5489,"822":5490,"MT":5491,"Sho":5492,"serial":5493,"readed":5494,"\"\")":5495,"Ġhaving":5496,"ĠClass":5497,"Ġ``.":5498,"Ġadds":5499,"ĠBad":5500,"Ġcollect":5501,"Ġones":5502,"ERT":5503,"ĠGET":5504,"Ġminor":5505,"Ġcookiejar":5506,"ACK":5507,"Ġcolumns":5508,"Ġpriority":5509,"Foundation":5510,"Split":5511,"Ġconfigured":5512,"ĠShould":5513,"\"``":5514,"Dir":5515,"UID":5516,"have":5517,"disc":5518,"rio":5519,"Ġhad":5520,"ĠURI":5521,"Ġrot":5522,"ĠConfig":5523,"iterator":5524,"Ġresolved":5525,"TextIO":5526,"Speci":5527,"Ġthings":5528,"fragment":5529,"ĠPOSIX":5530,"Ġtrigger":5531,"Ãªn":5532,"(('":5533,"Id":5534,"Iterator":5535,"]+":5536,"bp":5537,"ssed":5538,"utest":5539,"Ġ])":5540,"inte":5541,"reFoundation":5542,"stit":5543,"Ġpixel":5544,"defs":5545,"Ġsta":5546,"Ġ'#":5547,"serted":5548,"Ġrand":5549,"Ġunknown":5550,"Cookie":5551,"ĠOr":5552,"Ġnewlines":5553,"backend":5554,"tained":5555,"commen":5556,"Param":5557,"matching":5558,"sented":5559,"Ġfinished":5560,"'*":5561,"'``":5562,"frozen":5563,"vant":5564,"Ġ],":5565,"dedent":5566,"alcul":5567,"Ġbroken":5568,"Ġ':":5569,"Ġ---":5570,"Ġsecure":5571,"Ġdeleg":5572,"Ġparen":5573,"elf":5574,"reated":5575,"Ġsubdomain":5576,"compressed":5577,"Ġframes":5578,"Ġexecute":5579,"Ġcombin":5580,"Ġcomplex":5581,"Ġdisplayed":5582,"Ġkwds":5583,"ĠFileNotFoundError":5584,"OSError":5585,"Ġdepending":5586,"CFWS":5587,"Ġcopied":5588,"Ġwarn":5589,"21":5590,":\"":5591,":])":5592,"><":5593,"Cleanup":5594,"EE":5595,"SY":5596,"VAR":5597,"Ġ>>":5598,"Ġpush":5599,"Ġpurpo":5600,"rot":5601,"__`.":5602,"named":5603,"Ġdecoder":5604,"Ġdetect":5605,"Ġparagraph":5606,"Ġshown":5607,"ĠWith":5608,"tempdir":5609,"Ġaccessed":5610,"Ġlisten":5611,"MAP":5612,"printable":5613,"Policy":5614,"assertIsNone":5615,"chunked":5616,"Ġhooks":5617,"good":5618,"AttributeError":5619,"Temporary":5620,"ĠTimeout":5621,"sqrt":5622,"*\\":5623,"98":5624,"End":5625,"GE":5626,"relative":5627,"Ġast":5628,"entr":5629,"Ġdrawing":5630,"testcapi":5631,"')]":5632,"Ġprocesses":5633,"some":5634,"Ġposix":5635,"suc":5636,"ĠModule":5637,"Ġcolors":5638,"Ġ'.'":5639,"retval":5640,"Ġcells":5641,"norm":5642,"tarinfo":5643,"Ġmuch":5644,"Column":5645,"family":5646,"iod":5647,"kind":5648,"rand":5649,"deprecated":5650,"Ġbottom":5651,"Ġcoun":5652,"locked":5653,"Ġformats":5654,"Ġforeground":5655,"='',":5656,"Encode":5657,"Ġlikely":5658,"Ġwaiter":5659,"positions":5660,"SSLContext":5661,"Ġreceive":5662,"TLSv":5663,"Foo":5664,"OL":5665,"car":5666,"inclu":5667,"Ġinherit":5668,"ĠTemp":5669,"Ġwild":5670,"__:":5671,"ĠCallable":5672,"Ġ15":5673,"ĠFraction":5674,"assertG":5675,"ĠDon":5676,"Ġunquote":5677,"qualname":5678,"Ġcapa":5679,"RED":5680,"Ġbreakpoints":5681,"Ġzipf":5682,"Ġmarkers":5683,"helplist":5684,"UND":5685,"Ġeverything":5686,"Ġrenderables":5687,"Ġrepository":5688,"Ġturn":5689,"ĠABC":5690,")\\":5691,"Men":5692,"Or":5693,"Traceback":5694,"VENT":5695,"master":5696,"denominator":5697,"mer":5698,"atty":5699,"ĠThread":5700,"mension":5701,"Ġdocs":5702,"refs":5703,"Ġresolver":5704,"envvar":5705,"debugger":5706,"owner":5707,"Ġcredentials":5708,"Ġcaptured":5709,"ĠHowever":5710,"Alias":5711,"constructor":5712,"FT":5713,"Tensor":5714,"palle":5715,"Ġ).":5716,"sity":5717,"linux":5718,"versed":5719,"Ġdec":5720,"ĠEntry":5721,"rences":5722,"\"].":5723,"umer":5724,"Ġworker":5725,"UNC":5726,"Ġgood":5727,"members":5728,"Ġeditwin":5729,"gui":5730,"gral":5731,"Ġsimply":5732,"Ãªnci":5733,")',":5734,"ASE":5735,"RT":5736,"graph":5737,"hint":5738,"ific":5739,"nl":5740,"sync":5741,"segment":5742,"Ġincre":5743,"()))":5744,"testing":5745,"ĠSyntaxError":5746,"Ġalpha":5747,"colon":5748,"Ġapplied":5749,"Ġjump":5750,"Ġcompletions":5751,"multipart":5752,"mailbox":5753,"writing":5754,"ĠBytes":5755,"StyleType":5756,"Ġcompiler":5757,"Ġ255":5758,"Expected":5759,"napshot":5760,"==":5761,"Cfg":5762,"Yielded":5763,"blank":5764,"caminho":5765,"ualen":5766,"storage":5767,"Ġrecommen":5768,"Ġmix":5769,"dis":5770,"lobj":5771,"rack":5772,"Ġ\"(":5773,"Ġhint":5774,"lendar":5775,"tati":5776,"urls":5777,"Ġtrying":5778,"Ġpretty":5779,"tenv":5780,"ĠHeader":5781,"Ġresponses":5782,"widths":5783,"Unknown":5784,"CHAR":5785,"reply":5786,"ĠSpecifier":5787,"ĠâĨ":5788,"mkdir":5789,"Ġcauses":5790,"venience":5791,"ualenv":5792,"PRE":5793,"Release":5794,"Ġunit":5795,"Ġprecision":5796,"caller":5797,"Ġinterpre":5798,"Ġpossibly":5799,"Ġelem":5800,"Ġgroups":5801,"Ġbaz":5802,"Ġproperties":5803,"mantic":5804,"completions":5805,"Ġoccurred":5806,"Ġbehaviour":5807,"Ġdepth":5808,"Ġowner":5809,"character":5810,"!\")":5811,"35":5812,"MIN":5813,"One":5814,"_{":5815,"bstract":5816,"two":5817,"orna":5818,"Ġtreated":5819,"enc":5820,"mpts":5821,"Ġ'|":5822,"Ġdat":5823,"Ġenum":5824,"Ġgive":5825,"(\"-":5826,"Ġ``__":5827,"Ġvery":5828,"Ġaddition":5829,"Initialize":5830,"Ġappended":5831,"Ġcompiled":5832,"Enum":5833,"short":5834,"Ġsockets":5835,"Ġidentify":5836,"XXXX":5837,"Ġpreviously":5838,"antize":5839,"rules":5840,"_,":5841,"nect":5842,"Ġls":5843,"Ġ},":5844,"engine":5845,"Ġpending":5846,"Ġbr":5847,"Ġsmal":5848,"Ġexclu":5849,"Ġsem":5850,"Ġhol":5851,"Ġ19":5852,"Ġprepared":5853,"Ġapplies":5854,"activate":5855,"prefixlen":5856,"Ġinputs":5857,"Ġinstallation":5858,"failed":5859,"ĠDictionary":5860,"arguments":5861,"ishing":5862,"remaining":5863,"Ġpreferred":5864,">%":5865,"Function":5866,"Hash":5867,"Skip":5868,"Ġintended":5869,"Ġtool":5870,"()):":5871,"Ġexternal":5872,"velo":5873,"spans":5874,"conf":5875,"poch":5876,"poll":5877,"Ġtrust":5878,"Ġnodes":5879,"Ġadj":5880,"cap":5881,"ĠWait":5882,"water":5883,"ĠLiteral":5884,"Ġlst":5885,"ĠReplace":5886,"Ġbackwards":5887,"Ġperformed":5888,"ĠCoreFoundation":5889,"HTTPException":5890,"spawn":5891,"Meta":5892,"ighlighter":5893,"ERROR":5894,"CP":5895,"CUR":5896,"Section":5897,"}',":5898,"decoder":5899,"Ġeg":5900,"('.":5901,"assertNot":5902,"Ġpathlib":5903,"Ġpointer":5904,"Ġprev":5905,"ĠButton":5906,"ĠHE":5907,"licable":5908,"actual":5909,"Ġfold":5910,"Ġshutil":5911,"showwarning":5912,"failure":5913,"Ġchoices":5914,"Ġdisk":5915,"ECT":5916,"Ġgreater":5917,"versal":5918,"ĠIndexError":5919,"mantics":5920,"Bad":5921,"Do":5922,"HT":5923,"It":5924,"Lexer":5925,"]*":5926,"cator":5927,"dl":5928,"sec":5929,"revision":5930,"tiv":5931,"Ġncurses":5932,"Ġ'*":5933,"ders":5934,"ĠCurrent":5935,"setattr":5936,"Ġignor":5937,"Ġorigin":5938,"rected":5939,"raised":5940,"Ġspawn":5941,"Ġmodname":5942,"Some":5943,"unicodeescape":5944,"NOT":5945,"Ġdecodeutf":5946,"Ġcreation":5947,"nanny":5948,"expires":5949,"ĠUpdate":5950,"pallets":5951,"Sec":5952,"XML":5953,"td":5954,"ud":5955,"uses":5956,"ashes":5957,"Ġgh":5958,"ĠSupp":5959,"Ġ11":5960,"power":5961,"Ġundo":5962,"ĠWidget":5963,"ĠInter":5964,"ĠInitialize":5965,"termin":5966,"ĠControl":5967,"frames":5968,"Ġrecords":5969,"whitespace":5970,"locations":5971,"Ġsucceed":5972,"Ġmodification":5973,"36":5974,"HA":5975,"catch":5976,"wm":5977,"Ġatom":5978,"Ġpublic":5979,"Ġws":5980,"heading":5981,"__``":5982,"Ġexits":5983,"ĠIssue":5984,"Ġdevice":5985,"ĠEither":5986,"Ġprep":5987,"ĠExec":5988,"Ġinterval":5989,"Ġpermission":5990,"Ġnormalize":5991,"Delete":5992,"Ġtarfile":5993,"retch":5994,"chunks":5995,"uthorization":5996,"Ġwhole":5997,"commit":5998,"ĠâĢ":5999,"widechar":6000,"([\"":6001,"Map":6002,"Missing":6003,"Page":6004,"lstrip":6005,"Ġser":6006,"interact":6007,"repo":6008,"isfile":6009,"external":6010,"Ġ00":6011,"assertFalse":6012,"Ġpredicate":6013,"ĠValid":6014,"pendent":6015,"clar":6016,"Ġsources":6017,"Ġitertools":6018,"Ġtyping":6019,"Ġdecorated":6020,"UNK":6021,"ĠProcess":6022,"UnicodeDecodeError":6023,"Update":6024,")\",":6025,"/<":6026,"OPTIONS":6027,"Stop":6028,"sym":6029,"decor":6030,"Ġwalk":6031,"Ġecho":6032,"__}":6033,"getframe":6034,"Ġ[(":6035,"presented":6036,"Ġadapter":6037,"ĠWill":6038,"Ġexpi":6039,"Ġcare":6040,"INDO":6041,"docs":6042,"Ġmaxsize":6043,"Ġ50":6044,"12345":6045,"Ġstops":6046,"Ġrefresh":6047,"ĠLoad":6048,"SOCK":6049,"ĠRequests":6050,"Ġreported":6051,"POST":6052,"Ġfixed":6053,"characters":6054,"Ġconflict":6055,"umerator":6056,"AM":6057,"Cannot":6058,"DG":6059,"Supp":6060,"Usage":6061,"USER":6062,"WA":6063,"free":6064,"fetch":6065,"lst":6066,"mory":6067,"slice":6068,"onic":6069,"mpath":6070,"dio":6071,"().\"\"\"":6072,"Ġ'\\\\":6073,"fiers":6074,"Ġgen":6075,"oks":6076,"optim":6077,"Ġothers":6078,"abi":6079,"ĠGH":6080,"ynam":6081,"colors":6082,"tokenize":6083,"signment":6084,"ayout":6085,"localhost":6086,"duces":6087,"passed":6088,"ecache":6089,"Load":6090,"existing":6091,"Ġpolygon":6092,"SPECIFIC":6093,"Failed":6094,"cut":6095,"card":6096,"implementation":6097,"desc":6098,"tili":6099,"Ġresize":6100,"Ġrepresented":6101,"Ġna":6102,"ĠnÃ£o":6103,"ĠCol":6104,"trusted":6105,"002":6106,"Ġsetattr":6107,"tention":6108,"Ġtimezone":6109,"Ġleak":6110,"Ġcorner":6111,"Ġoperations":6112,"arest":6113,"refresh":6114,"Ġimplementations":6115,"Ġdomains":6116,"Ġplaces":6117,"ĠWSGIEnvironment":6118,"Ġwraps":6119,"choices":6120,"Ġfeed":6121,"ĠQu":6122,"Ġlarger":6123,"********************************":6124,"SERVER":6125,"Ġquiet":6126,"indices":6127,"']:":6128,");":6129,"LY":6130,"Send":6131,"WORD":6132,"XT":6133,"ob":6134,"Ġful":6135,"Ġfact":6136,"Ġmatched":6137,"lopen":6138,"()]":6139,"ĠServer":6140,"ĠStati":6141,"Ġ``/":6142,"Ġheap":6143,"readable":6144,"ĠWh":6145,"functools":6146,"acquire":6147,"Ġcompressed":6148,"Ġzinfo":6149,"notated":6150,"Ġfore":6151,"Ġtokenize":6152,"Ġstreams":6153,"maxsize":6154,"Ġdescribed":6155,"NoReturn":6156,"Ġattempted":6157,"Generate":6158,"ĠLinux":6159,"cognized":6160,"Filter":6161,"awa":6162,"pts":6163,"slashes":6164,"inf":6165,"Ġcwd":6166,"Ġwin":6167,"here":6168,"gether":6169,"ĠPATH":6170,"Ġgraph":6171,"conver":6172,"trun":6173,"trust":6174,"Ġunbo":6175,"Ġadding":6176,"cause":6177,"Ġsysconfig":6178,"abel":6179,"Ġ('',":6180,"Ġ\\*\\":6181,"ĠSearch":6182,"legacy":6183,"Ġcertain":6184,"8859":6185,"FLAG":6186,"Ġguaranteed":6187,"Ġ\\*\\*":6188,"Current":6189,"User":6190,"WN":6191,"cnf":6192,"mid":6193,"ome":6194,"world":6195,"inspect":6196,"reserved":6197,"Ġide":6198,"Ġplus":6199,"Ġblue":6200,"asyn":6201,"lot":6202,"cols":6203,"Ġcomes":6204,"Ġglibc":6205,"constra":6206,"listdir":6207,"Ġunits":6208,"ĠEN":6209,"Ġ|=":6210,"Ġwhence":6211,"Ġcompression":6212,"Ġfocus":6213,"objects":6214,"Ġshift":6215,"Ġtargetpath":6216,"Ġfollows":6217,"Ġpie":6218,"Ġsuccesses":6219,"Ġ'/'":6220,"Ġgiving":6221,"Ġdependencies":6222,"Ġseveral":6223,"37":6224,"38":6225,"EM":6226,"NING":6227,"must":6228,"uint":6229,"Ġflat":6230,"Ġfurther":6231,"arded":6232,"Ġwindows":6233,"anging":6234,"Ġeditable":6235,"atever":6236,"testr":6237,"andsize":6238,"Ġ14":6239,"Ġproc":6240,"opcodes":6241,"ĠUser":6242,"ĠMax":6243,"Ġ40":6244,"steps":6245,"Ġprefixlen":6246,"begin":6247,"tifier":6248,"elements":6249,"bbbb":6250,"}.{":6251,"Ġfutures":6252,"Ġcaught":6253,"YYYY":6254,"Only":6255,"Ġscroll":6256,"abstractmethod":6257,"STRING":6258,"ĠLike":6259,"discard":6260,"Normal":6261,"gent":6262,"jected":6263,"uous":6264,"~/":6265,"tho":6266,"inary":6267,"dependen":6268,"Ġcf":6269,"Ġcar":6270,"Ġctype":6271,"isinstance":6272,"mach":6273,"Ġsemantics":6274,"ĠSend":6275,"ĠSAX":6276,"ĠCLI":6277,"ĠFuture":6278,"Ġ[-":6279,"more":6280,"Ġoptionally":6281,"Ġsignific":6282,"Ġpadx":6283,"Ġschemes":6284,"mtree":6285,"ĠZeroDivisionError":6286,"rash":6287,"Generator":6288,"COLOR":6289,"elem":6290,"Ġtreat":6291,"Ġembedded":6292,"Button":6293,"UP":6294,"drive":6295,"ios":6296,"µes":6297,"Ãµes":6298,"inery":6299,"depth":6300,"Ġwrong":6301,"Ġmis":6302,"pairs":6303,"Ġsear":6304,"Ġgzip":6305,"exus":6306,"ĠCON":6307,"Ġmagic":6308,"Ġlinear":6309,"***":6310,"pyc":6311,"scriber":6312,"Entity":6313,"Ġcomb":6314,"Ġimporter":6315,"importlib":6316,"writestr":6317,"destroy":6318,"Ġsymlinks":6319,"Ġrelated":6320,"Ġtreino":6321,"pickle":6322,"Starting":6323,"ĠâĢĶ":6324,"45":6325,"au":6326,"given":6327,"ipe":6328,"stem":6329,"orarily":6330,"Ġclo":6331,"unic":6332,"divide":6333,"pagate":6334,"Ġratio":6335,"Description":6336,"Ġ204":6337,"Ġtextwrap":6338,"INT":6339,"aging":6340,"caches":6341,"shift":6342,"127":6343,"Ġopinion":6344,"ility":6345,"filters":6346,"Ġdestroy":6347,"Ġsending":6348,"Char":6349,"recursion":6350,"Decorator":6351,"ufffd":6352,"Ġexpanded":6353,"(__":6354,"Valid":6355,"bang":6356,"bracket":6357,"guess":6358,"ient":6359,"por":6360,"want":6361,"xfile":6362,"Ġutf":6363,"device":6364,"Ġfetch":6365,"Ġpat":6366,"Ġsqueezer":6367,"unnel":6368,"Ġmk":6369,"Ġmut":6370,"Ġmtime":6371,"Ġmorsel":6372,"()),":6373,"ĠThen":6374,"ĠTtk":6375,"Ġvenv":6376,"ĠSec":6377,"ircle":6378,"Ġfunctional":6379,"ĠVerify":6380,"Ġsubtype":6381,"Ġcap":6382,"Ġxml":6383,"ĠGroup":6384,"document":6385,"Ġjar":6386,"'])),":6387,"Ġvariant":6388,"Ġmultipart":6389,"123":6390,"Ġwrites":6391,"Ġsched":6392,"Ġsignals":6393,"Ġrecei":6394,"ĠSplit":6395,"queeze":6396,"icky":6397,"ĠAddress":6398,"ragma":6399,"Ġmiddle":6400,"Writer":6401,"Ġprobably":6402,"ĠâĨĴ":6403,"'\"":6404,"'}":6405,"SyntaxError":6406,"Wait":6407,"bing":6408,"ically":6409,"lang":6410,"nested":6411,"rray":6412,"Ġ$":6413,"allen":6414,"Ġpure":6415,"Ġear":6416,"unquote":6417,"Ġ\"\"\"``":6418,"Replace":6419,"Ġgc":6420,"pathname":6421,"Ġimplements":6422,"Ġargv":6423,"Ġsubset":6424,"ĠConver":6425,"Ġwidgets":6426,"Resol":6427,"KeyError":6428,"ĠĠĠĠĠĠĠĠĠĠĠĠĠĠĠĠĠĠĠĠĠĠĠĠĠĠĠĠĠĠĠĠĠĠ":6429,"normalized":6430,"Hello":6431,"ĠProxy":6432,"cycle":6433,"Span":6434,"translate":6435,"Ġasynchronous":6436,"ĠMethod":6437,"Ġrecursively":6438,"Ġdelimiter":6439,"Ġclone":6440,"ĠANSI":6441,"ĠMaximum":6442,"unicate":6443,"\"]:":6444,"'.\"\"\"":6445,".'":6446,"70":6447,"Bar":6448,"Security":6449,"cmp":6450,"random":6451,"ĠÃ©":6452,"delim":6453,"Ġcut":6454,"Ġtp":6455,"Ġemoji":6456,"Ġ')":6457,"mag":6458,"Ġdiv":6459,"Ġgdb":6460,"bugs":6461,"Ġmais":6462,"tabs":6463,"yshell":6464,"Ġyields":6465,"Ġadvance":6466,"bosity":6467,"ĠBar":6468,"Ġmodelo":6469,"LETE":6470,"Provi":6471,"Ġincludes":6472,"ferences":6473,"ADER":6474,"Ġrows":6475,"InvalidHeaderDefect":6476,"Ġoperands":6477,"Ġhappens":6478,"eggs":6479,"~~~~":6480,"HOME":6481,"Ġparenthe":6482,"success":6483,"\"},":6484,")\")":6485,".%":6486,"MD":6487,"Non":6488,"Ġrich":6489,"required":6490,"Ġreduce":6491,"Ġ(_":6492,"Ġ(``":6493,"Ġusable":6494,"may":6495,"ielding":6496,"Ġroutine":6497,"Ġformatting":6498,"handled":6499,"PathLike":6500,"ĠĠĠĠĠĠĠĠĠĠĠĠĠĠĠĠĠĠĠĠĠĠĠĠĠĠĠĠĠĠĠĠĠ":6501,"netmask":6502,"ĠZIP":6503,"Ġremainder":6504,"annotation":6505,"Ġentity":6506,"ĠAllow":6507,"normpath":6508,"rupted":6509,"Document":6510,"valuate":6511,"ĠHelper":6512,"ĠRenderable":6513,"countered":6514,"rpc":6515,"Ġdetected":6516,"Ġrecommended":6517,"MS":6518,"Tk":6519,"draw":6520,"eff":6521,"saniti":6522,"surrogate":6523,"secure":6524,"erarch":6525,"Ġreturncode":6526,"ĠTr":6527,"Ġhistory":6528,"ctions":6529,"ida":6530,"('--":6531,"keyword":6532,"ĠFF":6533,"ĠFoo":6534,"dos":6535,"Code":6536,"Comple":6537,"tential":6538,"istori":6539,"addCleanup":6540,"Ġcodec":6541,"Ġacross":6542,"Dialog":6543,"weak":6544,"Ġwritable":6545,"Ġpydoc":6546,"Ġrespo":6547,"Ġequality":6548,"ConsoleOptions":6549,"Ġchosen":6550,"certs":6551,"Ġgives":6552,"ĠUNSET":6553,"aaaa":6554,"Ġgreen":6555,"ORMAT":6556,"Register":6557,"sticsError":6558,"provided":6559,"((\"":6560,">=":6561,"ATION":6562,"effect":6563,"fficient":6564,"mu":6565,"pending":6566,"Ġids":6567,"Ġfs":6568,"Ġtries":6569,"uname":6570,"directed":6571,"Ġ'\"":6572,"Ġvcs":6573,"Ġexclude":6574,"getLogger":6575,"matic":6576,"consu":6577,"concat":6578,"ĠAfter":6579,"transport":6580,"ffset":6581,"ords":6582,"Ġapplicable":6583,"Ġlea":6584,"Ġcompared":6585,"Ġintro":6586,"runtime":6587,"DEX":6588,"Local":6589,"ditor":6590,"parents":6591,"breaks":6592,"overload":6593,"={},":6594,"Build":6595,"Ġissues":6596,"Interrupt":6597,"Ġawaited":6598,"Ġproblem":6599,"related":6600,"Ġeffective":6601,"allenge":6602,"AU":6603,"CERT":6604,"pes":6605,"ryp":6606,"xc":6607,"mean":6608,"encoder":6609,"Ġnull":6610,"Ġep":6611,"Ġtogether":6612,"dia":6613,"Ġ(%":6614,"Ġ\"...":6615,"__'):":6616,"Ġbeta":6617,"Ġconcurrent":6618,"Ġgrid":6619,"('_":6620,"ĠAss":6621,"ĠSIG":6622,"usl":6623,"boolean":6624,"ĠBut":6625,"way":6626,"library":6627,"play":6628,"Ġchecker":6629,"category":6630,"Ġquot":6631,"abcdef":6632,"cannot":6633,"canonical":6634,"bindings":6635,"Ġlooked":6636,"Ġdotted":6637,"Ġdepends":6638,"Ġchoice":6639,"Ġfeatures":6640,"ickness":6641,"boundary":6642,"Ġseparators":6643,"Arguments":6644,"Ġdidn":6645,"mimetype":6646,"semble":6647,"DebugPython":6648,"[...,":6649,"27":6650,"APP":6651,"Msg":6652,"]])":6653,"crt":6654,"eps":6655,"squeezer":6656,"counter":6657,"sic":6658,"lamp":6659,"ĠFirst":6660,"Ġ...]":6661,"popen":6662,"ĠUUID":6663,"ĠWIDGET":6664,"abli":6665,"Ġrounded":6666,"ĠInternal":6667,"ardless":6668,"docstring":6669,"Ġnamespaces":6670,"ubutton":6671,"Ġmultiprocessing":6672,"ĠResource":6673,"assertIsInstance":6674,"(\"/\")":6675,"LOCK":6676,"Metadata":6677,"boardInterrupt":6678,"sitionals":6679,"PORT":6680,"Shell":6681,"eed":6682,"htest":6683,"Ġ;":6684,"Ġ?":6685,"throw":6686,"Ġamount":6687,"leak":6688,"Ġfew":6689,"arba":6690,"Ġreversed":6691,"undi":6692,"roaming":6693,"ador":6694,"Ġassigned":6695,"strong":6696,"scan":6697,"ĠFI":6698,"setUp":6699,"uming":6700,"Ġdoing":6701,"Ġaren":6702,"ĠDec":6703,"ĠNAME":6704,"processor":6705,"Files":6706,"worker":6707,"Ġwidths":6708,"Namespace":6709,"FIG":6710,"Ġbetter":6711,"Optionals":6712,"Assert":6713,"ĠMeasurement":6714,"ĠBuild":6715,"undop":6716,"recursive":6717,"ĠDEFAULT":6718,"Transfer":6719,"integral":6720,"ĠStatisticsError":6721,"erarchy":6722,"arbage":6723,"\"<":6724,":\",":6725,"EVENT":6726,"IZE":6727,"New":6728,"OT":6729,"[,":6730,"`.\"\"\"":6731,"cas":6732,"ped":6733,"sy":6734,"anis":6735,"ulated":6736,"()).":6737,"chmod":6738,"very":6739,"android":6740,"Ġmech":6741,"tached":6742,"CookieJar":6743,"ĠBreakpoint":6744,"efficient":6745,"Ġallowing":6746,"combo":6747,"abcd":6748,"barrier":6749,"Ġwrapping":6750,"shake":6751,"Ġpytest":6752,"mbed":6753,"Ġinitialized":6754,"variant":6755,"displayhook":6756,"ĠInstallation":6757,"ĠOverflow":6758,"Ġfully":6759,"You":6760,"duct":6761,"email":6762,"false":6763,"gy":6764,"gid":6765,"ount":6766,"torch":6767,"zi":6768,"Ġul":6769,"require":6770,"Ġreach":6771,"Ġstretch":6772,"itch":6773,"amount":6774,"ĠAuth":6775,"linelen":6776,"Ġpotential":6777,"Ġcheckpoint":6778,"Ġ'''\\":6779,"Ġdistutils":6780,"Ġkill":6781,"Ġopcode":6782,"Ġcurses":6783,"Ġsystems":6784,"shared":6785,"Ġauthority":6786,"ĠSetting":6787,"})\"":6788,"overflow":6789,"Ġgoing":6790,"mediate":6791,"Ġmemoryview":6792,"ĠGenerate":6793,"Finishing":6794,"Ġprinted":6795,"ĠCliRunner":6796,"Ġconsume":6797,"tility":6798,"90":6799,"Other":6800,"immutable":6801,"pin":6802,"torna":6803,"tets":6804,"alf":6805,"Ġrect":6806,"Ġouter":6807,"Ġscan":6808,"Ġ\")":6809,"ised":6810,"Ġdeal":6811,"toc":6812,"ĠSince":6813,"Ġloading":6814,"Ġalong":6815,"undle":6816,"suite":6817,"caten":6818,"Ġquotes":6819,"TEXT":6820,"structure":6821,"Ġexecutor":6822,"Ġpositions":6823,"Ġ{})":6824,"DEBUG":6825,"Creates":6826,"Ġlooks":6827,"Ġdownloaded":6828,"Ġconverter":6829,"Ġconverts":6830,"ParserTestCase":6831,"expanding":6832,"Application":6833,"tzinfo":6834,"Ġduplicates":6835,"\"}),":6836,"hdlr":6837,"Menu":6838,"1000":6839,"CPython":6840,"TD":6841,"]),":6842,"plus":6843,"Ġincorrect":6844,"Ġinserted":6845,"asutf":6846,"Ġmat":6847,"lite":6848,"ĠTar":6849,"__')":6850,"Ġdivide":6851,"ĠISO":6852,"Ġderi":6853,"ĠSecurity":6854,"Ġarcname":6855,"Ġ``_":6856,"Ġunix":6857,"Ġalt":6858,"Ġyielded":6859,"ird":6860,"cay":6861,"Ġcodecs":6862,"ossible":6863,"ĠRequirement":6864,"'].":6865,"SIDL":6866,"interps":6867,"Ġparents":6868,"COMP":6869,"generic":6870,"Ġconverting":6871,"cases":6872,"Spec":6873,"cccc":6874,"ĠPool":6875,"ĠChar":6876,"ĠClick":6877,"Ġtells":6878,"ZZZZ":6879,"ĠCause":6880,"machinery":6881,"Ġschedule":6882,"Ġdivmod":6883,"!',":6884,")*":6885,"Authorization":6886,"Simple":6887,"fname":6888,"udo":6889,"xb":6890,"zstd":6891,"Ġpin":6892,"core":6893,"ĠPackage":6894,"Ġ\"*":6895,"Ġconsistent":6896,"ector":6897,"illi":6898,"ĠSystem":6899,"(\".\")":6900,"Ġwhatever":6901,"Ġloss":6902,"Ġmach":6903,"ĠDeco":6904,"Ġpreserve":6905,"ĠMap":6906,"Ġleave":6907,"ONLY":6908,"mapho":6909,"Unable":6910,"Ġranges":6911,"ĠUnsupported":6912,"FIX":6913,"Ġfinite":6914,"ĠSegment":6915,"Ġaliases":6916,"markup":6917,"=[],":6918,"TERN":6919,"container":6920,"bytearray":6921,"URCE":6922,"ĠBoth":6923,"Query":6924,"ĠTODO":6925,"Ġolder":6926,"WAIT":6927,"=[\"":6928,"Empty":6929,"Self":6930,"Wheel":6931,"cp":6932,"center":6933,"ident":6934,"micro":6935,"numerator":6936,"ui":6937,"insensitive":6938,"Ġretry":6939,"Ġinvocation":6940,"Ġeval":6941,"Ã§Ãµes":6942,"Ġdra":6943,"Ġcover":6944,"getter":6945,"Ġhide":6946,"versable":6947,"Ġdeclar":6948,"Ġmaint":6949,"Ġverbosity":6950,"ĠVALUE":6951,"joinpath":6952,"Ġencodings":6953,"sysconfig":6954,"workers":6955,"Named":6956,"ADD":6957,"authkey":6958,"train":6959,"Ġlooking":6960,"ggle":6961,"cancelled":6962,"Ġserialize":6963,"Ġcollections":6964,"Ġedges":6965,"changes":6966,"ĠtearDown":6967,"6789":6968,"pulldom":6969,"Element":6970,"Per":6971,"Print":6972,"Queue":6973,"UI":6974,"high":6975,"ln":6976,"}]":6977,"Ġimmutable":6978,"Ġcv":6979,"Ġcrash":6980,"also":6981,"alpha":6982,"Ġtypically":6983,"Ġopp":6984,"litext":6985,"Ġsticky":6986,"()',":6987,"Ġ'(":6988,"ĠPopen":6989,"Ġdummy":6990,"Ġlocate":6991,"ĠMen":6992,"ĠMAST":6993,"ĠREC":6994,"waiters":6995,"ĠLabel":6996,"Ġlogical":6997,"Ġcontained":6998,"features":6999,"Ġregardless":7000,"Ġmanually":7001,"Ġshor":7002,"what":7003,"Ġinitializer":7004,"Ġscripts":7005,"callbacks":7006,"Ġprior":7007,"deredDict":7008,"ĠUTC":7009,"common":7010,"redirects":7011,"llover":7012,"enabled":7013,"PYTHON":7014,"operation":7015,"Ġalternative":7016,"Ġphrase":7017,"including":7018,"ĠBytesIO":7019,"ĠMASTER":7020,"'<":7021,")])":7022,":-":7023,"And":7024,"My":7025,"Used":7026,"bgcolor":7027,"imation":7028,"deleg":7029,"``)":7030,"``).":7031,"Ġft":7032,"Ġfast":7033,"ernel":7034,"Ġinher":7035,"gered":7036,"isters":7037,"Ġexemp":7038,"quantize":7039,"Ġdivision":7040,"Ġenter":7041,"(\"_":7042,"times":7043,"rieve":7044,"ĠOK":7045,"Ġtexto":7046,"Ġtextvariable":7047,"ĠMet":7048,"access":7049,"Ġcolon":7050,"=\"%":7051,"dence":7052,"compression":7053,"Ġopening":7054,"Ġbreaks":7055,"Ġinterp":7056,"Ġblocksize":7057,"Ġnetmask":7058,"Headers":7059,"Positionals":7060,"Ġwheels":7061,"={\"":7062,"Ġattempts":7063,"PPPP":7064,"ordinate":7065,"repl":7066,"Ġdescriptors":7067,"Ġsuccessful":7068,"undobuffer":7069,"brevi":7070,"green":7071,"cfws":7072,"Ġbecomes":7073,"Ġsearched":7074,"44":7075,">,":7076,"Dummy":7077,"Future":7078,"Imp":7079,"RFC":7080,"US":7081,"Whether":7082,"WINDO":7083,"eof":7084,"rl":7085,"sorted":7086,"Ġaffect":7087,"Ġfig":7088,"alive":7089,"anch":7090,"adj":7091,"Ġfunctools":7092,"Ġchanging":7093,"parsing":7094,"toml":7095,"ĠCPython":7096,"readinto":7097,"Ġexport":7098,"Ġlex":7099,"comments":7100,"newline":7101,"Enable":7102,"Ġbuilding":7103,"Ġfloats":7104,"IPv":7105,"author":7106,"priority":7107,"Ġdirname":7108,"tract":7109,"Ġrespon":7110,"Ġloads":7111,"InvalidOperation":7112,"Ġrepeated":7113,"Ġhierarchy":7114,"Ġreplacing":7115,"ometry":7116,"'m":7117,"401":7118,"Bo":7119,"klass":7120,"pat":7121,"squeeze":7122,"Ð±":7123,"thickness":7124,"let":7125,"disp":7126,"Ġ'+":7127,"Ġ';":7128,"ctypes":7129,"Ġsec":7130,"vels":7131,"Ġorient":7132,"Ġdead":7133,"ĠSh":7134,"ĠElement":7135,"Ġlinesep":7136,"aking":7137,"Ġsubstit":7138,"tilt":7139,"Ġklass":7140,"structures":7141,"created":7142,"sidebar":7143,"Ġconnected":7144,"cookiejar":7145,"Ġ'{}'":7146,"Ġmaking":7147,"Interface":7148,"Ġconstraints":7149,"factor":7150,"Ġrelief":7151,"Ãªncia":7152,"ĠHEAD":7153,"ADDR":7154,"Link":7155,"PAT":7156,"`:":7157,"bt":7158,"clo":7159,"circular":7160,"dor":7161,"imal":7162,"mtp":7163,"ned":7164,"xe":7165,"xim":7166,"Ġpul":7167,"Ġnan":7168,"atur":7169,"uessed":7170,"Ġ##":7171,"ĠTra":7172,"ĠPRO":7173,"Ġuid":7174,"Ġdefects":7175,"Ġencoder":7176,"('%":7177,"ĠFunction":7178,"Ġzi":7179,"ĠGUI":7180,"Ġ('--":7181,"Ġopener":7182,"Ġindicated":7183,"ADATA":7184,"multipath":7185,"manent":7186,"Ġcommit":7187,"Ġsuffixes":7188,"stats":7189,"Ġbufsize":7190,"}:{":7191,"Ġdaemon":7192,"ĠExtract":7193,"futures":7194,"anism":7195,":/":7196,"GB":7197,"Immutable":7198,"Str":7199,"ZMA":7200,"gt":7201,"was":7202,"security":7203,"dependent":7204,"Ġfg":7205,"urvi":7206,"Ġnarrow":7207,"Ġelapsed":7208,"Ġisolated":7209,"dicion":7210,"Ġsto":7211,"Ġ#:":7212,"istent":7213,"macos":7214,"quare":7215,"vered":7216,"Ġending":7217,"('#":7218,"older":7219,"ĠCO":7220,"Ġnetr":7221,"intypes":7222,"Coordinates":7223,"Ġgetter":7224,"Ġattach":7225,"ĠWrite":7226,"Ġbug":7227,"Ġoutline":7228,"Ġlang":7229,"STAR":7230,"Ġ400":7231,"101":7232,"eep":7233,"LEADER":7234,"TEN":7235,"COM":7236,"]>:":7237,"Ġunderline":7238,"share":7239,"Ġpyc":7240,"Ġpointing":7241,"failures":7242,"metaclass":7243,"Ġredirects":7244,"Ġdigestmod":7245,"Ġsends":7246,"lapse":7247,"Ġcanonicalize":7248,"Ġterminate":7249,"Ġtriggered":7250,"viding":7251,"ĠThat":7252,"Ġdiscarded":7253,"Ġrelevant":7254,"ĠTrans":7255,"istorico":7256,".*":7257,"After":7258,"Fail":7259,"ares":7260,"border":7261,"ptim":7262,"psis":7263,"arm":7264,"arge":7265,"Ġreally":7266,"urlopen":7267,"Ġsyn":7268,"Ġsizes":7269,"come":7270,"ĠTI":7271,"Ġencountered":7272,"tore":7273,"ĠWork":7274,"Ġaccount":7275,"REC":7276,"ĠCounter":7277,"Ġhttpbin":7278,"Ġzipfp":7279,"ĠDetermine":7280,"Ġsubclassing":7281,"written":7282,"Move":7283,"annotations":7284,"AGE":7285,"Render":7286,"editor":7287,"ĠShow":7288,"Ġportion":7289,"Ġconsist":7290,"Ġescaped":7291,"Ġfrozenset":7292,"ĠCurrently":7293,"Ġfunctionality":7294,"'+":7295,"Date":7296,"LC":7297,"LAN":7298,"Tree":7299,"bottom":7300,"either":7301,"rm":7302,"stant":7303,"started":7304,"Ġbgcolor":7305,"Ġinstr":7306,"Ġinteract":7307,"Ġiff":7308,"listen":7309,"digo":7310,"ration":7311,"Ġ'=":7312,"ctures":7313,"eds":7314,"Ġdynam":7315,"Ġcoefficient":7316,"Ġconfir":7317,"Ġdecoding":7318,"scrip":7319,"codename":7320,"ĠClear":7321,"Ġprompts":7322,"Ġsumm":7323,"mented":7324,"Ġdataset":7325,"infos":7326,"near":7327,"ĠLine":7328,"Ġroaming":7329,"Ġabbrevi":7330,"Ġmultiline":7331,"ENCE":7332,"Ġtyped":7333,"Ġtrain":7334,"numbers":7335,"Node":7336,"variance":7337,"asyncgen":7338,"Ġselector":7339,"ĠSocket":7340,"Ġtemplates":7341,"Ã¡rio":7342,"Methods":7343,"Ġlinhas":7344,"ĠTclError":7345,"vidual":7346,"Ġescapes":7347,"Show":7348,"Specifier":7349,"ParamType":7350,"normcase":7351,"Ġpiece":7352,")?":7353,"=\"\",":7354,"Factory":7355,"RIP":7356,"We":7357,"War":7358,"_)":7359,"cum":7360,"kill":7361,"pec":7362,"uge":7363,"}'.":7364,"ony":7365,"inline":7366,"leted":7367,"Ġints":7368,"unexpected":7369,"digit":7370,"Ġhit":7371,"Repr":7372,"Ġmemo":7373,"ĠCase":7374,"Ġwhy":7375,"linesep":7376,"ĠData":7377,"Ġnewly":7378,"ists":7379,"ĠRaw":7380,"bolic":7381,"dented":7382,"Lock":7383,"StringIO":7384,"Ġdocstrings":7385,"Ġinvokes":7386,"transform":7387,"Too":7388,"Ġdays":7389,"ConnectionPool":7390,"renderables":7391,"Ġvirtualenv":7392,"Ġborderwidth":7393,"EncodeError":7394,"Ġsmaller":7395,"FLAGS":7396,")/":7397,"/*":7398,"52":7399,"Each":7400,"Nargs":7401,"NULL":7402,"SOR":7403,"Sends":7404,"]``":7405,"_.":7406,"bla":7407,"flat":7408,"wi":7409,"yled":7410,"repe":7411,"Ġflask":7412,"ursor":7413,"Ġou":7414,"Ġbg":7415,"Ġnn":7416,"Ġcoordinate":7417,"Ġmedian":7418,"paragraph":7419,"ĠClose":7420,")).":7421,"nowait":7422,"ĠEquivalent":7423,"ixed":7424,"Ġgetcontext":7425,"quivo":7426,"Ġpasses":7427,"Ġtimer":7428,"Ġleader":7429,"Ġmaxlinelen":7430,"expect":7431,"logps":7432,"prints":7433,"REUSE":7434,"lector":7435,"offsets":7436,"makefile":7437,"days":7438,"Memory":7439,"going":7440,"Ġinvoking":7441,"resolver":7442,"Change":7443,"Child":7444,"Ġmetaclass":7445,"ValueTerminal":7446,"Subclass":7447,"separated":7448,"Ġarquivos":7449,"Ġlinha":7450,"Ġlinecache":7451,"ĠBuffered":7452,"saved":7453,"Ġcycles":7454,"Ġsymbol":7455,"Ġconsider":7456,"tracker":7457,"globs":7458,"Execute":7459,"Ġeasy":7460,"ĠMultiDict":7461,"teardown":7462,"TextIOWrapper":7463,"Ġcounts":7464,"Ġholds":7465,"unditems":7466,"Ġnetrc":7467,"87":7468,"></":7469,"HH":7470,"Raw":7471,"`).":7472,"bold":7473,"eos":7474,"}),":7475,"Ġuri":7476,"Ġclock":7477,"Ġfresh":7478,"aly":7479,"arsh":7480,"Ġsash":7481,"Ġslot":7482,"Ġinfinite":7483,"direction":7484,"Ġdtype":7485,"getpid":7486,"getcwd":7487,"Ġhref":7488,"Ġascii":7489,"lling":7490,"Ġdistance":7491,"Ġdigit":7492,"splitext":7493,"ĠAnd":7494,"reading":7495,"Ġweight":7496,"necess":7497,"Ġrollover":7498,"ONE":7499,"Ġzer":7500,"ĠInstead":7501,"Ġurls":7502,"ĠGMT":7503,"messages":7504,"Unsupported":7505,"Ġmanaged":7506,"specifier":7507,"ĠNow":7508,"ĠCreates":7509,"Ġretval":7510,"RITE":7511,"Ġfillcolor":7512,"Ġipv":7513,"bytecode":7514,"Transport":7515,"CONFIG":7516,"Ġconsumed":7517,"grees":7518,"Authenticate":7519,"Ġsilently":7520,"duplicate":7521,"entral":7522,"inaryIO":7523,"\"``.":7524,"-{":7525,"500":7526,"800":7527,"95":7528,":.":7529,"CAL":7530,"CSIDL":7531,"HAND":7532,"ImportError":7533,"PL":7534,"Ro":7535,"Stack":7536,"bc":7537,"bg":7538,"ireq":7539,"Ġtes":7540,"reater":7541,"det":7542,"Ġcada":7543,"tios":7544,"Ġrefer":7545,"unc":7546,"unbo":7547,"assemble":7548,"rith":7549,"utco":7550,"__\")":7551,"ĠIgnore":7552,"Ġgarbage":7553,"tos":7554,"except":7555,"Ġfromlist":7556,"Ġunset":7557,"opinion":7558,"Ġprec":7559,"Ġ%(":7560,"Ġweights":7561,"ĠMark":7562,"ressor":7563,"Ġcaused":7564,"subdomain":7565,"agent":7566,"ĠTestResult":7567,"ĠCookie":7568,"Ġordering":7569,"THREAD":7570,"CODE":7571,"Ġsections":7572,"Ġhashlib":7573,"licitly":7574,"ĠZstd":7575,"ĠNode":7576,"Checks":7577,"Decoder":7578,"Ġalive":7579,"SSLv":7580,"scope":7581,"scores":7582,"Ġmetavar":7583,"selector":7584,"Ġexpanding":7585,"Ġappears":7586,"ĠBoolean":7587,"dotted":7588,"Ġproblems":7589,"Ġmerged":7590,"Ġconstraint":7591,"Ġbecome":7592,"Converter":7593,"Ġrandrange":7594,"rotate":7595,"cards":7596,"Ġinterpreted":7597,"Ġtooltip":7598,"idade":7599,"ditorWindow":7600,"ĠTarInfo":7601,"Ġ'{}'\".":7602,"(...":7603,",),":7604,"Cor":7605,"CEP":7606,"Th":7607,"WRITE":7608,"Zero":7609,"[^":7610,"ftime":7611,"fast":7612,"public":7613,"ttk":7614,"yes":7615,"tex":7616,"Ġthrow":7617,"Ġcrite":7618,"Ġcircular":7619,"Ġfname":7620,"Ġtw":7621,"Ġpragma":7622,"rounding":7623,"otonic":7624,"sibility":7625,"Ġ(`":7626,"Ġnotation":7627,"ĠAF":7628,"expression":7629,"Ġ1000":7630,"double":7631,"soft":7632,"ffected":7633,"Ġunavailable":7634,"Ġpreserved":7635,"addresses":7636,"Ġsubscriber":7637,"hape":7638,"expr":7639,"Ġoverla":7640,"Ġdicts":7641,"FileInput":7642,"atistics":7643,"modname":7644,"Ġpady":7645,"Ġdifferences":7646,"Status":7647,"ĠĠĠĠĠĠĠĠĠĠĠĠĠĠĠĠĠĠĠĠĠĠĠĠĠĠĠĠĠĠĠĠĠĠĠĠ":7648,"Ġfinish":7649,"netrc":7650,"ĠstandardMsg":7651,"Ġtranslate":7652,"built":7653,"({\"":7654,"examples":7655,"Ġtkinter":7656,"Ġcompresslevel":7657,"ĠSTANDARD":7658,"Ġoverriding":7659,"Ġpurposes":7660,"SkipTest":7661,"Ġzeros":7662,".'''":7663,"FORMAT":7664,"UM":7665,"osition":7666,"rpartition":7667,"utive":7668,"setitem":7669,"teri":7670,"metic":7671,"alize":7672,"Ġbl":7673,"ceived":7674,"aswidechar":7675,"Ġ\"#":7676,"Ġuuid":7677,"Ġds":7678,"Ġdrop":7679,"Ġdefect":7680,"ĠAST":7681,"ĠTheme":7682,"prefs":7683,"Connect":7684,"ĠNon":7685,"ledError":7686,"ĠMS":7687,"Ġtimedelta":7688,"abort":7689,"stringandsize":7690,"ĠGNU":7691,"xyz":7692,"LED":7693,"Ġexecuting":7694,"Ġblocked":7695,"ARNING":7696,"ancelledError":7697,"Ġauthor":7698,"Ġchunked":7699,"filtered":7700,"Ġexitcode":7701,"completer":7702,"Ġhighlightthickness":7703,"writer":7704,"morsel":7705,"Ġlowercase":7706,"ĠExpand":7707,"ProcessError":7708,"ĠRender":7709,"Ġnorm":7710,"brew":7711,"Ġcalculate":7712,"Ġglobs":7713,"Ġlimited":7714,"assertGreater":7715,"surrogateescape":7716,"ĠAssume":7717,"\"%":7718,":],":7719,"Custom":7720,"DP":7721,"Entry":7722,"Sig":7723,"Ġamt":7724,"descript":7725,"``.\"\"\"":7726,"Ġcross":7727,"Ġsq":7728,"defin":7729,"heap":7730,"Ġtok":7731,"live":7732,"dern":7733,"Ġordered":7734,"spinner":7735,"ĠCop":7736,"vendor":7737,"Could":7738,"opcode":7739,"Ġ23":7740,"calcul":7741,"waiter":7742,"There":7743,"ĠConnection":7744,"Ġabi":7745,"Ġabort":7746,"Ġtemporarily":7747,"RequestHandler":7748,"platforms":7749,"daemon":7750,"ĠAnnotated":7751,"ĠEnum":7752,"blocks":7753,"ĠResol":7754,"sively":7755,"assertIsNot":7756,"ĠExamples":7757,"Async":7758,"Ġrecursion":7759,"CESS":7760,"communicate":7761,"Compare":7762,"ĠSpecial":7763,"ĠOpenSSL":7764,"Ġperformance":7765,"597":7766,"Ġconstant":7767,"ĠCandidate":7768,"Ġpixels":7769,"Ġeggs":7770,"Ġexpires":7771,"truncate":7772,"ĠRenderableType":7773,"Ġmechanism":7774,"Ġderived":7775,"Ġmachine":7776,"Warns":7777,"'')":7778,"61":7779,"68":7780,":\")":7781,">')":7782,"AA":7783,"All":7784,"BS":7785,"CL":7786,"Package":7787,"VAL":7788,"`)":7789,"gc":7790,"jinja":7791,"ng":7792,"pwrite":7793,"rr":7794,"xf":7795,"ĠâĶ":7796,"Ġ64":7797,"then":7798,"infinity":7799,"``:":7800,"Ġcp":7801,"Ġfds":7802,"Ġwor":7803,"Ġincrement":7804,"Ġepoch":7805,"role":7806,"ĠmÃ©":7807,"dig":7808,"coerce":7809,"Ġ'?":7810,"ĠPip":7811,"Ġ\"\\\\":7812,"__[":7813,"Ġdro":7814,"Ġchained":7815,"continuation":7816,"hour":7817,"ĠCA":7818,"ĠCT":7819,"via":7820,"notify":7821,"outgoing":7822,"Ġattached":7823,"Ġdataclass":7824,"ĠWarning":7825,"ĠREP":7826,"Ġwhenever":7827,"datastructures":7828,"Ġitemsize":7829,"feed":7830,"formatted":7831,"Ġfour":7832,"Ġbackward":7833,"Ġbackslash":7834,"hosts":7835,"Ġextraction":7836,"Ġprefixed":7837,"Ġshlex":7838,"binding":7839,"ĠHTTPS":7840,"ĠChecks":7841,"Ġ60":7842,"Ġtransfer":7843,"choice":7844,"spaces":7845,"umeric":7846,"Ġreply":7847,"Ġhigher":7848,"ĠLogRecord":7849,"Ġteardown":7850,"NUM":7851,"Ġshebang":7852,"TemporaryFile":7853,"CURSOR":7854,"Ġunboundop":7855,"recursionlimit":7856,"HANDLE":7857,"Basic":7858,"emoji":7859,"fake":7860,"wind":7861,"yond":7862,"restore":7863,"detect":7864,"``\"\"\"":7865,"ĠIs":7866,"Ġonerror":7867,"Ġrc":7868,"apply":7869,"ĠRich":7870,"collection":7871,"both":7872,"Ġcompar":7873,"Ġ302":7874,"Ġprinting":7875,"forever":7876,"STRE":7877,"argin":7878,"Ġrecv":7879,"Ġperiod":7880,"Ġgenerally":7881,"ĠComple":7882,"angular":7883,"ROM":7884,"Ġauthkey":7885,"sendfile":7886,"stdlib":7887,"expanduser":7888,"columns":7889,"ĠAdditional":7890,"Ġdefines":7891,"IGHT":7892,"Ġstrides":7893,"tabnanny":7894,"123456789":7895,"audit":7896,"Provider":7897,"descriptor":7898,"STREAM":7899,"'%":7900,"'-":7901,"2001":7902,"601":7903,"Pa":7904,"]{":7905,"_(":7906,"browser":7907,"circle":7908,"nte":7909,"nbytes":7910,"ndim":7911,"yanked":7912,"Ã¢":7913,"information":7914,"incomplete":7915,"reverse":7916,"received":7917,"Ġfi":7918,"tices":7919,"Ġttype":7920,"Ġsy":7921,"Ġsal":7922,"Ġscale":7923,"tionItem":7924,"amente":7925,"Ġanimation":7926,"Ġcos":7927,"Ġcont":7928,"Ġdedent":7929,"Ġdevelo":7930,"Ġfileno":7931,"ĠAli":7932,"filedate":7933,"(\">=":7934,"Ġneither":7935,"lists":7936,"tence":7937,"backslash":7938,"ĠMust":7939,"Ġlevels":7940,"Ġimportant":7941,"ĠLO":7942,"ĠHe":7943,"agen":7944,"Ġstreaming":7945,"otherwise":7946,"GetOption":7947,"ĠJinja":7948,"Ġshows":7949,"Ġcustomize":7950,"168":7951,"LIM":7952,"LOAD":7953,"uplicate":7954,"Ġ\"/\"":7955,"ĠUnicodeDecodeError":7956,"phab":7957,"adapter":7958,"realpath":7959,"staticmethod":7960,"Ġprecedence":7961,"ĠStreamReader":7962,"Extract":7963,"GenericAlias":7964,"ĠRECORD":7965,"diciona":7966,"rithmetic":7967,"\"})":7968,"78":7969,"Emax":7970,"EOF":7971,"FR":7972,"Highlight":7973,"Mac":7974,"icon":7975,"ptime":7976,"ora":7977,"align":7978,"Ġnl":7979,"Ġworld":7980,"tional":7981,"unct":7982,"edge":7983,"Ġdiffer":7984,"Ġdeep":7985,"extended":7986,"fileinput":7987,"Ġlocated":7988,"Ġunsupported":7989,"prefer":7990,"usy":7991,"Ġ2822":7992,"pygments":7993,"ĠBecause":7994,"tively":7995,"Ġreads":7996,"Ġimporting":7997,"STD":7998,"Ġoverlap":7999,"Ġsigned":8000,"decoded":8001,"Ġindividual":8002,"threading":8003,"Ġmarked":8004,"warded":8005,"000000":8006,"ĠLookupError":8007,"Ġhighlighting":8008,"Ġidentified":8009,"Ġsense":8010,"Ġassumes":8011,"aliases":8012,"Ġprints":8013,"RAM":8014,"QUI":8015,"QUENCE":8016,"difference":8017,"ĠOrderedDict":8018,"Ġsignificant":8019,"maphore":8020,"(\"\"\"":8021,"92":8022,"Escape":8023,"XDG":8024,"blueprint":8025,"em":8026,"gz":8027,"lon":8028,"stemp":8029,"xde":8030,"include":8031,"decls":8032,"Ġrecor":8033,"Ġreload":8034,"Ġbundle":8035,"ansition":8036,"lipsis":8037,"adding":8038,"()'":8039,"sibilities":8040,"ands":8041,"Ġmeasurement":8042,"Ġdev":8043,"Ġdeli":8044,"Ġentered":8045,"(':":8046,"ĠAbstract":8047,"(\".":8048,"ĠFUNC":8049,"Ġproviding":8050,"Ġmaps":8051,"ĠDD":8052,"Ġunbound":8053,"Ġdefaulting":8054,"ĠMin":8055,"ĠRec":8056,"iza":8057,"latter":8058,"Ġhour":8059,"pie":8060,"subdir":8061,"Extension":8062,"ĠĠĠĠĠĠĠĠĠĠĠĠĠĠĠĠĠĠĠĠĠĠĠĠĠĠĠĠĠĠĠĠĠĠĠĠĠĠĠ":8063,"yped":8064,"Ġstates":8065,"Ġstatespec":8066,"Ġframework":8067,"assertRaisesRegex":8068,"Ġcomma":8069,"Progress":8070,"Ġimports":8071,"imported":8072,"Ġinitialize":8073,"Ġsplitting":8074,"DOM":8075,"Ġretries":8076,"2231":8077,"phrase":8078,"Ġcopies":8079,"Ġreplaces":8080,"Ġparentheses":8081,"rypto":8082,"Cre":8083,"Clear":8084,"EST":8085,"IE":8086,"jump":8087,"rsplit":8088,"shed":8089,"satis":8090,"stri":8091,"Ġbt":8092,"Ġsit":8093,"Ġsix":8094,"Ġsim":8095,"ulation":8096,"ĠPrint":8097,"Ġ\".\"":8098,"Ġbeyond":8099,"Ġexis":8100,"Ġexha":8101,"Ġconcat":8102,"Ġdeta":8103,"pathlib":8104,"\")):":8105,"ĠFallback":8106,"uman":8107,"mous":8108,"processed":8109,"ĠOne":8110,"**(":8111,"Ġshouldn":8112,"Ġcompound":8113,"forms":8114,"Ġurlparse":8115,"solete":8116,"LookupError":8117,"322":8118,"Ġapplications":8119,"(\"/\",":8120,"Ġkeeps":8121,"HEME":8122,"Modi":8123,"Ġgoes":8124,"Ġnecessarily":8125,"ĠGeneric":8126,"Ġ[\"--":8127,"Ġtried":8128,"ATED":8129,"ĠDoes":8130,"Ġsymbolic":8131,"Ġoverrides":8132,"Ġdecla":8133,"decorator":8134,"Otherwise":8135,"onymous":8136,"ĠCopy":8137,"\"')":8138,"*,":8139,"Action":8140,"IF":8141,"Output":8142,"PK":8143,"SK":8144,"Tra":8145,"Ġlatter":8146,"restart":8147,"Ġao":8148,"Ġcle":8149,"ertificate":8150,"Ġtaking":8151,"Ġrepro":8152,"Ġpus":8153,"Ġedi":8154,"lier":8155,"fiable":8156,"Ġengine":8157,"Ġga":8158,"Ġpast":8159,"ĠAIX":8160,"Ġ*(":8161,"Ġ17":8162,"Ġunquoted":8163,"ĠEmpty":8164,"Count":8165,"Ġadap":8166,"ĠWri":8167,"ĠMac":8168,"Ġtimed":8169,"ĠVCS":8170,"headerlen":8171,"Ġupgrade":8172,"outer":8173,"splitlist":8174,"Ġservers":8175,"Ġoverwrite":8176,"Ġregression":8177,"canv":8178,"minimum":8179,"125":8180,"FFER":8181,"COOK":8182,"Ġunderscore":8183,"connected":8184,"escaped":8185,"Decomp":8186,"LOW":8187,"BUFFER":8188,"Ġscore":8189,"Ġsetuptools":8190,"Ġproduced":8191,"altsep":8192,"Host":8193,"Ġannotation":8194,"unique":8195,"Ġtruncated":8196,"scrollcommand":8197,"alculate":8198,"Ġwildcards":8199,"guides":8200,"callers":8201,"Ġignoring":8202,"Ġexemplos":8203,"RIPT":8204,"flatten":8205,"Ġtested":8206,"COOKIE":8207,"54":8208,"??":8209,"LL":8210,"Mark":8211,"Vi":8212,"clean":8213,"dummy":8214,"glibc":8215,"ktop":8216,"uard":8217,"yy":8218,"zz":8219,"inv":8220,"instruction":8221,"incoming":8222,"Ġfar":8223,"Ġreuse":8224,"Ġbusy":8225,"assignment":8226,"Ġmsv":8227,"Ġmilli":8228,"Ġcome":8229,"quot":8230,"quotes":8231,"cript":8232,"Ġlisting":8233,"Ġnotify":8234,"Ġ24":8235,"pycache":8236,"acter":8237,"ĠBdb":8238,"Ġcompact":8239,"ĠInteractive":8240,"formats":8241,"Ġupon":8242,"']):":8243,"['__":8244,"Ġkernel":8245,"shlex":8246,"DELETE":8247,"Ġkeywords":8248,"ĠKeyboardInterrupt":8249,"socks":8250,"NODE":8251,"ĠProtocol":8252,"ĠState":8253,"Ġkept":8254,"kipping":8255,"Ġ90":8256,"builtins":8257,"('/')":8258,"Ġestabli":8259,"Ġquick":8260,"Ġcalculated":8261,"darwin":8262,"weekday":8263,"different":8264,"mensions":8265,"Ġpermissions":8266,"Ġdetailed":8267,"Ġmsvcrt":8268,"942":8269,">\")":8270,"Dist":8271,"GTH":8272,"Layout":8273,"Pas":8274,"RUN":8275,"cread":8276,"dn":8277,"dyn":8278,"kl":8279,"since":8280,"tunnel":8281,"Ġten":8282,"Ġ\\\\":8283,"through":8284,"Ġam":8285,"Ġrestart":8286,"Ġreloader":8287,"Ġpl":8288,"Ġpull":8289,"Ġinline":8290,"Ġeq":8291,"Ġeager":8292,"loss":8293,"riment":8294,"pair":8295,"pep":8296,"Redirect":8297,"Requires":8298,"Ġmeth":8299,"parm":8300,"cond":8301,"conds":8302,"ĠSame":8303,"ĠSave":8304,"Ġrf":8305,"Ġuncompressed":8306,"typeid":8307,"Ġweb":8308,"ĠMRO":8309,"dataset":8310,"Ġlead":8311,"wake":8312,"ĠLZMA":8313,"Ġroute":8314,"Ġactiv":8315,"Ġlate":8316,"charmap":8317,"Ġbackup":8318,"Ġcolorizing":8319,"Encoder":8320,"possibly":8321,"ENO":8322,"Ġensures":8323,"UNSET":8324,"Ġforms":8325,"ĠParser":8326,"oseconds":8327,"Ġreflect":8328,"Ġrendering":8329,"chosen":8330,"Ġattempting":8331,"Attribute":8332,"valuator":8333,"Ġbuttons":8334,"Ġstats":8335,"ĠNOTE":8336,"Ġobtained":8337,"ĠZipFile":8338,"Ġpencolor":8339,"Ġdiscard":8340,"ĠMyClass":8341,"MODE":8342,"Ġletter":8343,"ĠTOML":8344,"provider":8345,"ĠSpecifierSet":8346,"awaited":8347,"middle":8348,"AUTH":8349,"QUIRED":8350,"dynload":8351,")],":8352,"96":8353,"Bind":8354,"BIT":8355,"SMTP":8356,"Turtle":8357,"Try":8358,"eager":8359,"ilobj":8360,"yter":8361,"Ġcb":8362,"Ġfre":8363,"Ġfaster":8364,"Ġ=>":8365,"liant":8366,"Ġ_(\"":8367,"upyter":8368,"Ġguessed":8369,"('')":8370,"ĠFROM":8371,"Ġmacos":8372,"Ġ``--":8373,"prepared":8374,"opener":8375,"quiet":8376,"backup":8377,"percent":8378,"Ġexpects":8379,"dataclass":8380,"ront":8381,"latlib":8382,"Ġhowever":8383,"agic":8384,"SITE":8385,"foobar":8386,"lengths":8387,"Ġvalidation":8388,"Ġ{},":8389,"Ġfiltered":8390,"Ġimpro":8391,"ĠEnviron":8392,"ĠAttributes":8393,"ĠResult":8394,"Determine":8395,"monotonic":8396,"Ġsearching":8397,"RuntimeError":8398,"structed":8399,"compiler":8400,"Conflict":8401,"Ġgui":8402,"SHORT":8403,"cells":8404,"ĠStringIO":8405,"ĠCalls":8406,"Ġduplicate":8407,"Ġalternate":8408,"ĠMetadata":8409,"adjusted":8410,"borderwidth":8411,"ypedDict":8412,"'',":8413,")<":8414,"/\",":8415,"API":8416,"NECT":8417,"Pure":8418,"Sign":8419,"Wrap":8420,"ava":8421,"ia":8422,"vcs":8423,"vector":8424,"zes":8425,"Ã¤":8426,"reloader":8427,"leport":8428,"erro":8429,"Ġretained":8430,"Ġslow":8431,"Ġsurro":8432,"Ġ\"\"\"*":8433,"Ġansi":8434,"ĠPlatformDirs":8435,"ching":8436,"chained":8437,"Ġconditional":8438,"amt":8439,"ĠIMAP":8440,"conversion":8441,"Ġ13":8442,"ĠThey":8443,"ĠDST":8444,"ĠRGB":8445,"linkname":8446,"penas":8447,"Ġcomputed":8448,"little":8449,"Ġspecifiers":8450,"Ġendrec":8451,"STANDARD":8452,"REPL":8453,"Ġcoro":8454,"Ġvariance":8455,"Ġinterpreters":8456,"Ġprefixes":8457,"Ġshut":8458,"COD":8459,"Ġtermios":8460,"Ġdecorating":8461,"Ġchunksize":8462,"prior":8463,"ĠĠĠĠĠĠĠĠĠĠĠĠĠĠĠĠĠĠĠĠĠĠĠĠĠĠĠĠĠĠĠĠĠĠĠĠĠ":8464,"while":8465,"tracer":8466,"ĠDelete":8467,"00000000":8468,"Ġreleases":8469,"Ġcorresponds":8470,"automatic":8471,"8888":8472,"ĠIDs":8473,"ĠPYTHON":8474,"IndexError":8475,"ansient":8476,"handshake":8477,"Raised":8478,"':'#":8479,"rackets":8480,"XMLRPC":8481,"Ġservice":8482,"asyncio":8483,"constraint":8484,"thook":8485,"Ġreceiving":8486,"Ġresposta":8487,"Ġoppo":8488,"PositionalsNargs":8489,"disposition":8490,"'ve":8491,")-":8492,"110":8493,"?\"":8494,"Done":8495,"DATE":8496,"ES":8497,"Err":8498,"Import":8499,"Pipe":8500,"Sum":8501,"apt":8502,"crop":8503,"dx":8504,"gories":8505,"pc":8506,"though":8507,"Ġcte":8508,"Ġflus":8509,"Ġrecognized":8510,"Ġbare":8511,"Ġsin":8512,"Ġwatch":8513,"Ġinject":8514,"aned":8515,"rol":8516,"Ġiso":8517,"Ġmutable":8518,"__'":8519,"__))":8520,"Ġduration":8521,"lays":8522,"Ġconv":8523,"',))":8524,"ĠAuto":8525,"ĠSyntax":8526,"ĠSimilar":8527,"scall":8528,"filepath":8529,"Ġ``~/":8530,"ables":8531,"ĠDO":8532,"Ġunspecified":8533,"opname":8534,"propagate":8535,"ĠRo":8536,"perm":8537,"linked":8538,"Ġcontexts":8539,"ERS":8540,"INTER":8541,"directories":8542,"Ġnonlocal":8543,"Enter":8544,"ĠUnpack":8545,"Names":8546,"executor":8547,"ĠSets":8548,"showerror":8549,"Ġbounds":8550,"Ġoccurrence":8551,"ĠYields":8552,"({'":8553,"Ġoptparse":8554,"ĠEOFError":8555,"Ġreasons":8556,"seekable":8557,"simplefilter":8558,"ĠExpect":8559,"handling":8560,"ximation":8561,"ĠClassNotFound":8562,"Ġstale":8563,"dependencies":8564,"necessary":8565,"(<":8566,"46":8567,"Ar":8568,"CEL":8569,"HTML":8570,"PUT":8571,"SSION":8572,"dual":8573,"ias":8574,"ming":8575,"ude":8576,"inherit":8577,"rename":8578,"Ġaware":8579,"urn":8580,"Ġpwd":8581,"anner":8582,"()->":8583,"serving":8584,"Ġconstruction":8585,"spection":8586,"Ġfilepath":8587,"Ġmapped":8588,"Ġrank":8589,"umb":8590,"mote":8591,"appcontext":8592,"Ġkeyset":8593,"Ġpreference":8594,"ĠUses":8595,"ĠRPC":8596,"tempts":8597,"Ġlogits":8598,"Ġabis":8599,"REQUIRED":8600,"Ġmanage":8601,"Ġmultip":8602,"Ġgenerating":8603,"Ġbuffers":8604,"Ġoffsets":8605,"Ġerrwrite":8606,"exitcode":8607,"Ġfilled":8608,"Ġ1024":8609,"ANCEL":8610,"Ġidentical":8611,"SCHEME":8612,"Ġ'-'":8613,"ĠParam":8614,"Ġimages":8615,"ĠOnce":8616,"ĠLocation":8617,"bufsize":8618,"Ġinvol":8619,"records":8620,"transfer":8621,"ĠUNIX":8622,"ĠPositional":8623,"ĠNormalize":8624,"Suite":8625,"ĠTimeoutError":8626,"Ġprepend":8627,"\">%":8628,"*(":8629,"28":8630,"55":8631,"AIL":8632,"CU":8633,"CTION":8634,"Guard":8635,"RC":8636,"Sample":8637,"embed":8638,"gdb":8639,"pboard":8640,"sl":8641,"uations":8642,"xfe":8643,"Ġserve":8644,"interactive":8645,"requested":8646,"Ġrespec":8647,"Ġbas":8648,"Ġslashes":8649,"atal":8650,"unsupported":8651,"looks":8652,"coords":8653,"()\")":8654,"__']":8655,"Ġextend":8656,"peer":8657,"Ġsecurity":8658,"Ġhold":8659,"Ġstrong":8660,"Ġgid":8661,"ĠSU":8662,"ĠSection":8663,"sched":8664,"ĠCom":8665,"Ġproduces":8666,"ĠEnd":8667,"Ġargval":8668,"Ġyielding":8669,"resume":8670,"ĠBasic":8671,"nearest":8672,"Ġsubpath":8673,"Ġsubdir":8674,"Ġcollected":8675,"Ġacquire":8676,"Ġnonzero":8677,"Ġprocessor":8678,"Ġshallow":8679,"findall":8680,"canvas":8681,"Ġminimal":8682,"128":8683,"Loop":8684,"typed":8685,"prime":8686,"ĠProgress":8687,"ĠBaseDistribution":8688,"LIB":8689,"Ġapproxim":8690,"ĠLook":8691,"Ġaccessing":8692,"skipTest":8693,"SOURCE":8694,"Ġfraction":8695,"Prefix":8696,"samples":8697,"ĠRaised":8698,"Ġhexdigest":8699,"ĠPOST":8700,"Ġconstants":8701,"Ġannotations":8702,"Override":8703,"ĠSOCK":8704,"Ġfigure":8705,")+":8706,"08":8707,";\")":8708,"Blueprint":8709,"CRE":8710,"Cursor":8711,"LA":8712,"XY":8713,"[\\":8714,"_=":8715,"af":8716,"blog":8717,"pl":8718,"trieve":8719,"vOptions":8720,"watch":8721,"rer":8722,"Ġapenas":8723,"stic":8724,"Ġcid":8725,"Ġtty":8726,"urlen":8727,"inger":8728,"Ġsnapshot":8729,"Ġstand":8730,"isnan":8731,"Ġ\"&":8732,"pares":8733,"Ġconsec":8734,"itoring":8735,"Ġdisco":8736,"ctionaries":8737,"Ġenforce":8738,"exclu":8739,"appro":8740,"prereleases":8741,"pretty":8742,"errorhandler":8743,"Ġpoll":8744,"Const":8745,"cape":8746,"Insensitive":8747,"period":8748,"about":8749,"izador":8750,"ĠRetorna":8751,"Ġmaybe":8752,"Ġmaxlen":8753,"states":8754,"MAN":8755,"Ġremoving":8756,"paste":8757,"Ġdescribing":8758,"tagged":8759,"rawunicodeescape":8760,"authenticate":8761,"Ġmocks":8762,"digestmod":8763,"DOWN":8764,"Ġtransform":8765,"Ġactions":8766,"entity":8767,"Ġremains":8768,"Buffered":8769,"reshold":8770,"sisten":8771,"Dataset":8772,"phase":8773,"Ġcertificates":8774,"ĠKeep":8775,"hexdigest":8776,"ĠExpected":8777,"Ġesti":8778,"231":8779,"Ġbrowsers":8780,"Ġswitch":8781,"Ġtruncate":8782,"CacheControl":8783,"ĠQuery":8784,"ĠOverflowError":8785,"Ġlexers":8786,"ImmutableMultiDict":8787,"wiki":8788,"phabet":8789,"FRAME":8790,"94215":8791,"schedule":8792,"InsensitiveDict":8793,"!\"":8794,"201":8795,"BLOCK":8796,"Emin":8797,"Func":8798,"JECT":8799,"PAR":8800,"Syntax":8801,"dns":8802,"rw":8803,"{'":8804,"Ġfake":8805,"arse":8806,"Ġbs":8807,"Ġincompatible":8808,"asing":8809,"road":8810,"racing":8811,"()``,":8812,"Ġforwarded":8813,"Ġ(*":8814,"Ġcontin":8815,"ambig":8816,"Reset":8817,"Ġpause":8818,"ational":8819,"ationError":8820,"keyset":8821,"keywords":8822,"Ġ...,":8823,"Ġundefined":8824,"ĠOutput":8825,"Ġadjust":8826,"ĠUsage":8827,"calc":8828,"ĠWheel":8829,"lsb":8830,"Ġhasn":8831,"ĠRE":8832,"acent":8833,"Ġlazy":8834,"Ġlisted":8835,"dentifier":8836,"compute":8837,"REQ":8838,"signum":8839,"Ġprovider":8840,"'\\\\":8841,"Ġ500":8842,"Ġminus":8843,"Ġsingleton":8844,"Ġimpl":8845,"Ġshowing":8846,"Ġreqs":8847,"Ġoctet":8848,"Posix":8849,"Ġapproximation":8850,"Ġfailobj":8851,"ĠStyleType":8852,"ĠSpan":8853,"Ġsafely":8854,"ĠSSLContext":8855,"ĠLines":8856,"Ġaccepting":8857,"Ġkeeping":8858,"Ġcallers":8859,"ĠApply":8860,"goto":8861,"initialized":8862,"ĠINDEX":8863,"ĠRegister":8864,"Resources":8865,"Ġdescend":8866,"Ġretrieved":8867,"keepends":8868,"frozenset":8869,"Ġcombine":8870,"ĠInstallationError":8871,"expandingbuttons":8872,"roadcast":8873,"EIN":8874,"NAN":8875,"Size":8876,"Work":8877,"aware":8878,"fresh":8879,"language":8880,"nans":8881,"pment":8882,"pic":8883,"{}":8884,"thandler":8885,"les":8886,"leader":8887,"orate":8888,"Ġireq":8889,"Ġiterate":8890,"\"\".":8891,"Ġcentral":8892,"arquivo":8893,"Ġnative":8894,"ceive":8895,"Ġtol":8896,"Ġmas":8897,"raiz":8898,"ulthandler":8899,"Ġstatistics":8900,"isinfinity":8901,"Ġ\":":8902,"Ġ\"@":8903,"pam":8904,"Ġexpre":8905,"lazy":8906,"ito":8907,"math":8908,"Ġdiag":8909,"Ġchallenge":8910,"Ġdenominator":8911,"concurrent":8912,"toward":8913,"existent":8914,"ĠFrom":8915,"settrace":8916,"setLevel":8917,"nodes":8918,"ĠDOM":8919,"Ġgetpath":8920,"Ġallo":8921,"Ġyanked":8922,"cab":8923,"ĠNeed":8924,"pypa":8925,"ĠRO":8926,"book":8927,"izable":8928,"Ġcodename":8929,"Ġchardet":8930,"ĠHashes":8931,"feature":8932,"submodule":8933,"Ġuploaded":8934,"ĠRevOptions":8935,"=''):":8936,"loading":8937,"components":8938,"ContextManager":8939,"']),":8940,"Ġconfigparser":8941,"checkpoint":8942,"ORTED":8943,"userCfg":8944,"FileLoader":8945,"installer":8946,"minus":8947,"Ġ{}\".":8948,"Ġterminfo":8949,"Ġtracing":8950,"1111":8951,"UNIX":8952,"Ġassuming":8953,"Ġfdst":8954,"MPLE":8955,"HelpFormatter":8956,"ĠUnicodeError":8957,"lexers":8958,"Display":8959,"Alt":8960,"ĠPassing":8961,"ĠSkipTest":8962,"Ġinstantiating":8963,"Quit":8964,"Ġdetection":8965,"Ġeasi":8966,"Overflow":8967,"Ġoptimization":8968,"Ġsatisfy":8969,"Matcher":8970,"alcula":8971,"Ġpurpose":8972,"Ġidentifying":8973,"Ġlsb":8974,"assertNotIn":8975,"Ġ'*'":8976,"START":8977,"Ġexpandingbutton":8978,"ryptograph":8979,"rimento":8980,"ANCELLED":8981,".{":8982,"Literal":8983,"Pri":8984,"]\"":8985,"because":8986,"cget":8987,"croll":8988,"dup":8989,"native":8990,"slices":8991,"Ġcss":8992,"Ġredirected":8993,"Ġinfer":8994,"Ġeli":8995,"Ġefficient":8996,"rix":8997,"rion":8998,"()}":8999,"()`.":9000,"()``.":9001,"Ġ'..":9002,"')):":9003,"sparse":9004,"Ġdetail":9005,"contra":9006,"('\\\\":9007,"ĠSu":9008,"soon":9009,"Ġsoon":9010,"Ġmoved":9011,"Ġkeyed":9012,"Ġ22":9013,"capa":9014,"ĠRange":9015,"Ġlaunch":9016,"sources":9017,"lify":9018,"curframe":9019,"Ġargspec":9020,"TENT":9021,"Ġmanip":9022,"waitpid":9023,"openssl":9024,"ously":9025,"ĠJust":9026,"Ġloops":9027,"Location":9028,"Ġbinascii":9029,"ifest":9030,"Ġnamedtuple":9031,"Sets":9032,"LIC":9033,"Ġspecialized":9034,"legal":9035,"metavar":9036,"ĠSource":9037,"Ġautomatic":9038,"Ġidentifiers":9039,"Ġsensitive":9040,"Ġbegins":9041,"EXTEN":9042,"ĠUnicodeEncodeError":9043,"[[],":9044,"ĠBuil":9045,"summary":9046,"frac":9047,"SUPP":9048,"Ġaway":9049,"ĠPass":9050,"StreamHandler":9051,"divmod":9052,"Ġpacked":9053,"ĠOverride":9054,"JSONDecodeError":9055,"Ġtriplet":9056,"Ġevaluated":9057,"DLL":9058,"Ġbranch":9059,"Ġsemi":9060,"ĠSupport":9061,")}\"":9062,"400":9063,"91":9064,"Abstract":9065,"Closed":9066,"Font":9067,"Int":9068,"Image":9069,"JUNK":9070,"Lines":9071,"dy":9072,"ib":9073,"she":9074,"tol":9075,"yli":9076,"rejected":9077,"teria":9078,"orm":9079,"Ġflist":9080,"Ġbunch":9081,"Ġindented":9082,"ced":9083,"dictionary":9084,"utDown":9085,"Ġstorage":9086,"Ġ'&":9087,"isual":9088,"ĠPIP":9089,"../":9090,"chat":9091,"Ġcomo":9092,"Ġconvenience":9093,"Ġhidden":9094,"Ġhalf":9095,"Required":9096,"isect":9097,"sper":9098,"('__":9099,"ĠAr":9100,"ĠSession":9101,"ĠSHA":9102,"vents":9103,"Ġrmtree":9104,"Ġhello":9105,"dbRepr":9106,"criteria":9107,"Ġgetting":9108,"profile":9109,"ĠWorld":9110,"__(*":9111,"---":9112,"pensize":9113,"Ġcaching":9114,"locking":9115,"Ġacquired":9116,"Ġlr":9117,"Ġanyway":9118,"Exists":9119,"statement":9120,"crete":9121,"LEN":9122,"Ġintermediate":9123,"interrupt":9124,"matcher":9125,"weights":9126,"Ġopcodes":9127,"rective":9128,"generation":9129,"whl":9130,"ACTER":9131,"Ġ'.':":9132,"ĠMove":9133,"annotate":9134,"Ġentities":9135,"Ġlayer":9136,"zoneinfo":9137,"('/',":9138,"CliRunner":9139,"HOST":9140,"Hook":9141,"ENDS":9142,"Tokenizer":9143,"Ġemitted":9144,"Executor":9145,"Ġevaluate":9146,"--------------------------------":9147,"serialize":9148,"Ġwildcard":9149,"assertGdbRepr":9150,"Ġ'\"':":9151,"utcoffset":9152,"ExistsError":9153,"Ab":9154,"ELE":9155,"Iterate":9156,"Large":9157,"NE":9158,"Press":9159,"RST":9160,"[::":9161,"]',":9162,"][:":9163,"bl":9164,"dtemp":9165,"hlo":9166,"hidden":9167,"iri":9168,"margin":9169,"pyshell":9170,"rfind":9171,"rmtree":9172,"tt":9173,"inds":9174,"decess":9175,"Ġps":9176,"attach":9177,"Ġindependent":9178,"ana":9179,"unset":9180,"hest":9181,"Ġstar":9182,"ishes":9183,"getint":9184,"peg":9185,"\",\"":9186,"ĠStr":9187,"ĠScreen":9188,"busy":9189,"Ġnearest":9190,"ĠFailed":9191,"Ġloc":9192,"ptr":9193,"etf":9194,"virt":9195,"ellipsis":9196,"ighest":9197,"nores":9198,"ĠEX":9199,"Ġargparse":9200,"quality":9201,"ĠMAX":9202,"Ġexpr":9203,"Ġrouting":9204,"defaultCfg":9205,"ĠInitial":9206,"Ġbacktrack":9207,"iterdir":9208,"Filename":9209,"Ġopname":9210,"Setup":9211,"sendall":9212,"blocked":9213,"sections":9214,"variate":9215,"fsdecode":9216,"Ġhighlightbackground":9217,"ĠPrepare":9218,"Ġcancellation":9219,"(?:":9220,"variables":9221,"ĠHost":9222,"isolation":9223,"justify":9224,"ĠDEBUG":9225,"ConfigParser":9226,"Ġreporting":9227,"Short":9228,"CHARACTER":9229,"ĠCONNECT":9230,"Ġleaves":9231,"ĠDecode":9232,"Correct":9233,"BSD":9234,"ĠPipSession":9235,"unctuation":9236,"Summary":9237,"!\\":9238,")``.":9239,"CC":9240,"COR":9241,"IST":9242,"Less":9243,"Pick":9244,"Uri":9245,"VI":9246,"_*":9247,"av":9248,"bot":9249,"css":9250,"tcl":9251,"xFFFF":9252,"Ð²":9253,"Ġ,":9254,"Ġ999":9255,"semb":9256,"star":9257,"stmt":9258,"oriz":9259,"Ġthus":9260,"Ġthird":9261,"mero":9262,"ĠcÃ³":9263,"Ġpatched":9264,"Ġbd":9265,"Ġwintypes":9266,"unless":9267,"unsafe":9268,"Ġmmap":9269,"litem":9270,"utures":9271,"sistant":9272,"Ġ'!',":9273,"ĠTree":9274,"chown":9275,"Ġutility":9276,"Ġdictionaries":9277,"ĠIdle":9278,"Ġchown":9279,"strftime":9280,"ĠAdiciona":9281,"keyring":9282,"ĠFast":9283,"ĠFilter":9284,"settimeout":9285,"readlines":9286,"Ġunlink":9287,"Ġmodern":9288,"ops":9289,"Ġkeychain":9290,"Ġ29":9291,"linkfrom":9292,"Ġoutfile":9293,"Ġactivate":9294,"Ġlogin":9295,"Ġlogged":9296,"ĠIncremental":9297,"Ġld":9298,"termui":9299,"Ġmaxheaderlen":9300,"curdir":9301,"Ġwasn":9302,"charbuffer":9303,"colormode":9304,"Ġoutputs":9305,"traced":9306,"RLF":9307,"interface":9308,"Ġhosts":9309,"Ġcolorize":9310,"distutils":9311,"Ġgeneral":9312,"finish":9313,"Ġhashname":9314,"normalizer":9315,"ĠDesired":9316,"0000000":9317,"]]):":9318,"Ġ&=":9319,"ĠAssert":9320,"Ġdots":9321,"ĠAlways":9322,"Apply":9323,"Ġappropriately":9324,"ServerError":9325,"tarfile":9326,"Ġlongest":9327,"fillcolor":9328,"Template":9329,"Ġturns":9330,"ĠPassed":9331,"Ġcleaned":9332,"ixels":9333,"TimeoutError":9334,"counts":9335,"erialize":9336,"Ġdisplays":9337,"layouts":9338,"DocTestRunner":9339,"Ãºmero":9340,"Ġprotocols":9341,"ĠParameterSource":9342,"blueprints":9343,"Ġstamp":9344,"Ġlistener":9345,"ĠTemporary":9346,"conflict":9347,"converter":9348,"Ġscrollbar":9349,"Ġdestroyed":9350,"Barrier":9351,"maybe":9352,"Ġscheduled":9353,"ĠMenubutton":9354,"scripts":9355,"definition":9356,"ingerprint":9357,"Ġconsecutive":9358,"Ġeasier":9359,"UriType":9360,"$\",":9361,"/.":9362,">{":9363,"Cent":9364,"Callback":9365,"WARNING":9366,"df":9367,"elapsed":9368,"hit":9369,"jpeg":9370,"survi":9371,"Ġri":9372,"infinite":9373,"Ġau":9374,"Ġcri":9375,"Ġcla":9376,"Ġftp":9377,"Ġwake":9378,"Ġinsertion":9379,"Ġes":9380,"unregister":9381,"oned":9382,"Ġconstructed":9383,"Ġhighest":9384,"Ġmeasure":9385,"strptime":9386,"ĠĠĠĠĠĠĠĠĠĠĠĠĠĠĠĠĠĠĠĠĠĠĠĠĠĠĠĠĠĠĠĠĠĠĠĠĠĠĠĠ":9387,"Ġ...]:":9388,"Ġunfinished":9389,"Ġalone":9390,"such":9391,"ĠMU":9392,"ĠMail":9393,"ĠBe":9394,"ĠBOM":9395,"teraction":9396,"ĠHash":9397,"ternative":9398,"Ġcontainers":9399,"INI":9400,"Expi":9401,"contextmanager":9402,"Ġ48":9403,"colorizing":9404,"functions":9405,"Ġfailing":9406,"994":9407,"izedName":9408,"ĠHTTPResponse":9409,"tagName":9410,"packed":9411,"supplied":9412,"FIED":9413,"ĠEncoding":9414,"HTTPResponse":9415,"Search":9416,"Ġseparately":9417,"ĠDebug":9418,"Point":9419,"SSLError":9420,"509":9421,"TERM":9422,"Ġpickled":9423,"CONTENT":9424,"WWW":9425,"Ġqualified":9426,"Ġretrieve":9427,"Ġadjusted":9428,"Ġsucceeds":9429,"ĠConverting":9430,"ĠMethods":9431,"consume":9432,"ĠSystemExit":9433,"ENOENT":9434,"05":9435,"Be":9436,"BACK":9437,"DN":9438,"DTD":9439,"Ext":9440,"Triple":9441,"Yields":9442,"ZIP":9443,"ZeroDivisionError":9444,"aix":9445,"broken":9446,"banner":9447,"evaluate":9448,"iB":9449,"ici":9450,"ietf":9451,"mup":9452,"musl":9453,"wr":9454,"Ð³":9455,"Ð¶":9456,"reference":9457,"recognized":9458,"Ġage":9459,"Ġident":9460,"metro":9461,"Ġresi":9462,"Ġbrackets":9463,"Ġsdist":9464,"Ġespeci":9465,"unbound":9466,"Ġtools":9467,"Ġtodos":9468,"adas":9469,"sidl":9470,"Ġ'='":9471,"xtures":9472,"Ġuint":9473,"__!":9474,"Ġexten":9475,"Ġsequ":9476,"Ġha":9477,"ĠIS":9478,"upgrade":9479,"Ġdeci":9480,"Ġdecay":9481,"('\"":9482,"Ġpax":9483,"too":9484,"Ġbypassed":9485,"dotenv":9486,"Ġlogs":9487,"assertLess":9488,"Ġ[[":9489,"Ġ[(\"":9490,"Ġexceeded":9491,"Ġsoft":9492,"ĠDef":9493,"Ġunlike":9494,"mmon":9495,"ĠObject":9496,"ĠNexus":9497,"TestResult":9498,"Inner":9499,"attrtext":9500,"ĠBlueprint":9501,"STEM":9502,"MET":9503,"Ġtherefore":9504,"ousands":9505,"localtime":9506,"duction":9507,"Ġhttplib":9508,"Ġremoves":9509,"Ġsomeone":9510,"COORD":9511,"Ġiterables":9512,"sencode":9513,"multiprocessing":9514,"Ġhashing":9515,"rouge":9516,"many":9517,"Ġarchite":9518,"Ġhighlightcolor":9519,"valex":9520,"grams":9521,"SOLE":9522,"autospec":9523,"204":9524,"Ġ128":9525,"Ã©m":9526,"Ġrepl":9527,"Ġreasonable":9528,"Access":9529,"Ġconditions":9530,"UEST":9531,"Items":9532,"Ġshortcut":9533,"ĠChange":9534,"SUFF":9535,"Ġweekday":9536,"Installation":9537,"Ġweakref":9538,"Ġtracker":9539,"ĠGeneratorExit":9540,"triplet":9541,"Ġshear":9542,"Ġcombination":9543,"Ġposixpath":9544,"COLORIZE":9545,"Ġearlier":9546,"SecurityPolicy":9547,"APPDATA":9548,"ĠFILE":9549,"structured":9550,"Ġmaintain":9551,"Ġtwice":9552,"ĠREPL":9553,"Ã¢metro":9554,"Ġdevelopment":9555,"Ġrecorded":9556,"Ġpushed":9557,"Ġestilo":9558,"ryptography":9559,"EXTENSION":9560,"sembly":9561,"Triplet":9562,"39":9563,"73":9564,"=\"\")":9565,"Back":9566,"Fa":9567,"Float":9568,"KT":9569,"Kw":9570,"Number":9571,"PEP":9572,"Save":9573,"Script":9574,"VT":9575,"VALUE":9576,"Widget":9577,"]).":9578,"_'":9579,"bet":9580,"ie":9581,"ives":9582,"mul":9583,"}+":9584,"Ġ())":9585,"Ġ(),":9586,"Ġagent":9587,"tected":9588,"deps":9589,"Ġpyshell":9590,"Ġwm":9591,"Ġwsgi":9592,"Ġintern":9593,"ntl":9594,"lost":9595,"Ġstrate":9596,"islink":9597,"__\"):":9598,"magic":9599,"ĠSTR":9600,"Ġratios":9601,"Ġbypass":9602,"pow":9603,"prop":9604,"provide":9605,"Ġspans":9606,"Ġpress":9607,"ĠUsing":9608,"ributed":9609,"ĠVeri":9610,"Ġleaving":9611,"cessible":9612,"Ġsubcommand":9613,"ĠLayout":9614,"Ġaccessible":9615,"Ġcheckers":9616,"comparison":9617,"comb":9618,"FileType":9619,"namespaces":9620,"Ġworkers":9621,"ENTI":9622,"Ġlinked":9623,"installation":9624,"minate":9625,"minute":9626,"ditionally":9627,"Produce":9628,"recent":9629,"Lookup":9630,"Ġshare":9631,"Ġclicked":9632,"ACL":9633,"Ġ['',":9634,"SCRIPT":9635,"rgb":9636,"IDLE":9637,"ĠJSONDecodeError":9638,"BaseException":9639,"DOUT":9640,"LOB":9641,"Ġtransparent":9642,"Ġavoids":9643,"Ġpopup":9644,"heads":9645,"Ġterminated":9646,"Ġterminating":9647,"ĠLogger":9648,"ĠDisable":9649,"ĠZipInfo":9650,"Ġpreceding":9651,"PoolExecutor":9652,"Ġreleased":9653,"Should":9654,"Ġdelegate":9655,"ĠHeaders":9656,"Ġcombined":9657,"Ġrectangular":9658,"Ġnanoseconds":9659,"Ġcomparing":9660,"Ġsyscall":9661,"agicMock":9662,"ambiguous":9663,"ELEMENT":9664,"'\",":9665,"(\"\",":9666,",[":9667,"=='":9668,"FD":9669,"Fe":9670,"GEN":9671,"More":9672,"Ob":9673,"Pattern":9674,"Since":9675,"Using":9676,"ais":9677,"ags":9678,"apre":9679,"batches":9680,"dunder":9681,"fro":9682,"fsencode":9683,"holder":9684,"ible":9685,"oom":9686,"obs":9687,"sÃ£o":9688,"tod":9689,"xn":9690,"Î¸":9691,"ontal":9692,"inct":9693,"reload":9694,"selves":9695,"urable":9696,"Ġpw":9697,"Ġpty":9698,"Ġpadded":9699,"Ġincremental":9700,"Ġmro":9701,"lits":9702,"adjust":9703,"Ġ(~":9704,"ĠPRE":9705,"ĠPAT":9706,"lace":9707,"Ġconcaten":9708,"Ġhuman":9709,"Ġassignment":9710,"')])":9711,"Ġdevi":9712,"Ġger":9713,"\")[":9714,"(\"=":9715,"Ġnear":9716,"ĠĠĠĠĠĠĠĠĠĠĠĠĠĠĠĠĠĠĠĠĠĠĠĠĠĠĠĠĠĠĠĠĠĠĠĠĠĠĠĠĠĠĠĠĠ":9717,"Ġpartition":9718,"Ġ``$":9719,"Ġ``-":9720,"Ġ[('":9721,"mencode":9722,"Ġunregister":9723,"Ġunhandled":9724,"ĠEIN":9725,"Ġspin":9726,"Conversion":9727,"ĠRecur":9728,"Testing":9729,"pencolor":9730,"terates":9731,"Ġcalendar":9732,"clt":9733,"clone":9734,"logo":9735,"Ġabc":9736,"newlines":9737,"Ġinterrupt":9738,"Ġinterpolation":9739,"Ġinterrupted":9740,"interpolation":9741,"Ġcolormode":9742,"://{":9743,"ĠvalidaÃ§Ã£o":9744,"buffering":9745,"Ġ5322":9746,"bell":9747,"124":9748,"refer":9749,"topic":9750,"Ġunderscores":9751,"Ġclosest":9752,"Storage":9753,"Ġtagname":9754,"Ġcallables":9755,"suppress":9756,"SESSION":9757,"HTTPConnection":9758,"completeRead":9759,"hashlib":9760,"Ġfinding":9761,"Ġfinds":9762,"monitoring":9763,"targetpath":9764,"ĠParameters":9765,"XXX":9766,"ĠFileExistsError":9767,"PROG":9768,"Mode":9769,"Ġpopulated":9770,"ArgumentParser":9771,"Ġnumerically":9772,"ĠColorSystem":9773,"ĠSubclasses":9774,"Ġestim":9775,"Registers":9776,"chronize":9777,"StateError":9778,"Ġfalls":9779,"ĠCache":9780,"Ġseverity":9781,"Ġquality":9782,"ĠSequenceMatcher":9783,"tearDown":9784,"ffffff":9785,"VARS":9786,"Ġcloses":9787,"ĠCharset":9788,"LANK":9789,"Ġsummary":9790,"TooLarge":9791,"unbounditems":9792,"ĠTestResults":9793,"backslashreplace":9794,"LIMIT":9795,"satisfied":9796,"vectorcall":9797,"CODING":9798,"decessors":9799,"orizontal":9800,"METADATA":9801,"SUFFIX":9802,"LOBAL":9803,"apreplace":9804,"+,":9805,"/#":9806,"76":9807,"=(),":9808,"BB":9809,"CLI":9810,"Flush":9811,"GHT":9812,"MIME":9813,"PU":9814,"Pop":9815,"[]":9816,"dating":9817,"fers":9818,"gil":9819,"mut":9820,"ock":9821,"skipped":9822,"snapshot":9823,"Ġ99":9824,"seen":9825,"relation":9826,"stre":9827,"measure":9828,"als":9829,"endian":9830,"Ġpaned":9831,"Ġsn":9832,"Ġsquare":9833,"Ġndim":9834,"Ġwants":9835,"routine":9836,"Ġ\"\"\")":9837,"rig":9838,"Ġve":9839,"Ġ\";":9840,"Ġ\"[":9841,"cture":9842,"Ġdct":9843,"Ġexited":9844,"matically":9845,"Ġhtest":9846,"ĠAvoid":9847,"expo":9848,"Ġrational":9849,"Ġproduct":9850,"timezone":9851,"popi":9852,"moves":9853,"Ġunable":9854,"Ġtransition":9855,"proba":9856,"mmar":9857,"Ġvertical":9858,"Ġvertices":9859,"Ġnotifi":9860,"Ġyes":9861,"ĠOptim":9862,"Ġpresen":9863,"calendar":9864,"ĠNetwork":9865,"pyproject":9866,"Ġreadinto":9867,"ĠInput":9868,"bynumber":9869,"Ġlive":9870,"ĠConnect":9871,"Ġabsent":9872,"filenames":9873,"Ġbasename":9874,"yphen":9875,"specs":9876,"IOBase":9877,"replacement":9878,"Ġrepresentable":9879,"Ġcookielib":9880,"threadsafe":9881,"shapes":9882,"imports":9883,"SED":9884,"Ġspecs":9885,"ĠKeyword":9886,"Ġinitialization":9887,"ACHE":9888,"Selector":9889,"Ġdocuments":9890,"Ġprimary":9891,"firstline":9892,"Position":9893,"ĠYield":9894,"ĠMode":9895,"ĠModi":9896,"Ġchoose":9897,"Append":9898,"Ġplaced":9899,"FOO":9900,"ĠCompare":9901,"trib":9902,"Ġquite":9903,"Ġobtain":9904,"Ġinstantiation":9905,"urpose":9906,"Ġdumps":9907,"identifier":9908,"Ġrotate":9909,"bpbynumber":9910,"Ġ':'":9911,"Ġcombinations":9912,"assertNotEqual":9913,"bracketing":9914,"WINDOWS":9915,"PATTERN":9916,"Ġpulse":9917,"atural":9918,"listener":9919,"THREADS":9920,"assertGreaterEqual":9921,"pieces":9922,"View":9923,"Ġmilliseconds":9924,"wakeup":9925,"ĠSTRING":9926,"popitem":9927,")**":9928,":,":9929,">()":9930,"AIN":9931,"Auto":9932,"Bin":9933,"BLANK":9934,"Duplicate":9935,"GLOBAL":9936,"HAS":9937,"Norm":9938,"PA":9939,"PER":9940,"RM":9941,"Wh":9942,"ao":9943,"amp":9944,"city":9945,"fault":9946,"iteration":9947,"}_{":9948,"Ġll":9949,"selected":9950,"reinstall":9951,"Ġcaminho":9952,"tiva":9953,"Ġpred":9954,"Ġblo":9955,"attention":9956,"untagged":9957,"assembly":9958,"rome":9959,"Ġtoggle":9960,"Ġmal":9961,"Ġmant":9962,"ĠTypically":9963,"ĠTCP":9964,"Ġvm":9965,"ĠPlease":9966,"pax":9967,"pasta":9968,"Ġdy":9969,"ĠImmutable":9970,"Ġendings":9971,"idna":9972,"Ġrace":9973,"Ġraiz":9974,"ĠCor":9975,"ĠCancelledError":9976,"Ġprops":9977,"timer":9978,"umul":9979,"readbuffer":9980,"mente":9981,"ussion":9982,"Ġcanv":9983,"urlsplit":9984,"Ġprepar":9985,"Ġlineterm":9986,"Ġlinestart":9987,"ĠUDP":9988,"Ġmethodname":9989,"ĠWrap":9990,"pydoc":9991,"bos":9992,"accep":9993,"needed":9994,"Ġsubmitted":9995,"tempfile":9996,"Ġendtime":9997,"subdirectory":9998,"subgenerator":9999,"returned":10000,"quential":10001,"Ġbackslashes":10002,"starting":10003,"Parsing":10004,"Unexpected":10005,"Ġmultipath":10006,"maximum":10007,"Ġoperating":10008,"printing":10009,"Ġshr":10010,"findchar":10011,"Ġlengths":10012,"topvisible":10013,"Ġidna":10014,"domains":10015,"Ġprime":10016,"NORE":10017,"ugin":10018,"Ġpages":10019,"ĠWSGIApplication":10020,"Ġleftmost":10021,"widgets":10022,"FArray":10023,"1007":10024,"Ġexpressions":10025,"Ġ95":10026,"Ġuniversal":10027,"Ġrepeti":10028,"Ã³rio":10029,"ASK":10030,"tricas":10031,"Expand":10032,"Ġinitargs":10033,"WWWW":10034,"Ġcmds":10035,"OpenSSL":10036,"sao":10037,"sqlite":10038,"ĠOptions":10039,"Ġmeaningful":10040,"allel":10041,"resizemode":10042,"âĶĢâĶĢâĶĢâĶĢâĶĢâĶĢâĶĢâĶĢâĶĢâĶĢâĶĢâĶĢâĶĢâĶĢâĶĢâĶĢâĶĢâĶĢâĶĢâĶĢâĶĢâĶĢâĶĢâĶĢâĶĢâĶĢâĶĢâĶĢâĶĢâĶĢâĶĢâĶĢ":10043,"quitting":10044,"XXXXXXXX":10045,"Ġidea":10046,"~~~~~~~~":10047,"Ġquoting":10048,"Ġulp":10049,"Importer":10050,"Ġrepeatedly":10051,"Ġcleared":10052,"Ġactivated":10053,"Ġrespectively":10054,"ĠcÃ³digo":10055,"Ġ2965":10056,"Kwargs":10057,"\">":10058,":].":10059,"=()):":10060,"Mutable":10061,"OB":10062,"].__":10063,"href":10064,"syn":10065,"yview":10066,"ĠÃ":10067,"Ġaffected":10068,"lent":10069,"erred":10070,"around":10071,"Ġodd":10072,"Ġsurrogate":10073,"anity":10074,"lover":10075,"oto":10076,"sioned":10077,"Ġvo":10078,"ĠPri":10079,"Ġ\">>>":10080,"___":10081,"Ġconven":10082,"peek":10083,"Rep":10084,"ĠImport":10085,"ollover":10086,"ĠAR":10087,"...\")":10088,"ĠFake":10089,"ĠĠĠĠĠĠĠĠĠĠĠĠĠĠĠĠĠĠĠĠĠĠĠĠĠĠĠĠĠĠĠĠĠĠĠĠĠĠĠĠĠĠ":10090,"ysroot":10091,"assertWarns":10092,"outines":10093,"ĠDummy":10094,"question":10095,"press":10096,"ĠEmit":10097,"istic":10098,"ĠNever":10099,"ĠMon":10100,"ĠMET":10101,"versions":10102,"ĠHEL":10103,"osx":10104,"formatMessage":10105,"itemsize":10106,"Ġdistributed":10107,"argparse":10108,"1024":10109,"ORY":10110,"Ġ8601":10111,"ĠUnlike":10112,"IOError":10113,"plex":10114,"Ġdisplaying":10115,"Ġtheyear":10116,"zipFile":10117,"builddir":10118,"Ġimplicit":10119,"octet":10120,"DeprecationWarning":10121,"Byte":10122,"ConsoleRenderable":10123,"RIGHT":10124,"Ġclears":10125,"loggers":10126,"MPTY":10127,"Ġsays":10128,"BUIL":10129,"ĠApple":10130,"Dispatch":10131,"Ġserialized":10132,"Ġ256":10133,"removed":10134,"Regression":10135,"Ġexpose":10136,"xxx":10137,"Ġusual":10138,"Ġinstantiate":10139,"Ġtzinfo":10140,"ĠAccept":10141,"EndCent":10142,"ĠColumn":10143,"converters":10144,"thost":10145,"Ġadvanced":10146,"weakref":10147,"ĠPROG":10148,"Ġconsists":10149,"alyse":10150,"Ġexpressed":10151,"virtualenv":10152,"ĠMUST":10153,"EndCentDir":10154,"!!":10155,"##":10156,"'\")":10157,"(%":10158,"(\",":10159,",'":10160,".',":10161,"72":10162,":',":10163,">/":10164,"Browser":10165,"FOR":10166,"Just":10167,"LM":10168,"Outer":10169,"Random":10170,"WIDGET":10171,"YH":10172,"](":10173,"clic":10174,"epoch":10175,"iro":10176,"je":10177,"ksum":10178,"nix":10179,"platlib":10180,"sk":10181,"sft":10182,"vs":10183,"}[":10184,"Ġlinen":10185,"Ġ})":10186,"infer":10187,"represent":10188,"Ġcnt":10189,"Ġpeek":10190,"Ġpane":10191,"Ġnaming":10192,"Ġew":10193,"units":10194,"amed":10195,"Ġmicro":10196,"light":10197,"Ġstyled":10198,"Ġ'@":10199,"atext":10200,"isdigit":10201,"ĠPTH":10202,"pag":10203,"Ġdas":10204,"Ġbehave":10205,"lain":10206,"sslobj":10207,"quant":10208,"Ġencontra":10209,"confir":10210,"consistent":10211,"('!":10212,"('+":10213,"toggle":10214,"hoc":10215,"Ġ*=":10216,"dobject":10217,"Ġonto":10218,"Ġpropagate":10219,"Ġparses":10220,"))[":10221,"assertList":10222,"dedup":10223,"Ġ[_":10224,"Ġexceeds":10225,"previous":10226,"ĠEditorWindow":10227,"Ġlista":10228,"Ġalter":10229,"Ġalmost":10230,"Ġalphabet":10231,"Ġpopped":10232,"Ġpower":10233,"Ġkeyring":10234,"Ġ{_":10235,"causes":10236,"ĠMAC":10237,"Inf":10238,"nets":10239,"ability":10240,"Ġsubelements":10241,"Ġacce":10242,"Ġ**_":10243,"ONG":10244,"Ġzstd":10245,"Ġhover":10246,"Ġpasswd":10247,"actly":10248,"statements":10249,"Ġ[]).":10250,"Ġoverwritten":10251,"creating":10252,"LEFT":10253,"\"]),":10254,"Ġturtleshape":10255,"working":10256,"prefixes":10257,"rega":10258,"Ġparsers":10259,"ENV":10260,"Ġhelpful":10261,"Requests":10262,"nextfile":10263,"Ġsometimes":10264,"lert":10265,"Ġwaits":10266,"([])":10267,"ĠHTTPException":10268,"dade":10269,"Ġsendfile":10270,"tailmatch":10271,"Ġsocktype":10272,"debuglevel":10273,"Ġteleport":10274,"absolute":10275,"ĠWindowsCoordinates":10276,"unicodestring":10277,"TOP":10278,"ĠYH":10279,"Ġfaulthandler":10280,"Ġmappings":10281,"writable":10282,"legator":10283,"builds":10284,"connections":10285,"expandtabs":10286,"147":10287,"CES":10288,"ĠReadError":10289,"suffixes":10290,"Interpreter":10291,"ĠSpecifies":10292,"Ġdeletes":10293,"ĠKT":10294,"Ġ()):":10295,"ĠAppContext":10296,"Ġserializable":10297,"ĠColorType":10298,"mkdtemp":10299,"Ġentirely":10300,"images":10301,"equality":10302,"Ġbitmap":10303,"collector":10304,"InstallRequirement":10305,"Ġunpacked":10306,"Ãºl":10307,"KEYWORD":10308,"Ġgrammar":10309,"Ġsatisfied":10310,"Ġgeometry":10311,"ĠWithout":10312,"TemporaryDirectory":10313,"Ġatomic":10314,"constraints":10315,"consumed":10316,"Ġrectangle":10317,"Ġinherited":10318,"Ġconfirmation":10319,"repeat":10320,"REUSEADDR":10321,"ĠZstdDict":10322,"CEPTION":10323,"ĠResolve":10324,"Ġreprodu":10325,"middleware":10326,"errored":10327,"Ġopposite":10328,"LENGTH":10329,"mencodedobject":10330,"\"^":10331,")!":10332,")')":10333,"GG":10334,"Of":10335,"Rollover":10336,"Yield":10337,"bpo":10338,"cu":10339,"cross":10340,"highlighter":10341,"umented":10342,"yscale":10343,"seps":10344,"inet":10345,"tection":10346,"Ġil":10347,"Ġiana":10348,"Ġfc":10349,"Ġbracket":10350,"Ġsol":10351,"Ġskipping":10352,"Ġwr":10353,"Ġwinfo":10354,"unts":10355,"ulates":10356,"Ġ'//":10357,"isabs":10358,"isatty":10359,"ĠPick":10360,"challenge":10361,"Ġ\"+":10362,"gettimeout":10363,"Errors":10364,"Ġden":10365,"ĠSha":10366,"ĠStore":10367,"Ġradi":10368,"buffered":10369,"Ġ18":10370,"forsecurity":10371,"Ġlost":10372,"trl":10373,"dbot":10374,"pyvenv":10375,"Invoke":10376,"ĠLet":10377,"ĠInsert":10378,"ĠRequires":10379,"']))":10380,"RECT":10381,"FileNotFoundError":10382,"Engine":10383,"Ġmangle":10384,"Ġbuilds":10385,"tifiers":10386,"toplevel":10387,"streams":10388,"handles":10389,"blocksize":10390,"positional":10391,"ĠLocal":10392,"Ġfrag":10393,"Ġanswer":10394,"Ġlegal":10395,"Ġterminates":10396,"ĠColorTriplet":10397,"egacy":10398,"ĠNamed":10399,"Configure":10400,"java":10401,"Ġsamples":10402,"Align":10403,"TaskID":10404,"consts":10405,"ĠOptionParser":10406,"MOD":10407,"Ġtracked":10408,"Ġguarantee":10409,"Ġseekable":10410,"Ġexcluded":10411,"Ġconflicting":10412,"documentation":10413,"Ġearly":10414,"cycles":10415,"Ġ\"*\"":10416,"closure":10417,"COMMENT":10418,"Modified":10419,"REQUEST":10420,"Ġstrategy":10421,"strerror":10422,"!')":10423,")}\")":10424,"/'":10425,"AMPLE":10426,"Breakpoint":10427,"CA":10428,"CTYPE":10429,"Fetch":10430,"Graph":10431,"OO":10432,"Out":10433,"PN":10434,"Poin":10435,"TCP":10436,"during":10437,"egative":10438,"evt":10439,"fod":10440,"fws":10441,"fatal":10442,"gidx":10443,"ian":10444,"pul":10445,"small":10446,"wha":10447,"zing":10448,"};":10449,"}):":10450,"Ġlatin":10451,"intern":10452,"reraise":10453,"stas":10454,"stand":10455,"deep":10456,"decay":10457,"Ġicon":10458,"Ġthreaded":10459,"already":10460,"tis":10461,"Ġtti":10462,"Ġreentr":10463,"Ġreraised":10464,"ente":10465,"endi":10466,"Ġod":10467,"Ġslots":10468,"Ġnb":10469,"Ġwish":10470,"anho":10471,"Ġeol":10472,"unbind":10473,"Ġmusl":10474,"diter":10475,"Ġstoring":10476,"Ġvrp":10477,"Ġ\"=\"":10478,"Ġdn":10479,"Ġexam":10480,"Ġsecre":10481,"amanho":10482,"Ġfilesize":10483,"ĠAP":10484,"ĠSize":10485,"ĠStack":10486,"scm":10487,"(\"__":10488,"ĠFall":10489,"ĠFail":10490,"Ġlocator":10491,"vie":10492,"Ġrpc":10493,"cheme":10494,"ignored":10495,"nome":10496,"Ġdoctype":10497,"ĠDTD":10498,"ĠNet":10499,"ĠMan":10500,"ĠRMS":10501,"TestBase":10502,"TestOptionals":10503,"Ġpasso":10504,"addHandler":10505,"ĠInstance":10506,"INDEX":10507,"terminfo":10508,"STO":10509,"credentials":10510,"ĠTestHelp":10511,"ĠTestOptionals":10512,"Ġmsgids":10513,"Ġenvironments":10514,"Unpack":10515,"Ġpermanent":10516,"rowse":10517,"desktop":10518,"copycharacters":10519,"Ġlocally":10520,"Ġfuncs":10521,"ALRM":10522,"PathInfo":10523,"Ġpyrepl":10524,"currentLine":10525,"327":10526,"Ġdebugged":10527,"ANGE":10528,"ĠZstandard":10529,"removeHandler":10530,"allows":10531,"Ġthemselves":10532,"Ġenvvar":10533,"retÃ³rio":10534,"OptionError":10535,"wrappers":10536,"gnu":10537,"Adds":10538,"Ġ'_'":10539,"EXCEPTION":10540,"Ġlibc":10541,"Values":10542,"Ġguide":10543,"Disposition":10544,"Ġserializer":10545,"missionError":10546,"Ã³ria":10547,"isoformat":10548,"ĠDocument":10549,"Ġdispatcher":10550,"ĠThus":10551,"ĠNormalizedName":10552,"ĠRegion":10553,"ĠStreamWriter":10554,"Ġreliable":10555,"DocTestFinder":10556,"Ġinterest":10557,"Special":10558,"SYSTEM":10559,"Ãªncias":10560,"PREFIX":10561,"symbol":10562,"Supports":10563,"Ġresizemode":10564,"ĠSearchDialog":10565,"ĠENV":10566,"bbbbbbbb":10567,"YYYYYYYY":10568,"ĠAddressValueError":10569,"Resolver":10570,"aaaaaaaa":10571,"cccccccc":10572,"ZZZZZZZZ":10573,"ĠUnsupportedWheel":10574,"Ġdrawn":10575,"ĠCaseInsensitiveDict":10576,"PKG":10577,"quoting":10578,"Expired":10579,"BLANKLINE":10580,"Ġmalformed":10581,"fodder":10582,"whatis":10583,"!)":10584,"57":10585,":]:":10586,"GS":10587,"LU":10588,"NONE":10589,"RY":10590,"Ts":10591,"TRI":10592,"URE":10593,"URI":10594,"]|":10595,"aexit":10596,"mmap":10597,"ulo":10598,"ugh":10599,"xor":10600,"deleted":10601,"Ġclamp":10602,"Ġfet":10603,"Ġfits":10604,"Ġfront":10605,"tice":10606,"Ġreject":10607,"Ġrequote":10608,"Ġpunctuation":10609,"Ġstem":10610,"unsplit":10611,"union":10612,"cover":10613,"Ġstmt":10614,"ĠTotal":10615,"ĠTEST":10616,"serves":10617,"maint":10618,"ĠIterate":10619,"Ġdesigned":10620,"pathsep":10621,"toff":10622,"ĠSign":10623,"Ġwhite":10624,"dog":10625,"Ġrlst":10626,"Ġuname":10627,"Ġunion":10628,"Ġunmodified":10629,"processes":10630,"iph":10631,"Ġadapt":10632,"sually":10633,"Insert":10634,"Initial":10635,"ĠVari":10636,"pended":10637,"ĠHACL":10638,"ĠInvocation":10639,"Ġsuppressed":10640,"ouble":10641,"Ġstartup":10642,"creation":10643,"Unix":10644,"ĠTypeVar":10645,"sonly":10646,"Ġ\"\").":10647,"Ġshorter":10648,"Ġcopying":10649,"Ġseealso":10650,"makedirs":10651,"Ġinfos":10652,"sential":10653,"ĠTextIO":10654,"Ġnormalization":10655,"trailing":10656,"Ġ'-':":10657,"complex":10658,"ĠFiles":10659,"Ġoccurrences":10660,"Prepare":10661,"Preferences":10662,"Ġstdlib":10663,"devnull":10664,"misc":10665,"Ġjoined":10666,"BUTE":10667,"EXT":10668,"EXIST":10669,"Ġmonths":10670,"patterns":10671,"ĠHow":10672,"ĠSubclass":10673,"dicates":10674,"Ġinstantiated":10675,"memoryview":10676,"ĠCommandArgs":10677,"Ġpeer":10678,"identify":10679,"duplicates":10680,"Ġlimits":10681,"Ġintroduce":10682,"ĠDecorator":10683,"PPPPPPPP":10684,"Ġsubstitution":10685,"Ġdynamic":10686,"Ġdynamically":10687,"(...)":10688,"Ġoverlapped":10689,"assertIsNotNone":10690,"Ġdeclared":10691,"ĠBdbQuit":10692,"Ġpresence":10693,"TRIBUTE":10694,"/``":10695,"49":10696,"<<":10697,"BER":10698,"BASE":10699,"Implementation":10700,"Mix":10701,"NI":10702,"Same":10703,"Store":10704,"TMP":10705,"Types":10706,"VNULL":10707,"]\",":10708,"aves":10709,"broadcast":10710,"emit":10711,"fstat":10712,"isi":10713,"kv":10714,"nc":10715,"rÃ£o":10716,"sw":10717,"||":10718,"ÏĢ":10719,"Ġter":10720,"Ġtem":10721,"Ġtilt":10722,"ĶâĶĢâĶĢ":10723,"onclick":10724,"reuse":10725,"tivo":10726,"Ġtg":10727,"Ġtls":10728,"Ġrecogn":10729,"ense":10730,"Ġplease":10731,"ingButton":10732,"Ġsmtp":10733,"Ġnt":10734,"ĠnÃºmero":10735,"atual":10736,"assistant":10737,"Ġanonymous":10738,"ĠmÃ¡":10739,"dity":10740,"Ġ'$":10741,"Ġ'**":10742,"xture":10743,"serv":10744,"Ġ\"[\"":10745,"Ġdry":10746,"Ġcoeff":10747,"mak":10748,"Ġseed":10749,"Ġseries":10750,"Ġhd":10751,"')))":10752,"tover":10753,"ĠSC":10754,"ĠSqueezer":10755,"ĠCar":10756,"ĠCGI":10757,"ortun":10758,"Ġproceed":10759,"setstate":10760,"pout":10761,"Ġheapp":10762,"Ġexcess":10763,"Ġunlocked":10764,"oked":10765,"ĠETag":10766,"Ġgetint":10767,"Ġnos":10768,"Ġoptionflags":10769,"ipy":10770,"Ġkeybinding":10771,"dirpath":10772,"Ġ2231":10773,"Ġtexts":10774,"Information":10775,"collapse":10776,"Ġappending":10777,"ĠBinaryIO":10778,"wap":10779,"abis":10780,"Ġsubcommands":10781,"Ġrequesting":10782,"Ġcontextlib":10783,"Ġclassmethod":10784,"locks":10785,"subclasses":10786,"subtract":10787,"exponent":10788,"Ġjunk":10789,"Ġbreaking":10790,"Parameters":10791,"Ġcolorized":10792,"Ġexecutes":10793,"Ġcaches":10794,"Ġgeneration":10795,"GetHighlight":10796,"weight":10797,"DED":10798,"Ġfloating":10799,"([('":10800,"Ġcurdir":10801,"Ġseems":10802,"ĠĠĠĠĠĠĠĠĠĠĠĠĠĠĠĠĠĠĠĠĠĠĠĠĠĠĠĠĠĠĠĠĠĠĠĠĠĠ":10803,"SELE":10804,"UTC":10805,"tracing":10806,"rypt":10807,"Ġpatterns":10808,"ĠUseful":10809,"bsolute":10810,"WSGI":10811,"ĠLista":10812,"emplo":10813,"Ġtransformed":10814,"PROXY":10815,"Ġfiltering":10816,"ĠDirect":10817,"HED":10818,"Ġreferenced":10819,"Ġgenerators":10820,"Ġinstalling":10821,"Ġentre":10822,"byteorder":10823,"LogRecord":10824,"ĠInstall":10825,"Trust":10826,"customize":10827,"Compute":10828,"Compressor":10829,"TRUE":10830,"Ġcomparisons":10831,"EnvironBuilder":10832,"Allow":10833,"LINES":10834,"separators":10835,"KEEP":10836,"operator":10837,"ĠTaskInfo":10838,"Ġpackaging":10839,"vanced":10840,"999999":10841,"ĠPermissionError":10842,"Ð°Ð±":10843,"EEE":10844,"Ġdrawings":10845,"Ġmixed":10846,"Ġ'|',":10847,"BadRequest":10848,"ĠControlType":10849,"Ġflatten":10850,"dependency":10851,"EntityTooLarge":10852,"sanitizer":10853,"Ġmatter":10854,"Perform":10855,"WINDOW":10856,"Ġorientation":10857,"Ġcriteria":10858,"ĠExpandingButton":10859,"ĠmÃ©dia":10860,"Ġbtn":10861,"Ġediting":10862,"rolled":10863,"EINVAL":10864,"dylib":10865,"xFFFFFFFF":10866,"Ġdecide":10867,"ĠPREFIX":10868,"quantum":10869,"'^":10870,"'(?":10871,"+',":10872,"BinaryIO":10873,"CACHE":10874,"First":10875,"QL":10876,"RD":10877,"Recur":10878,"Table":10879,"dm":10880,"each":10881,"ehlo":10882,"ftp":10883,"numeric":10884,"raries":10885,"xscale":10886,"Ġlittle":10887,"three":10888,"onth":10889,"reli":10890,"Ġautor":10891,"leading":10892,"Ġidb":10893,"Ġfine":10894,"Ġrecording":10895,"eng":10896,"Ġov":10897,"Ġnatural":10898,"rown":10899,"):]":10900,"rives":10901,"Ġstuff":10902,"sider":10903,"silent":10904,"ĠPa":10905,"chni":10906,"sertions":10907,"Ġ\"'":10908,"Ġcore":10909,"Ġhighlighter":10910,"verage":10911,"lashed":10912,"sions":10913,"ĠSends":10914,"ĠSelf":10915,"exclude":10916,"ĠCannot":10917,"former":10918,"Ġsusp":10919,"pty":10920,"Ġrslices":10921,"prep":10922,"Ġpointed":10923,"ĠMorsel":10924,"never":10925,"ably":10926,"Ġ31":10927,"ĠExternal":10928,"Ġignores":10929,"TEMP":10930,"ORK":10931,"Ġsigns":10932,"Ġerrmsg":10933,"Ġcompletes":10934,"Logs":10935,"Ġsupporting":10936,"mbig":10937,"finditer":10938,"Handlers":10939,"NOWN":10940,"fails":10941,"sitepackages":10942,"Ġcontroller":10943,"PROFILE":10944,"Ġselects":10945,"displayof":10946,"=[]":10947,"pendency":10948,"ĠAdds":10949,"POSIX":10950,"HelpTestCase":10951,"modifiers":10952,"Examples":10953,"Ġmodifying":10954,"HIDE":10955,"Installer":10956,"conditionally":10957,"Ġcategories":10958,"Ġiterations":10959,"Translate":10960,"ĠPerform":10961,"Ġgrab":10962,"WindowsCoordinates":10963,"randbits":10964,"Ġreduced":10965,"catenate":10966,"ĠPackageFinder":10967,"Ġdropped":10968,"Ġimprove":10969,"crollbar":10970,"Ġpressing":10971,"ĠHELP":10972,"Ġillegal":10973,"isidentifier":10974,"!=":10975,"\"}:":10976,"(',":10977,")|":10978,"/{":10979,"700":10980,"84":10981,"94":10982,">(":10983,"?=":10984,"EQUENCE":10985,"Field":10986,"Lis":10987,"LAG":10988,"Mis":10989,"Sha":10990,"Similar":10991,"YPE":10992,"`\"\"\"":10993,"azy":10994,"cwrite":10995,"huge":10996,"ied":10997,"idity":10998,"lora":10999,"mi":11000,"mant":11001,"mbox":11002,"ngrams":11003,"sla":11004,"sdist":11005,"wchar":11006,"ycle":11007,"yielding":11008,"ĠâĶĢâĶĢ":11009,"setenv":11010,"ination":11011,"instead":11012,"increment":11013,"Ġthemonth":11014,"erase":11015,"arcname":11016,"Ġtunnel":11017,"Ġports":11018,"Ġbias":11019,"Ġsur":11020,"Ġsparse":11021,"atas":11022,"defect":11023,"Ġmyp":11024,"disco":11025,"lope":11026,"loses":11027,"rac":11028,"rais":11029,"coa":11030,"ĠTop":11031,"ĠPR":11032,"__':":11033,"Ġdup":11034,"Ġbelon":11035,"linha":11036,"linhas":11037,"Ġsemaphore":11038,"Ġhistorico":11039,"Ġhorizontal":11040,"verified":11041,"Ġdirective":11042,"')!":11043,"('*":11044,"ĠSV":11045,"ĠSFT":11046,"ĠSEQUENCE":11047,"Ġrare":11048,"ĠClean":11049,"ĠFree":11050,"Ġprofile":11051,"Ġpropor":11052,"ĠparÃ¢metro":11053,"etc":11054,"something":11055,"Ġdos":11056,"ĠDPO":11057,"Ġunused":11058,"Ġattack":11059,"Ġsplits":11060,"Ġposi":11061,"ĠOP":11062,"ĠUSER":11063,"ĠMatch":11064,"TestHelp":11065,"ĠVar":11066,"Ġreadonly":11067,"pename":11068,"instances":11069,"Ġcomprimento":11070,"utheader":11071,"Ġupdating":11072,"omark":11073,"INIS":11074,"uctor":11075,"logb":11076,"Ġ''):":11077,"colorstring":11078,"Ġquit":11079,"Digest":11080,"Ġpossibilities":11081,"abcde":11082,"decodeescape":11083,"winding":11084,"Ġlinkage":11085,"specifiers":11086,"Ġtiming":11087,"Ġdisplayof":11088,"Setting":11089,"Ġwrappers":11090,"zipfp":11091,"packaging":11092,"ĠAnn":11093,"locator":11094,"FIER":11095,"apify":11096,"white":11097,"Ġthemename":11098,"HTTPS":11099,"GIC":11100,"ĠCheckbutton":11101,"Ġrespond":11102,"Ġ['-":11103,"monkeypatch":11104,"Ġmocked":11105,"ĠNoChange":11106,"ĠSepar":11107,"ATTR":11108,"ATTRIBUTE":11109,"Ġcommas":11110,"indentation":11111,"retty":11112,"ConsoleCursor":11113,"optname":11114,"Prepares":11115,"Ġ123":11116,"Ġrecurse":11117,"Ġlibraries":11118,"Ġfnmatch":11119,"3333":11120,"anywhere":11121,"Ġuniform":11122,"Ġidlelib":11123,"Ġsorting":11124,"Handles":11125,"lexible":11126,"Ġextracting":11127,"Ġyears":11128,"Annotated":11129,"Ġfolders":11130,"ĠMockPosix":11131,"Ġreductor":11132,"Install":11133,"forkserver":11134,"2965":11135,"ĠABI":11136,"Writes":11137,"Ġsigma":11138,"Ġprobability":11139,"Ġpelo":11140,"Ġtriples":11141,"Ġqualidade":11142,"Ġoperators":11143,"Converts":11144,"BOUND":11145,"}/{":11146,"OrMore":11147,"Ġinterpret":11148,"Ġ192":11149,"confstr":11150,"SectionList":11151,"failureException":11152,"ĠSupports":11153,"terminated":11154,"StopIteration":11155,"****************************************************************":11156,"Ġsignificand":11157,"ĠCONSOLE":11158,"Ġ2047":11159,"CompletionItem":11160,"Ġrespostas":11161,"Ġleaf":11162,"bindingslist":11163,"leaker":11164,"ĠTraversable":11165,"ĠWorks":11166,"ĠBufferedReader":11167,"Decompressor":11168,"Ġestablished":11169,"lockingIOError":11170,"COORDS":11171,"ConversionDict":11172,"assertListEqual":11173,"ĠYHYH":11174,"pulse":11175,"raisable":11176,"INISHED":11177,"ĠMockPosixNamespace":11178,")[:":11179,"512":11180,">-":11181,"Array":11182,"CLO":11183,"FWS":11184,"Iden":11185,"LD":11186,"LF":11187,"Long":11188,"SENT":11189,"WM":11190,"Will":11191,"WORK":11192,"bes":11193,"gm":11194,"pd":11195,"vity":11196,"vors":11197,"wfile":11198,"wrong":11199,"Ġ))":11200,"threaded":11201,"infile":11202,"invocation":11203,"reat":11204,"Ġarithmetic":11205,"decompress":11206,"degrees":11207,"memo":11208,"Ġcance":11209,"Ġtc":11210,"Ġrely":11211,"Ġsync":11212,"atory":11213,"anted":11214,"assign":11215,"Ġismethod":11216,"Ġmm":11217,"ecmd":11218,"Ġoften":11219,"ĠTag":11220,"isysroot":11221,"ĠPut":11222,"ĠPUT":11223,"__]":11224,"testinternal":11225,"Ġhack":11226,"qua":11227,"Req":11228,"Report":11229,"Ġ*_":11230,"ĠĠĠĠĠĠĠĠĠĠĠĠĠĠĠĠĠĠĠĠĠĠĠĠĠĠĠĠĠĠĠĠĠĠĠĠĠĠĠĠĠ":11231,"Ġpropag":11232,"Ġsubject":11233,"ĠDescri":11234,"ĠEqual":11235,"Ġmoving":11236,"Ġpow":11237,"Ġpreferences":11238,"Ġpreserves":11239,"Ġdatagram":11240,"ĠUsually":11241,"undant":11242,"perform":11243,"tempt":11244,"cident":11245,"ĠLe":11246,"ĠHandler":11247,"Ġaccur":11248,"='*":11249,"there":11250,"explicit":11251,"ĠContinue":11252,"methodHelp":11253,"REF":11254,"Ġcoroutines":11255,"Ġeventually":11256,"Ġpermitted":11257,"encodings":11258,"ĠCode":11259,"Ġfinalization":11260,"tkconsole":11261,"below":11262,"Profile":11263,"THE":11264,"Ġterms":11265,"ARY":11266,"supports":11267,"ĠEncode":11268,"templates":11269,"Ġlocations":11270,"loaders":11271,"Ġarchives":11272,"Ġabspath":11273,"ĠSegments":11274,"sitedir":11275,"ĠStrip":11276,"Ġstructures":11277,"HECK":11278,"Ġfooter":11279,"padx":11280,"Attributes":11281,"Ġpopitem":11282,"Ġsaves":11283,"Ġsaving":11284,"Ġ'/'.":11285,"ControlType":11286,"ModuleType":11287,"Ġpartially":11288,"Builtin":11289,"Ġnotebook":11290,"666":11291,"Ġawaits":11292,"constant":11293,"ĠNormally":11294,"Ġliterals":11295,"idletasks":11296,"cdf":11297,"Ġtriggers":11298,"Ġadjacent":11299,"DGRAM":11300,"Ġwinreg":11301,"Ġquotation":11302,"\"<{":11303,"ĠTransfer":11304,"Ġcriterion":11305,"NUMBER":11306,"CUMENT":11307,"ĠEINTR":11308,"Ġvocab":11309,"ĠMETADATA":11310,"maintype":11311,"testinternalcapi":11312,"!'":11313,"''.":11314,"'})":11315,".+":11316,"/%":11317,"917":11318,":...":11319,";'":11320,"=\"\"":11321,"BOM":11322,"Den":11323,"Fast":11324,"OD":11325,"Own":11326,"Optim":11327,"PAG":11328,"RK":11329,"YLE":11330,"\\.\\":11331,"`),":11332,"bz":11333,"bols":11334,"bian":11335,"drawing":11336,"fu":11337,"ftover":11338,"gzip":11339,"historico":11340,"itions":11341,"pure":11342,"pread":11343,"putheader":11344,"qsize":11345,"slow":11346,"trip":11347,"tparm":11348,"xp":11349,"zf":11350,"}}":11351,"ľâĶĢâĶĢ":11352,"onkey":11353,"redirected":11354,"Ġagen":11355,"Ġatex":11356,"tep":11357,"styled":11358,"derer":11359,"delitem":11360,"``/``":11361,"Ġflow":11362,"alone":11363,"alav":11364,"erDocument":11365,"arr":11366,"arwin":11367,"ench":11368,"Ġsv":11369,"Ġsaniti":11370,"atindex":11371,"Ġinsensitive":11372,"Ġeof":11373,"routing":11374,"heet":11375,"coprime":11376,"sited":11377,"Ġwio":11378,"Ġ\":\"":11379,"gettext":11380,"getlist":11381,"getlines":11382,"lined":11383,"Ġconte":11384,"Ġconveni":11385,"amma":11386,"fica":11387,"Ġ_:":11388,"Ġassign":11389,"Remote":11390,"ĠIts":11391,"Ġmetricas":11392,"Ġdeprecation":11393,"Ġdegrees":11394,"idth":11395,"ĠSY":11396,"ĠSHO":11397,"ĠSQL":11398,"ĠCertificate":11399,"ĠFinal":11400,"ĠFutures":11401,"dobe":11402,"linear":11403,"Ġlose":11404,"Ġparallel":11405,"else":11406,"tact":11407,"Ġheur":11408,"outline":11409,"apple":11410,"Ġuninstall":11411,"Ġunsigned":11412,"okes":11413,"ĠElse":11414,"Ġgetopt":11415,"prompts":11416,"product":11417,"Ġveri":11418,"Ġlinewidth":11419,"Ġnewer":11420,"Ġnewdata":11421,"tensor":11422,"cased":11423,"pypy":11424,"acility":11425,"ĠVec":11426,"database":11427,"Ġsubstring":11428,"Ġsubtract":11429,"izations":11430,"temporary":11431,"ĠLexer":11432,"Ġ39":11433,"fromtimestamp":11434,"fromutc":11435,"Ġzoom":11436,"Ġurlsplit":11437,"ĠGEN":11438,"subtest":11439,"subnormal":11440,"Ġupload":11441,"STDOUT":11442,"STYLE":11443,"ĠTestCase":11444,"Ġcorrelation":11445,"SITION":11446,"Ġnonnegative":11447,"ubar":11448,"Ġthereof":11449,"Ġperc":11450,"Ġtraced":11451,"GetSectionList":11452,"Ġvalidated":11453,"ENCODING":11454,"Ġshif":11455,"presents":11456,"begidx":11457,"downloaded":11458,"Ġrequiring":11459,"codedstring":11460,"SetMenu":11461,"(*,":11462,"Ġgrouping":11463,"Ġsuperclass":11464,"ĠĠĠĠĠĠĠĠĠĠĠĠĠĠĠĠĠĠĠĠĠĠĠĠĠĠĠĠĠĠĠĠĠĠĠĠĠĠĠĠĠĠĠ":11465,"multip":11466,"multiline":11467,"118":11468,"Ġautoclass":11469,"ANG":11470,"jsonl":11471,"Ġupdates":11472,"ĠPyREPL":11473,"CaseClass":11474,"Ġsignaling":11475,"HeaderSet":11476,"Ġtoplevel":11477,"Ġrefers":11478,"ClassNotFound":11479,"Ġcommonly":11480,"LOCAL":11481,"Ġtransmission":11482,"Ġsuffixed":11483,"Ġlocked":11484,"Ġviewer":11485,"224":11486,"skipIf":11487,"tracebacks":11488,"Ġissued":11489,"richcompare":11490,"Docstring":11491,"Channel":11492,"ĠXMLParser":11493,"CFString":11494,"Ġjoining":11495,"POSITION":11496,"Subnormal":11497,"Ġdefining":11498,"errnos":11499,"Ġmovement":11500,"Ġestado":11501,"Built":11502,"Ġdestino":11503,"LineDocstring":11504,"Ġfalling":11505,"ĠBadZipFile":11506,"ĠTemplate":11507,"Ġcapabilities":11508,"Ġfactor":11509,"DescriptionWith":11510,"Ġmkstemp":11511,"Ġreceives":11512,"Ġfewer":11513,"Ġpotentially":11514,"Ġincorrectly":11515,"ĠCharacter":11516,"Ġdeclaration":11517,"alpharep":11518,"PATCH":11519,"REUSEPORT":11520,"ĠAndroid":11521,"Root":11522,"CODES":11523,"Ġworth":11524,"ĠMinHash":11525,"soleteHeaderDefect":11526,"canvwidth":11527,"SCHEMES":11528,"Ġapproximately":11529,"sistency":11530,"Ġ\"@\"":11531,"Ġ'..'":11532,"survivors":11533,"Ġespecially":11534,"Ġarchitecture":11535,"Accessor":11536,"combine":11537,"umulative":11538,"endidx":11539,"SELECT":11540,"OwnerDocument":11541,"Ġatexit":11542,"Ġconvenient":11543,"POSITIONAL":11544,"*'":11545,"10000":11546,"404":11547,"=('":11548,"?)":11549,"?\",":11550,"Calculate":11551,"Highlighter":11552,"Lin":11553,"MagicMock":11554,"NA":11555,"Pixels":11556,"Round":11557,"]'":11558,"]}":11559,"]')":11560,"_\"":11561,"cdata":11562,"dra":11563,"ea":11564,"half":11565,"marsh":11566,"osed":11567,"sult":11568,"smo":11569,"van":11570,"zinfo":11571,"{\"":11572,"}-":11573,"Ġutc":11574,"than":11575,"secre":11576,"seudo":11577,"reach":11578,"Ġaw":11579,"Ġcc":11580,"Ġtt":11581,"Ġty":11582,"Ġreformat":11583,"Ġrejected":11584,"enari":11585,"Ġplist":11586,"Ġpatches":11587,"Ġbisect":11588,"Ġsax":11589,"Ġsio":11590,"Ġsgr":11591,"Ġnd":11592,"Ġmixin":11593,"loor":11594,"radi":11595,"()}\"":11596,"Ġforces":11597,"Ġ'\"'":11598,"Ġ([":11599,"chdir":11600,"Ġcoer":11601,"getboolean":11602,"Ġconcrete":11603,"Ġhon":11604,"ptions":11605,"Retorna":11606,"','":11607,"ĠIdb":11608,"illa":11609,"towidget":11610,"\",)":11611,"\")]":11612,"ĠĠĠĠĠĠĠĠĠĠĠĠĠĠĠĠĠĠĠĠĠĠĠĠĠĠĠĠĠĠĠĠĠĠĠĠĠĠĠĠĠĠĠĠ":11613,"prerelease":11614,"Com":11615,"Comb":11616,"Convenience":11617,"ordinal":11618,"Ġ28":11619,"tencoding":11620,"care":11621,"ĠMore":11622,"permission":11623,"fixup":11624,"Ġsubdirectory":11625,"Ġaccum":11626,"within":11627,"they":11628,"Ġ45":11629,"REG":11630,"SIVE":11631,"checkClosed":11632,"maps":11633,"Unless":11634,"Ġindexing":11635,"ymbol":11636,"copyfile":11637,"Ġcurline":11638,"Ġacts":11639,"SECTION":11640,"sendcmd":11641,"HTTPError":11642,"Ġmanagers":11643,"Ġoctets":11644,"Delegator":11645,"ĠPylock":11646,"Ġtechni":11647,"Ġdifferently":11648,"digestname":11649,"overlap":11650,"addrs":11651,"wrapping":11652,"markers":11653,"Ġenables":11654,"Buffer":11655,"DIS":11656,"DIRECT":11657,"wheels":11658,"Ġ\"/\")":11659,"containing":11660,"Subprocess":11661,"SystemExit":11662,"Ġ\"<\"":11663,"Ġregexp":11664,"ĠMemory":11665,"Calls":11666,"recurse":11667,"ĠChild":11668,"ĠTherefore":11669,"Ġredundant":11670,"finalize":11671,"Ġalignment":11672,"TerminalTheme":11673,"hdrs":11674,"Ġlslices":11675,"terminate":11676,"USERPROFILE":11677,"diobutton":11678,"ValidationError":11679,"Resolve":11680,"ĠProxyManager":11681,"blah":11682,"Parent":11683,"Ġsituations":11684,"Ġexhaust":11685,"Ġallocated":11686,"ĠMaildir":11687,"OBJECT":11688,"Ġfcntl":11689,"-#":11690,"/')":11691,";=":11692,"AV":11693,"ADirectory":11694,"Dest":11695,"EF":11696,"EditorWindow":11697,"Spam":11698,"WD":11699,"_:":11700,"cgi":11701,"clamp":11702,"dumb":11703,"evaluator":11704,"evalex":11705,"flist":11706,"fish":11707,"hs":11708,"hits":11709,"ities":11710,"iomark":11711,"lf":11712,"lan":11713,"lstat":11714,"marily":11715,"nu":11716,"ptext":11717,"patches":11718,"rfile":11719,"rank":11720,"tot":11721,"xattr":11722,"Ġut":11723,"Ġquestion":11724,"ĠÏĢ":11725,"onen":11726,"inatur":11727,"Ġaf":11728,"styli":11729,"ordered":11730,"dep":11731,"Ġie":11732,"ĠiOS":11733,"Ġthink":11734,"erge":11735,"tities":11736,"ards":11737,"Ġrewind":11738,"ensive":11739,"urrect":11740,"Ġsleep":11741,"Ġeast":11742,"unprocessed":11743,"turing":11744,"geometry":11745,"Ġmss":11746,"dictions":11747,"rios":11748,"()*":11749,"ĠTypedDict":11750,"Ã§a":11751,"isolated":11752,"isfirstline":11753,"ĠPipe":11754,"ĠPadding":11755,"Ġwide":11756,"namelist":11757,"Ġcoerce":11758,"Ġseg":11759,"Ġhar":11760,"Ġham":11761,"Ġhighligh":11762,"amd":11763,"anddata":11764,"Retry":11765,"Ġdimension":11766,"ĠIG":11767,"')\"\"\"":11768,"Ġchr":11769,"ido":11770,"Ġgray":11771,"('(":11772,"(';":11773,"olume":11774,"ĠAL":11775,"sci":11776,"explain":11777,"how":11778,"ĠCOM":11779,"ecide":11780,"eting":11781,"Ġrl":11782,"transient":11783,"Ġ...)":11784,"Ġ...])":11785,"notes":11786,"Ġelsewhere":11787,"Ġarea":11788,"ĠDNS":11789,"precision":11790,"ĠEVENT":11791,"redMemory":11792,"quick":11793,"ĠnewOwnerDocument":11794,"Ġtextview":11795,"**-":11796,"ators":11797,"ĠBZ":11798,"Ġsubparts":11799,"Ġcalc":11800,"Ġcomput":11801,"Ġcompares":11802,"Ġoutcome":11803,"Ġ3147":11804,"ĠHidden":11805,"Ġcollapse":11806,"Ġonexc":11807,"ERM":11808,"ERTI":11809,"subiterator":11810,"Ġstartpos":11811,"termonth":11812,"ucture":11813,"RET":11814,"varsub":11815,"Ġintercept":11816,"Ġindexes":11817,"msgid":11818,"Ġgenerates":11819,"baseFilename":11820,"winreg":11821,"Ġ512":11822,"1234":11823,"Ġ{}'.":11824,"RequestEntityTooLarge":11825,"packageName":11826,"httpbin":11827,"Ġcopyfileobj":11828,"Ġbindings":11829,"ROOT":11830,"ĠHTTPStatus":11831,"Ġdirnames":11832,"Ġhashable":11833,"faces":11834,"},{":11835,"ordering":11836,"Ġsplitter":11837,"ContentSecurityPolicy":11838,"HeaderError":11839,"firstlineno":11840,"iodi":11841,"Ġskips":11842,"Ġtransmitted":11843,"ĠlongMessage":11844,"views":11845,"entities":11846,"Ġloaders":11847,"Ġmainloop":11848,"Ġredirecting":11849,"connectionpool":11850,"Ġactivebackground":11851,"Ġcerts":11852,"CFRelease":11853,"badbad":11854,"ĠUNC":11855,"Without":11856,"ĠKE":11857,"homebrew":11858,"sitor":11859,"ĠCFString":11860,"actions":11861,"ĠTkinter":11862,"mkstemp":11863,"Ġcopier":11864,"guard":11865,"compresslevel":11866,"Ġfinders":11867,"Ġdispatching":11868,"Ġexpecting":11869,"Ġdiffs":11870,"truecolor":11871,"ĠDisplay":11872,"Ġdiscussion":11873,"SIGINT":11874,"semi":11875,"ĠTokenizer":11876,"OPEN":11877,"Suffix":11878,"ximo":11879,"FICATE":11880,"singlephase":11881,"unixfrom":11882,"serializer":11883,"kindanddata":11884,"SomeVersion":11885,"terminator":11886,"Ġintervals":11887,"repository":11888,"optimization":11889,"ĠWhat":11890,"Ġideal":11891,"Ġmismatch":11892,"COMPLE":11893,"Ġdeclarations":11894,"Enabled":11895,"macosx":11896,"Failure":11897,"aswidecharstring":11898,"calculate":11899,"ĠCompletionItem":11900,"ĠHere":11901,"Creature":11902,"Ġexhausted":11903,"Ġgather":11904,"Ġadaptive":11905,"Ġquickly":11906,"Pass":11907,"Signature":11908,"Ã¤r":11909,"ĠParamType":11910,"Ġdiscovered":11911,"spersed":11912,"[::-":11913,"Ġhaven":11914,"SUFFIXES":11915,"('!'),":11916,"mbiguous":11917,"Listen":11918,"performance":11919,"91742":11920,"ADirectoryError":11921,"ERTIFICATE":11922,"63":11923,">[":11924,"BIN":11925,"CR":11926,"EK":11927,"Fake":11928,"HLO":11929,"ITH":11930,"Makes":11931,"Vari":11932,"ZSTD":11933,"_%":11934,"bash":11935,"cise":11936,"clock":11937,"gmt":11938,"lated":11939,"mar":11940,"xtext":11941,"~\"":11942,"inserted":11943,"detach":11944,"tit":11945,"Ġpressed":11946,"Ġsurvi":11947,"Ġnic":11948,"Ġinf":11949,"analyse":11950,"Ġmarsh":11951,"copi":11952,"()\"":11953,"sim":11954,"Ġforget":11955,"Ġvisual":11956,"isstdin":11957,"nametowidget":11958,"Ġdll":11959,"testring":11960,"lag":11961,"Ġconform":11962,"andatory":11963,"Ġassertion":11964,"Retrieve":11965,"ĠImplement":11966,"Ġdependent":11967,"ĠCtrl":11968,"ĠFe":11969,"vides":11970,"positive":11971,"Ġheld":11972,"Ġsole":11973,"Ġunparsed":11974,"ĠEMPTY":11975,"Ġimplementing":11976,"Ġkeyboard":11977,"backed":11978,"ĠMO":11979,"Integer":11980,"kened":11981,"bom":11982,"fixed":11983,"ĠBack":11984,"Ġsubmodule":11985,"Ġxscrollcommand":11986,"ĠLegacy":11987,"Ġaccident":11988,"ĠIncompleteRead":11989,"license":11990,"ĠGIL":11991,"formatters":11992,"ĠReset":11993,"theyear":11994,"Ġclients":11995,"component":11996,"compliant":11997,"dicts":11998,"checkcache":11999,"Ġbasestring":12000,"Dimensions":12001,"Ġfolding":12002,"Ġ-->":12003,"ogle":12004,"Ġpersistent":12005,"Ġinstaller":12006,"ĠUnknown":12007,"ifyMethod":12008,"Ġcoming":12009,"Ġloggers":12010,"Ġcurr":12011,"handleError":12012,"typing":12013,"Ġpyunicode":12014,"Ġpyproject":12015,"SEQUENCE":12016,"managed":12017,"hashname":12018,"Detect":12019,"Ġidentity":12020,"SCA":12021,"Ġexiting":12022,"Ġkwarg":12023,"Ġdownloads":12024,"voidcmd":12025,"ĠFileInput":12026,"Ġequals":12027,"wardRef":12028,"SSLSocket":12029,"Ġcontrolled":12030,"LOG":12031,"umpy":12032,"Ġhandshake":12033,"xadecimal":12034,"}'\")":12035,"Ġipaddress":12036,"Ġ127":12037,"Ġmimetypes":12038,"tipwindow":12039,"Ġreports":12040,"badger":12041,"Subclasses":12042,"URN":12043,"Ġdeleting":12044,"Ġterminator":12045,"ĠCompute":12046,"ĠPolicy":12047,"Also":12048,"ĠMockFileInput":12049,"ĠCalling":12050,"pickling":12051,"EventLoop":12052,"constants":12053,"Ġannotate":12054,"unication":12055,"Ġtruncating":12056,"HEADER":12057,"protocols":12058,"ĠConfigParser":12059,"384":12060,"MDF":12061,"setUpClass":12062,"Ġstores":12063,"Ġsqlite":12064,"PackagePath":12065,"SKIP":12066,"ĠInteractiveConsole":12067,"Ġbasis":12068,"plugin":12069,"rwx":12070,"ĠBuilt":12071,"Ġessential":12072,"CLIENT":12073,"deepcopy":12074,"Ġfetched":12075,"iphers":12076,"Ġnicer":12077,"\">'":12078,"'``.":12079,"'``,":12080,"+%":12081,"-?":12082,"07":12083,"210":12084,"202":12085,":'":12086,"Caller":12087,"Evaluator":12088,"FER":12089,"He":12090,"HER":12091,"LONG":12092,"Negative":12093,"SNI":12094,"Turn":12095,"UAL":12096,"\\.":12097,"_',":12098,"affected":12099,"cte":12100,"dro":12101,"fma":12102,"kgs":12103,"lu":12104,"oe":12105,"padded":12106,"sNaN":12107,"ucs":12108,"wintypes":12109,"you":12110,"}={":12111,"thand":12112,"threshold":12113,"invert":12114,"rele":12115,"lest":12116,"dead":12117,"decl":12118,"Ġitera":12119,"Ġiteri":12120,"Ġcircle":12121,"Ġcumulative":12122,"alva":12123,"alarm":12124,"sely":12125,"Ġts":12126,"Ġttk":12127,"ens":12128,"ura":12129,"Ġpkey":12130,"Ġprac":12131,"Ġpalav":12132,"ingu":12133,"Ġnp":12134,"Ġinfile":12135,"unit":12136,"unused":12137,"undefined":12138,"ceeded":12139,"mpo":12140,"Ġmim":12141,"lish":12142,"dits":12143,"cobj":12144,"comes":12145,"()`,":12146,"sigs":12147,"Ġformal":12148,"Ġ'':":12149,"chatty":12150,"Ġ\"$":12151,"ctl":12152,"getfile":12153,"sso":12154,"Ġhs":12155,"ultane":12156,"llback":12157,"',),":12158,"Ġchrome":12159,"Ġmeet":12160,"Ġdecomp":12161,"Ġpasta":12162,"hop":12163,"(\":":12164,"(\".\"":12165,"(\"\\\\":12166,"Ġ*****************************************************************":12167,"ĠCre":12168,"ĠCERT":12169,"ĠCalcula":12170,"four":12171,"ĠFi":12172,"ĠFTP":12173,"ĠFill":12174,"ĠFound":12175,"doctype":12176,"Ġonwards":12177,"Ġpartes":12178,"taches":12179,"ancestry":12180,"ureTransport":12181,"Ġunlimited":12182,"predecessors":12183,"malformed":12184,"Ġnoise":12185,"ĠOb":12186,"Concatenate":12187,"caps":12188,"ĠNets":12189,"ĠWidth":12190,"TestPositionalsNargs":12191,"Ġusedforsecurity":12192,"ressao":12193,"abe":12194,"ĠLR":12195,"ĠLive":12196,"Ġ35":12197,"Ġrole":12198,"Ġrough":12199,"Ġcollapsed":12200,"TypeGuard":12201,"withdraw":12202,"life":12203,"Ġlno":12204,"ĠGit":12205,"formatwarning":12206,"subpath":12207,"substring":12208,"subdirs":12209,"ĠRequired":12210,"='?":12211,"External":12212,"login":12213,"Ġ41":12214,"RESH":12215,"1010":12216,"ĠTestPositionalsNargs":12217,"Ġquantize":12218,"framer":12219,"Parses":12220,"Ġstatements":12221,"Ġinterfaces":12222,"FileStorage":12223,"Ġtargets":12224,"ĠForm":12225,"Ġfinalize":12226,"psf":12227,"KeyboardInterrupt":12228,"shutil":12229,"122":12230,"Property":12231,"Ġcompleto":12232,"topics":12233,"ROUND":12234,"\\\\\\":12235,"PathFinder":12236,"ĠpadrÃ£o":12237,"Ġresolving":12238,"NotSupp":12239,"321":12240,"Ġshapes":12241,"extraction":12242,"SEEK":12243,"Ġassinatur":12244,"ĠEnter":12245,"Ġthemes":12246,"ACCES":12247,"ĠDetect":12248,"breakpoints":12249,"ĠPyErr":12250,"Contents":12251,"Ġ6125":12252,"systemId":12253,"ĠJSONL":12254,"ĠWSP":12255,"Ġmodal":12256,"Ġmodifiers":12257,"bsd":12258,"overla":12259,"Ġbehaves":12260,"DOCUMENT":12261,"150":12262,"Ġviews":12263,"builder":12264,"Ġtables":12265,"Ġcompletely":12266,"Ġfrac":12267,"Ġpopulation":12268,"Ġtabnanny":12269,"rollback":12270,"Ġlargest":12271,">`_.":12272,"ĠFlaskClient":12273,"Interpolation":12274,"PyFile":12275,"Disconnected":12276,"Ġanchors":12277,"CONST":12278,"Decorate":12279,"Ġforceload":12280,"OUTINE":12281,"ĠBox":12282,"Ġapparent":12283,"scaleb":12284,"sequently":12285,"ĠThreaded":12286,"FLASK":12287,"Ġuppercase":12288,"Ġordinal":12289,"idlelib":12290,"RuleFactory":12291,"reportflags":12292,"ĠCalledProcessError":12293,"svn":12294,"Ġeffects":12295,"ĠSOURCE":12296,"Ġhardlink":12297,"Ġasked":12298,"ĠTrying":12299,"ĠConfigure":12300,"ĠOrder":12301,"Ġdelegating":12302,"Ġcapacity":12303,"Menubutton":12304,"RTUAL":12305,"Ġalpharep":12306,"Does":12307,"SecTrust":12308,"ĠExecute":12309,"Ġunbounditems":12310,"cnfmerge":12311,"Normalize":12312,"sanitized":12313,"expandingbutton":12314,"Ġmatrix":12315,"Ġaltsep":12316,"Ġshorten":12317,"Ġnarrowing":12318,"LANG":12319,"Ġconfirm":12320,"ĠMarker":12321,"ĠâĶĶâĶĢâĶĢ":12322,"Ġfixtures":12323,"ĠRecord":12324,"Ġsituation":12325,"canvheight":12326,"instructions":12327,"Ġsurrounding":12328,"Arch":12329,"urlencode":12330,"OverflowMethod":12331,"Ġinferred":12332,"shebang":12333,"attachment":12334,"COROUTINE":12335,"InstallationCandidate":12336,"EXTENSIONS":12337,"Ġpanedwindow":12338,"riginal":12339,"ĠModify":12340,"Points":12341,"Ġinteresting":12342,"relief":12343,"Ġbelongs":12344,"fuzz":12345,"purelib":12346,"ĠCertificateError":12347,"ĠHiddenText":12348,"Ġiteritems":12349,"ĠNetscape":12350,"NotSupported":12351,"302":12352,"69":12353,"82":12354,"Body":12355,"Cancel":12356,"DF":12357,"Double":12358,"Evaluate":12359,"Give":12360,"GNU":12361,"Issue":12362,"NSE":12363,"Pr":12364,"SAX":12365,"Target":12366,"TypedDict":12367,"WR":12368,"\\(":12369,"ai":12370,"dll":12371,"osi":12372,"pn":12373,"xz":12374,"ĠKeys":12375,"Ġimap":12376,"Ġcra":12377,"Ġflash":12378,"Ġfsrc":12379,"erived":12380,"Ġrelies":12381,"ural":12382,"Ġpseudo":12383,"Ġinexact":12384,"unraisable":12385,"asucs":12386,"Ġtodo":12387,"distance":12388,"ried":12389,"advanced":12390,"could":12391,"()\",":12392,"Ġ(?":12393,"esmtp":12394,"ĠPure":12395,"ĠPlace":12396,"__),":12397,"__\":":12398,"Ġcovered":12399,"Ġexer":12400,"Ġhits":12401,"llar":12402,"')[":12403,"sionError":12404,"excep":12405,"Ġbytestring":12406,"forget":12407,"))))":12408,"Ġhexadecimal":12409,"ĠEscape":12410,"pyfile":12411,"TestRun":12412,"permanent":12413,"Ġexported":12414,"ĠBroken":12415,"stringnl":12416,"Ġcapath":12417,"ĠInfinity":12418,"optionflags":12419,"calltip":12420,"substit":12421,"subscriber":12422,"INEL":12423,"Ġ('.":12424,"compat":12425,"compact":12426,"Ġtokendefs":12427,"clipboard":12428,"ignDTD":12429,"Ġmanifest":12430,"Ġ\"\":":12431,"TIAL":12432,"Ġshall":12433,"beha":12434,"ecode":12435,"implicit":12436,"oreignDTD":12437,"ĠPygments":12438,"Ġmostly":12439,"limbo":12440,"Ġmodulo":12441,"NOTE":12442,"addrinfo":12443,"ĠPathLike":12444,"Ġrestored":12445,"retries":12446,"Ġretorna":12447,"SOL":12448,"TestsFrom":12449,"COLUM":12450,"Ġsensible":12451,"Ġgoto":12452,"ĠGenerates":12453,"ĠAdditionally":12454,"Ġtabwidth":12455,"Ġpickler":12456,"Ġpickling":12457,"poolmanager":12458,"iterables":12459,"SubTest":12460,"Multipart":12461,"compatibility":12462,"truediv":12463,"Ġscenari":12464,"Ġflushing":12465,"Ġdelimiters":12466,"Ġseeking":12467,"ĠIOError":12468,"Ġcounting":12469,"Ġcapable":12470,"Ġcapability":12471,"ĠEntryPoint":12472,"Ġincreases":12473,"Ġholding":12474,"SectionError":12475,"tivity":12476,"ĠExecution":12477,"Loads":12478,"Ġforever":12479,"Character":12480,"Provides":12481,"Ġintrospection":12482,"ĠInstallationCandidate":12483,"microsoft":12484,"}]\"":12485,"ĠMenu":12486,"Ġresponsible":12487,"rmdir":12488,"CEPT":12489,"Ġoverlapping":12490,"rithmeticError":12491,"Ġexisted":12492,"Ġmacosx":12493,"ĠEnvironment":12494,"Ġsemicolon":12495,"ĠTemporaryPyFile":12496,"Ġrisk":12497,"ĠVerifies":12498,"TRUECOLOR":12499,"ĠDescription":12500,"DISABLE":12501,"COMPLETED":12502,"excepthook":12503,"!/":12504,"\";":12505,"\".\"\"\"":12506,"-)":12507,"314":12508,"=')":12509,"?')":12510,"CD":12511,"Clean":12512,"CancelledError":12513,"Certificate":12514,"CANCELLED":12515,"Embed":12516,"Fork":12517,"ForeignDTD":12518,"Has":12519,"IM":12520,"Join":12521,"MM":12522,"Ori":12523,"Put":12524,"SV":12525,"Single":12526,"Serialize":12527,"SAMPLE":12528,"Take":12529,"USH":12530,"WCHAR":12531,"[*":12532,"`_":12533,"bÃ¤r":12534,"csidl":12535,"duration":12536,"flus":12537,"gname":12538,"gcd":12539,"pect":12540,"qs":12541,"qnan":12542,"sunder":12543,"ttext":12544,"yper":12545,"ĠâĶĢâĶĢâĶĢâĶĢâĶĢâĶĢâĶĢâĶĢâĶĢâĶĢâĶĢâĶĢâĶĢâĶĢâĶĢâĶĢâĶĢâĶĢâĶĢâĶĢâĶĢâĶĢâĶĢâĶĢâĶĢâĶĢâĶĢâĶĢâĶĢâĶĢâĶĢâĶĢ":12546,"secs":12547,"reamed":12548,"Ġaff":12549,"teres":12550,"sto":12551,"ortem":12552,"memb":12553,"Ġfault":12554,"Ġrem":12555,"Ġpm":12556,"Ġpes":12557,"Ġptext":12558,"Ġpopen":12559,"Ġslices":12560,"Ġnti":12561,"Ġnbytes":12562,"Ġwerkzeug":12563,"uncache":12564,"unfinished":12565,"unseen":12566,"):\\":12567,"Ġanaly":12568,"Ġms":12569,"Ġmind":12570,"Ġmortem":12571,"dimension":12572,"rior":12573,"rides":12574,"raising":12575,"adhoc":12576,"sift":12577,"Ġformer":12578,"ĠTarget":12579,"ĠTurn":12580,"Ġ\"?\"":12581,"Ġ`<":12582,"Ġdns":12583,"Ġdados":12584,"Ġdlopen":12585,"Ġcoding":12586,"testfile":12587,"Ġconj":12588,"Ġconcer":12589,"pefully":12590,"itude":12591,"Ġsele":12592,"Ġsess":12593,"Ġseps":12594,"fixture":12595,"Revision":12596,"ĠIEEE":12597,"Ġchance":12598,"Ġmeant":12599,"parties":12600,"Ġdes":12601,"Ġgone":12602,"Ġgit":12603,"Ġgnu":12604,"conditional":12605,"(''.":12606,"tok":12607,"scr":12608,"(\"[":12609,"(\"{":12610,"ĠCOL":12611,"ĠCRLF":12612,"Ġwhatis":12613,"ĠFlush":12614,"Ġprotect":12615,"Ġ::":12616,"etail":12617,"Ġrargs":12618,"assertRegex":12619,"outing":12620,"outfile":12621,"ĠDI":12622,"ĠDid":12623,"ĠDist":12624,"moke":12625,"matched":12626,"Ġunfiltered":12627,"Ġunwinding":12628,"preference":12629,"dbg":12630,"probs":12631,"Ġatual":12632,"ĠOuter":12633,"Ġprevents":12634,"ĠWhere":12635,":`_":12636,"lslices":12637,"ĠMH":12638,"acteres":12639,"ĠVV":12640,"Ġleftover":12641,"neg":12642,"need":12643,"aby":12644,"Ġsubpart":12645,"izaÃ§Ã£o":12646,"Ġcompliant":12647,"Ġcaret":12648,"Ġxbar":12649,"ĠLim":12650,"ĠLSH":12651,"Ġroutes":12652,"Ġcolli":12653,"TypeIs":12654,"pical":12655,"Ġendpoints":12656,"Ġln":12657,"Ġformato":12658,"calling":12659,"These":12660,"ĠRelease":12661,"INF":12662,"INK":12663,"Extend":12664,"dend":12665,"Ġmaxdigits":12666,"Ġclipboard":12667,"ContextVar":12668,"Ġ44":12669,"Ġconfigurable":12670,"Ġabbr":12671,"RESET":12672,"noresize":12673,"102":12674,"Ġcorrupt":12675,"Ġframeless":12676,"latest":12677,"Ġafterwards":12678,"Ġ\"\"))":12679,"Ġmemlen":12680,"ĠmemÃ³ria":12681,"Ġerrread":12682,"Ġminute":12683,"copyfileobj":12684,"Ġconnectionchatty":12685,"specification":12686,"execv":12687,"Ġdescribe":12688,"topts":12689,"ĠJan":12690,"]>\",":12691,"Look":12692,"Ġreplacements":12693,"ALLOW":12694,"rawtext":12695,"Ġimpossible":12696,"mbd":12697,"stale":12698,"finities":12699,"Ġdirlist":12700,"chedule":12701,"sockfile":12702,"asciistring":12703,"Ġrespect":12704,"Ġsearchphrase":12705,"showtraceback":12706,"Ġmonit":12707,"Ġapproach":12708,"retrieve":12709,"PROCESS":12710,"Ġvarargs":12711,"chunksize":12712,"ĠMovie":12713,"Ġaccessor":12714,"Ġcouldn":12715,"Ġdetermines":12716,"Ġfilling":12717,"timizador":12718,"Ġrealpos":12719,"Attr":12720,"Reads":12721,"Ġdisassembly":12722,"adow":12723,"POINTER":12724,"DataType":12725,"PCbuild":12726,"customlist":12727,"FrameInfo":12728,"Ġdefinitions":12729,"zones":12730,"phan":12731,"Ġusando":12732,"Ġsimples":12733,"Constructs":12734,"Ġ'<<":12735,"fillpath":12736,"Ġmuito":12737,"Ġseqn":12738,"tribs":12739,"ÃŃn":12740,"Expect":12741,"initializer":12742,"compressor":12743,"ĠClient":12744,"TaskGroup":12745,"unpacked":12746,"operations":12747,"CalledProcessError":12748,"FLUSH":12749,"Ġwarmup":12750,"MOVE":12751,"Ġpreceded":12752,"Ġdispatched":12753,"DIRS":12754,"Ġcatching":12755,"factors":12756,"xied":12757,"Ġoptimizer":12758,"Ġbigl":12759,"Ġforkserver":12760,"Ġpercentage":12761,"ACKET":12762,"Ġrotdig":12763,"Ġturned":12764,"PREFER":12765,"ĠExecutor":12766,"freeze":12767,"Ġheapq":12768,"Ġgraphics":12769,"Ġcaracteres":12770,"Ġ2045":12771,"Ġ2048":12772,"Ġmutate":12773,"ĠSecond":12774,"Ġparenthesis":12775,"sanitize":12776,"Ġmaintype":12777,"Ġshortopts":12778,"delegate":12779,"Ġexporting":12780,"letter":12781,"Ġdeadlock":12782,"ĠElementTree":12783,"bottomframe":12784,"Ġabbreviation":12785,"bgpic":12786,"Ġdeliber":12787,"ProgressType":12788,"RUNTIME":12789,"Ġamong":12790,"charmapstring":12791,"ĠEnvironBuilder":12792,"Ġflushed":12793,"Ġinvolving":12794,"Ġenforced":12795,"Ġdescendants":12796,"Ġdiagno":12797,"Private":12798,"SUPPORTED":12799,"ĠPIPE":12800,"PARE":12801,"Ġdyld":12802,"Ġprimeiro":12803,"JustifyMethod":12804,"Ġmicrosecond":12805,"Ġreentrant":12806,"ĠRMSNorm":12807,"Ġintroduced":12808,"Ġ'**'":12809,"PAGER":12810,"Ġsvn":12811,"Ġshifted":12812,"drain":12813,"totype":12814,"ĠIGNORE":12815,"scii":12816,"RETURN":12817,"Ġaffects":12818,"ĠTargetPython":12819,"etails":12820,"\"'{":12821,"'?":12822,"'}:":12823,")[-":12824,".:":12825,"79":12826,">)":12827,"?\\":12828,"CHECK":12829,"DD":12830,"Eff":12831,"EIGHT":12832,"Final":12833,"MY":12834,"Max":12835,"OPTION":12836,"Track":12837,"UGE":12838,"UDP":12839,"Za":12840,"ZPATH":12841,"aled":12842,"alect":12843,"fr":12844,"hr":12845,"har":12846,"jection":12847,"mixed":12848,"purpose":12849,"ral":12850,"sax":12851,"uing":12852,"ysi":12853,"Ġsel":12854,"Ġ._":12855,"Ġai":12856,"Ġalogger":12857,"Ġthrows":12858,"Ġthrown":12859,"erf":12860,"Ġrebuild":12861,"Ġrenamed":12862,"Ġreduces":12863,"Ġbold":12864,"Ġsi":12865,"Ġsni":12866,"Ġsanity":12867,"anger":12868,"anonymous":12869,"Ġemp":12870,"gethe":12871,"Ġmd":12872,"Ġstub":12873,"Ġ'[":12874,"ĠTakes":12875,"Ġvector":12876,"iscoroutine":12877,"....":12878,"Ġ\">\"":12879,"__().":12880,"Ġdrag":12881,"Ġcolo":12882,"linecache":12883,"later":12884,"textwrap":12885,"vertical":12886,"ĠImage":12887,"Ġdecre":12888,"Ġgm":12889,"conv":12890,"olaris":12891,"hole":12892,"filelineno":12893,"(\"#":12894,"ĠCTE":12895,"ĠCalculate":12896,"Ġ[]:":12897,"vail":12898,"readonly":12899,"Ġunquoting":12900,"ĠEst":12901,"ĠEHLO":12902,"typically":12903,"malloc":12904,"Contain":12905,"ĠWINDO":12906,"Ġbounding":12907,"Ġtypeid":12908,"pypi":12909,"Ġusegmt":12910,"ĠRa":12911,"Ġheadersonly":12912,"ĠBind":12913,"ĠBased":12914,"Ġsubs":12915,"fromstring":12916,"ĠInstruction":12917,"Ġlmargin":12918,"ĠRegex":12919,"Exactly":12920,"compound":12921,"Dictionary":12922,"Divide":12923,"ETags":12924,"web":12925,"ENOT":12926,"grouped":12927,"outputs":12928,"shallow":12929,"Ġbuildbot":12930,"downloads":12931,"strate":12932,":]))":12933,"cmdline":12934,"Ġinvalidate":12935,"hemeral":12936,"populate":12937,"Ġcolumnspan":12938,"})'":12939,"parsers":12940,"Nodes":12941,"Ġtracebacks":12942,"OptionParser":12943,"fsrc":12944,"HEEL":12945,"maskValueError":12946,"ĠAsync":12947,"automatically":12948,"Ġdepend":12949,"Ġ'%'":12950,"SERT":12951,"SHUT":12952,"Ġnumerical":12953,"ĠCompression":12954,"Ġ\"-\"":12955,"ASS":12956,"Almost":12957,"ĠDELETE":12958,"ĠNameError":12959,"Ġrevised":12960,"operand":12961,"ĠINF":12962,"every":12963,"('.')[":12964,"ectiveLevel":12965,"ĠEntryPoints":12966,"Ġadditionally":12967,"('.',":12968,"UNKNOWN":12969,"ĠRequestsCookieJar":12970,"ynamic":12971,"Complex":12972,"ĠAuthentication":12973,"ĠUnsupportedOperation":12974,"microsecond":12975,"NamedTemporaryFile":12976,"Ġinherits":12977,"DummyList":12978,"USR":12979,"Both":12980,"ĠBooleanVar":12981,"Ġhours":12982,"DOMImplementation":12983,"Ġpulldom":12984,"PurePath":12985,"SampleClass":12986,"MAND":12987,"Ġefficiently":12988,"Ġpreparation":12989,"MutableMapping":12990,"Ġconvention":12991,"Ġsolution":12992,"ĠNetmaskValueError":12993,"EnabledFor":12994,"inguish":12995,"NSEW":12996,"Ġexercise":12997,"EffectiveLevel":12998,"&'":12999,"(\"\")":13000,"++":13001,"-(":13002,"/:":13003,"06":13004,"217":13005,"440":13006,"650":13007,"97":13008,">/<":13009,"DB":13010,"DUP":13011,"Free":13012,"Fill":13013,"Hop":13014,"ITE":13015,"Language":13016,"Matches":13017,"NL":13018,"NUT":13019,"Nested":13020,"Offset":13021,"Push":13022,"Takes":13023,"Utility":13024,"WARD":13025,"][\"":13026,"])))":13027,"bon":13028,"blob":13029,"cr":13030,"cup":13031,"closing":13032,"gree":13033,"lator":13034,"plist":13035,"rx":13036,"uck":13037,"uch":13038,"uso":13039,"wsp":13040,"xistent":13041,"ymp":13042,"zilla":13043,"|>":13044,"|\\":13045,"Ġmp":13046,"thousands":13047,"rescale":13048,"stride":13049,"decomp":13050,"Ġips":13051,"Ġcwords":13052,"Ġffn":13053,"Ġfsum":13054,"alo":13055,"alized":13056,"Ġ=?":13057,"Ġtrap":13058,"Ġredirection":13059,"ename":13060,"uraÃ§Ã£o":13061,"Ġbz":13062,"ĠsNaN":13063,"attribs":13064,"Ġindata":13065,"unlock":13066,"Ġisatty":13067,"helo":13068,"Ġtoc":13069,"ntries":13070,"Ġanal":13071,"ĠmÃºl":13072,"rather":13073,"ratios":13074,"coes":13075,"Ġstrace":13076,"()/":13077,"()')":13078,"Ġ(:":13079,"Ġ(<":13080,"ĠTable":13081,"ĠTERM":13082,"Ġvs":13083,"ĠPh":13084,"ĠPossible":13085,"Ġ\"!":13086,"__).":13087,"__}.{":13088,"paque":13089,"pawn":13090,"Ġdashes":13091,"Ġextent":13092,"getstr":13093,"getsock":13094,"getopt":13095,"getattribute":13096,"linic":13097,"made":13098,"Ġhang":13099,"amos":13100,"veri":13101,"anddel":13102,"Receive":13103,"')>":13104,"upload":13105,"Ġmet":13106,"Ġdesign":13107,"Ġdecrement":13108,"Ġdecompressed":13109,"Ġenvelo":13110,"idb":13111,"Ġgrace":13112,"Ġfileout":13113,"illed":13114,"tolist":13115,"totically":13116,"ĠShell":13117,"ĠCallback":13118,"ĠCANCELLED":13119,"keydefs":13120,"ĠFurther":13121,"ĠFINISHED":13122,"Ġsufficient":13123,"setlist":13124,"ellow":13125,"))]":13126,"))):":13127,"Ġ...],":13128,"ReturnValue":13129,"nother":13130,"noptions":13131,"ĠDue":13132,"mensÃ£o":13133,"appear":13134,"Ġunsafe":13135,"pred":13136,"preprocessor":13137,"Ġtransient":13138,"usable":13139,"ĠatÃ©":13140,"Ġalthough":13141,"ĠkeySet":13142,"rested":13143,"Ġlineend":13144,"ĠUS":13145,"Ġresultado":13146,"tenÃ§Ã£o":13147,"istration":13148,"lsh":13149,"Ġbootstrap":13150,"pybuilddir":13151,"Ġapplying":13152,"Ġexplain":13153,"ĠBLE":13154,"Ġsubtest":13155,"Ġcomps":13156,"Ġmessagebox":13157,"Ġlaun":13158,"ĠHAS":13159,"Ġcolwidth":13160,"ĠExit":13161,"rencode":13162,"ĠInclu":13163,"ĠInherit":13164,"notab":13165,"Ġuserhome":13166,"fere":13167,"Ġsupply":13168,"Ġmodes":13169,"ĠReceive":13170,"=\"\\":13171,"Ġ('#":13172,"ĠConsider":13173,"splitter":13174,"returning":13175,"Ġprintable":13176,"Ġvalidity":13177,"methodSignature":13178,"Ġ425":13179,"processors":13180,"configuration":13181,"directly":13182,"Ġeventfun":13183,"Ġkilled":13184,"Ġ@_":13185,"ORIG":13186,"ĠbaseName":13187,"Ġfolded":13188,"\"]``.":13189,"*****":13190,"Ġstatetokens":13191,"Ġ/):":13192,"Ġlastline":13193,"interspersed":13194,"Ġsignatures":13195,"Ġmultiarch":13196,"indexbracket":13197,"MARK":13198,"Ġtempdir":13199,"responses":13200,"decodeunicodeescape":13201,"decodecharmap":13202,"Ġ\"\"),":13203,"possibilities":13204,"ĠComplete":13205,"gather":13206,"ĠForce":13207,"Ġlinkname":13208,"Ġobjcopy":13209,"DEVNULL":13210,"ĠXPath":13211,"lerator":13212,"Ġloopback":13213,"Ġseem":13214,"Ġtraces":13215,"Ġtraversable":13216,"addresslist":13217,"DictMixin":13218,"Ġglobally":13219,"grad":13220,"111":13221,"Semaphore":13222,"Ġdocumento":13223,"Ġrulefactory":13224,"Ġarchs":13225,"clearstamp":13226,"Ġsucceeded":13227,"Ġsessions":13228,"NOTI":13229,"PEM":13230,"Ġboundaries":13231,"Ġskipkeys":13232,"Ġcommunicate":13233,"Ġextpos":13234,"TODO":13235,"={}):":13236,"statuso":13237,"Ġvarkw":13238,"spectLoader":13239,"227":13240,"optdict":13241,"Ġpipes":13242,"choose":13243,"fullmatch":13244,"NAMED":13245,"antiate":13246,"Generates":13247,"Ġdescriptions":13248,"ĠSSLError":13249,"shapesize":13250,"seqn":13251,"1360":13252,"Ġinstalls":13253,"Ġplaceholder":13254,"Ġdisassemble":13255,"ECD":13256,"HelpSource":13257,"ZipInfo":13258,"Ġstrictly":13259,"ConnectionError":13260,"Ġhappened":13261,"tmpfile":13262,"Constructor":13263,"setuptools":13264,"suming":13265,"fragments":13266,"FILENO":13267,"MappingProtocol":13268,"ĠSubversion":13269,"Commands":13270,"branch":13271,"Collect":13272,"Ġenclosing":13273,"ĠSimpleXMLRPC":13274,"decla":13275,"SIGALRM":13276,"Ġuniquely":13277,"awaitable":13278,"InternalServerError":13279,"universal":13280,"Authentication":13281,"ĠNaNs":13282,"Ġbpnumber":13283,"\"[{":13284,"Defaults":13285,"svg":13286,"ĠsetUpClass":13287,"rslices":13288,"ShutDown":13289,"Ãºni":13290,"[...]``":13291,"Ġoldest":13292,"ĠQueueShutDown":13293,"Ġparagraphs":13294,"ĠTempDirectory":13295,"NOTSET":13296,"slicelen":13297,"Ġnaive":13298,"Ġcorners":13299,"Ġforeign":13300,"Ġpieces":13301,"ĠUsers":13302,"Ġreachable":13303,"Ġstretchfactor":13304,"Ġfigures":13305,"Ġexportselection":13306,"Ġdeadline":13307,"ĠShutDown":13308,"closer":13309,"MemoryError":13310,"UnsupportedOperation":13311,"Ġprecise":13312,"Threaded":13313,"fastcopy":13314,"doublecolon":13315,"ĠAlign":13316,"ĠAliases":13317,"preferred":13318,"Ġcbname":13319,"Ġguides":13320,"Ġ``~/.":13321,"ĠExpecting":13322,"Ġbasically":13323,"urlencoded":13324,"dnsname":13325,"Ġdiagon":13326,"concurrently":13327,"AltName":13328,"VIRTUAL":13329,"ĠsequÃªncia":13330,"ObsoleteHeaderDefect":13331,"exposed":13332,"Ġnotification":13333,"confirm":13334,"Graphics":13335,"ĠTESTFN":13336,"ortunately":13337,"=\"\"):":13338,"Denied":13339,"DIRECTORY":13340,"AVAIL":13341,"()*+,":13342,"ĠEMPTYSTRING":13343,"Ġpalavras":13344,"ĠFire":13345,"dimensional":13346,"Ġdnsnames":13347,"PAREN":13348,"Ġgmtoff":13349,"&'()*+,":13350,"ymptotically":13351,"ĠmÃºltip":13352,"Ġenvelope":13353,"ORIGIN":13354,"statusoutput":13355,"136057":13356,"\"',":13357,"'\"\"\"":13358,"625":13359,"834":13360,"=<":13361,"Cert":13362,"CGI":13363,"DA":13364,"DK":13365,"DENT":13366,"Details":13367,"FUNC":13368,"Global":13369,"Guess":13370,"Gets":13371,"PT":13372,"XH":13373,"YS":13374,"beco":13375,"bbox":13376,"crc":13377,"don":13378,"due":13379,"fhandle":13380,"qdm":13381,"ught":13382,"vBuilder":13383,"}>\"":13384,"}-{":13385,"Ġulti":13386,"onecmd":13387,"inside":13388,"inher":13389,"Ġahead":13390,"orab":13391,"declar":13392,"Ġcenter":13393,"Ġfwalk":13394,"erminate":13395,"Ġrename":13396,"Ġplay":13397,"ats":13398,"Ġintr":13399,"Ġev":13400,"Ġtoler":13401,"ones":13402,"Ġ(\"\",":13403,"ĠTerm":13404,"isclass":13405,"getstate":13406,"getresponse":13407,"getrandbits":13408,"Ġconsult":13409,"itle":13410,"Ġhh":13411,"Ġdefer":13412,"ĠInt":13413,"Ġended":13414,"ĠAuthorization":13415,"ĠSort":13416,"(\":\",":13417,"(\":\")":13418,"listbox":13419,"pople":13420,"moved":13421,"readall":13422,"readbuf":13423,"Ġuncache":13424,"Ġunpickle":13425,"Ġunconditionally":13426,"ĠER":13427,"Core":13428,"Ġsetdefault":13429,"Ġ27":13430,"ĠNull":13431,"backwards":13432,"ĠMis":13433,"ĠMuse":13434,"ĠMissing":13435,"ĠRed":13436,"ĠRational":13437,"Incremental":13438,"uplex":13439,"Ġlets":13440,"izers":13441,"haps":13442,"osfhandle":13443,"ĠassertRaises":13444,"Ġlnum":13445,"ĠGot":13446,"formatweek":13447,"ĠRetrieve":13448,"Extended":13449,"layers":13450,"Ġability":13451,"REAL":13452,"ĠTesting":13453,"Ġbacked":13454,"Ġquad":13455,"tokentype":13456,"Ġproviders":13457,"Unit":13458,"EnvBuilder":13459,"Ġrecip":13460,"MAGIC":13461,"TIVE":13462,"winerror":13463,"Ġ503":13464,"Ġmakefile":13465,"DEL":13466,"handlerList":13467,"Locator":13468,"grab":13469,"Ġoriginally":13470,"FIRST":13471,"HandlerTest":13472,"Ġinitially":13473,"hashable":13474,"limits":13475,"Now":13476,"Ġprimarily":13477,"classed":13478,"ParserCreate":13479,"]]]:":13480,"Ġcommunication":13481,"Ġlocks":13482,"Ġselectforeground":13483,"Measurement":13484,"Ġidentifies":13485,"Ġfractions":13486,"DIFF":13487,"Apple":13488,"TERS":13489,"Ġ\"/\",":13490,"TLSVersion":13491,"Formats":13492,"Ġacceptable":13493,"CFG":13494,"ĠReads":13495,"Ġrepetition":13496,"Compile":13497,"Compares":13498,"Ġlowest":13499,"Capture":13500,"ĠStringVar":13501,"Ġawakened":13502,"Collection":13503,"ĠTimestamp":13504,"compatibilities":13505,"Ġcalculation":13506,"cleanups":13507,"finalizer":13508,"Ġsilen":13509,"Ġletters":13510,"ĠRegression":13511,"STRU":13512,"indicator":13513,"Ġphysi":13514,"identifiers":13515,"ĠClassVar":13516,"SYN":13517,"Ġlistening":13518,"printables":13519,"ĠModules":13520,"SOCKET":13521,"ĠCollect":13522,"Currently":13523,"asynct":13524,"GeneratorExit":13525,"Ġasynchronously":13526,"Ġephemeral":13527,"Ġstopping":13528,"FORMATS":13529,"Ġsqrt":13530,"aligned":13531,"ĠSOCKS":13532,"Ġdescendant":13533,"conflicting":13534,"ENTITY":13535,"ParsingError":13536,"ĠPrivate":13537,"ĠManager":13538,"STORE":13539,"Mismatch":13540,"permissions":13541,"Listener":13542,"Ġpractice":13543,"ĠWINDOWS":13544,"AlmostEqual":13545,"popleft":13546,"!).":13547,"%(":13548,"';":13549,"'>":13550,")`":13551,",-":13552,",!=":13553,"377":13554,"Agent":13555,"BR":13556,"BY":13557,"Block":13558,"GMT":13559,"IMA":13560,"IMP":13561,"ISS":13562,"Min":13563,"May":13564,"Nag":13565,"QQ":13566,"Ra":13567,"Space":13568,"Scheme":13569,"Top":13570,"Tab":13571,"Trace":13572,"ULE":13573,"\\)":13574,"brace":13575,"bio":13576,"dtext":13577,"etition":13578,"fortunately":13579,"ipython":13580,"iche":13581,"job":13582,"jupyter":13583,"ka":13584,"lli":13585,"myp":13586,"opar":13587,"oInfo":13588,"qp":13589,"rtest":13590,"sin":13591,"snap":13592,"tdef":13593,"tinfo":13594,"tries":13595,"utime":13596,"vServer":13597,"wg":13598,"|',":13599,"}_":13600,"ĠÃŃn":13601,"ĠÃºni":13602,"onerror":13603,"instr":13604,"resi":13605,"redir":13606,"rehen":13607,"rers":13608,"reraised":13609,"Ġavail":13610,"ĠatenÃ§Ã£o":13611,"stable":13612,"orters":13613,"deos":13614,"mebrew":13615,"Ġcj":13616,"Ġcen":13617,"Ġcryptography":13618,"Ġfash":13619,"Ġfingerprint":13620,"ertical":13621,"Ġretain":13622,"enume":13623,"Ġomit":13624,"Ġpon":13625,"Ġpep":13626,"ĠsÃ£o":13627,"Ġsinfo":13628,"Ġsquee":13629,"Ġslight":13630,"Ġswap":13631,"Ġnthreads":13632,"Ġnumerator":13633,"Ġwchar":13634,"Ġinfinity":13635,"Ġinteraction":13636,"Ġinconsistent":13637,"anny":13638,"unge":13639,"unparse":13640,"defbc":13641,"heapreplace":13642,"tura":13643,"gem":13644,"Ġantes":13645,"Ġmi":13646,"Ġmist":13647,"dice":13648,"rica":13649,"rays":13650,"ragment":13651,"coordinates":13652,"coeff":13653,"uly":13654,"Ġstreamed":13655,"ĠTrun":13656,"ĠTAG":13657,"ĠTIME":13658,"isabstractmethod":13659,"isEnabledFor":13660,"chksum":13661,"Ġutils":13662,"__\"\"\"":13663,"paca":13664,"pause":13665,"Ġdraw":13666,"Ġcoord":13667,"ĠfunÃ§Ãµes":13668,"Ġexe":13669,"getrecursionlimit":13670,"testfuzz":13671,"lah":13672,"Ġconsistency":13673,"Ġsequential":13674,"odata":13675,"Ġhp":13676,"figs":13677,"verti":13678,"andoc":13679,"veis":13680,"Ġaslist":13681,"Ġasutf":13682,"llator":13683,"Ġchatty":13684,"upOn":13685,"Ġdeque":13686,"Ġgap":13687,"bare":13688,"olate":13689,"ĠAwa":13690,"ĠAGEN":13691,"ĠSH":13692,"ĠSafe":13693,"ĠSymlink":13694,"ĠShape":13695,"ĠScrollbar":13696,"...)":13697,"filemod":13698,"(\">":13699,"ĠClosing":13700,"ĠCaminho":13701,"Ġnets":13702,"keymap":13703,"Ġwhiche":13704,"ĠFull":13705,"ĠFORMAT":13706,"ĠFOO":13707,"dopen":13708,"linebuffer":13709,"forwards":13710,"forgi":13711,"Ġprodu":13712,"setrecursionlimit":13713,"Ġmagn":13714,"Ġ``<":13715,"Ġ``('":13716,"visit":13717,"Ġrng":13718,"Ġ08":13719,"nos":13720,"nomes":13721,"ffn":13722,"ffsets":13723,"argspec":13724,"applies":13725,"Ġuninstalled":13726,"Ġuntrusted":13727,"Ġunreserved":13728,"Ġunambiguous":13729,"pret":13730,"Coerce":13731,"Common":13732,"Ġgetstate":13733,"usa":13734,"Ġlistbox":13735,"Ġversioned":13736,"urlunsplit":13737,"Ġkeyfile":13738,"Ġdatasets":13739,"Ġadvan":13740,"Ġadverti":13741,"ĠMod":13742,"pytest":13743,"Ġpaste":13744,"Invocation":13745,"():.":13746,"():\\":13747,"ĠVi":13748,"ĠBLOCK":13749,"ĠBlockingIOError":13750,"needs":13751,"aborter":13752,"Ġsubmodules":13753,"Ġsubdirs":13754,"Ġsubgenerator":13755,"izar":13756,"pendown":13757,"Ġcontextvars":13758,"Ġxrefs":13759,"ĠLF":13760,"ĠLEN":13761,"ĠLazy":13762,"Ġacct":13763,"Ġchecksum":13764,"Ġzlib":13765,"ĠIndent":13766,"Ġurlparts":13767,"pilog":13768,"pictures":13769,"Ġldt":13770,"Ġformatters":13771,"licated":13772,"ĠGC":13773,"formatparam":13774,"subset":13775,"submit":13776,"validation":13777,"Ġupstream":13778,"ĠReader":13779,"ĠRemote":13780,"sigma":13781,"thetic":13782,"contextvar":13783,"Ġstartx":13784,"Ġdocumented":13785,"compiled":13786,"competition":13787,"syste":13788,"sysroot":13789,"Ġvalname":13790,"Ġ404":13791,"scribe":13792,"Ġdists":13793,"ĠconfigSet":13794,"RESS":13795,"Ġsizeof":13796,"ĠsizeEndCentDir":13797,"configType":13798,"checkhide":13799,"Diff":13800,"imulate":13801,"ghi":13802,"Ġperm":13803,"Ġperplex":13804,"Ġperiodi":13805,"fferent":13806,"ĠUnder":13807,"Ġvisited":13808,"Ġvideos":13809,"Ġbuffersize":13810,"Ġitervalues":13811,"Ġiterkeys":13812,"decoderawunicodeescape":13813,"ETag":13814,"ETAIL":13815,"would":13816,"TICAL":13817,"ĠCommon":13818,"grouping":13819,"KeySet":13820,"Ġ517":13821,"binascii":13822,"RequestField":13823,"refleak":13824,"refcycles":13825,"Ġtruecolor":13826,"ĠXcode":13827,"Ġlocaltime":13828,"Ġlocalhost":13829,"Ġindicator":13830,"Ġinclusive":13831,"THRESH":13832,"\\\\',":13833,"Ġresolves":13834,"envpy":13835,"Ġimplicitly":13836,"Force":13837,"extracted":13838,"115":13839,"Ġpictures":13840,"UNT":13841,"ResponseReturnValue":13842,"ACCESS":13843,"ACCEPT":13844,"HTTPRequestHandler":13845,"UTO":13846,"jsonify":13847,"GIL":13848,"Dependency":13849,"monic":13850,"ĠDeleg":13851,"ContentRange":13852,"issuecomment":13853,"ĠNoApp":13854,"Ġrawmode":13855,"Ġ72":13856,"Ġ'.'.":13857,"Ġcommits":13858,"ĠextKeys":13859,"Ġattrtext":13860,"DOT":13861,"Ġrenders":13862,"Ġrestri":13863,"Ġlongopts":13864,"ConsoleOutput":13865,"Ġdoctests":13866,"ĠMost":13867,"globaltrace":13868,"gramas":13869,"writes":13870,"Ġfpin":13871,"chome":13872,"Ġrightmost":13873,"loggerDict":13874,"UnicodeEncodeError":13875,"Ġjsonlines":13876,"Ġfragments":13877,"Ġrealname":13878,"Ġterminals":13879,"google":13880,"AGAIN":13881,"1415":13882,"warned":13883,"ĠIDNA":13884,"133333":13885,"ĠPrevious":13886,"ĠPrepared":13887,"preparer":13888,"Ġlibpaths":13889,"ValueEx":13890,"Multiple":13891,"172":13892,"ĠUNBOUND":13893,"commentlist":13894,"IGNO":13895,"atisfiable":13896,"Ġmusic":13897,"tzname":13898,"tzpath":13899,"Ġstripping":13900,"Ġperforms":13901,"Ġperforming":13902,"parsedate":13903,"tabsize":13904,"OnClose":13905,"Ġhextets":13906,"ILL":13907,"Ġchaining":13908,"vidos":13909,"xxtestfuzz":13910,"Ġsymbols":13911,"timestamps":13912,"Ġrevisions":13913,"ĠTokenList":13914,"ĠTokeniza":13915,"nius":13916,"integers":13917,"Ġsigint":13918,"JSONDecoder":13919,"identity":13920,"Ġzoneinfo":13921,"Ġspecifications":13922,"Ġhardware":13923,"BOOL":13924,"Ġinterested":13925,"Ġ``(',":13926,"ĠAccording":13927,"Ġbigger":13928,"Ġsatisfies":13929,"ĠHelpFormatter":13930,"Ð°Ð":13931,"Ġdelegation":13932,"OLD":13933,"Ġincreased":13934,"Ġincreasing":13935,"OneInvocation":13936,"(\"-\",":13937,"Ġsmallest":13938,"ĠLiteralString":13939,"unicodeescapestring":13940,"ĠInterpolation":13941,"symtable":13942,"373":13943,"Ġcarreg":13944,"ĠSecureTransport":13945,"rpcclt":13946,"ĠInternalServerError":13947,"ShellEmbed":13948,"Ġunixfrom":13949,"delegation":13950,"Ġ'+'":13951,"Ġ';'":13952,"tiltangle":13953,"Ġstopped":13954,"ĠLinear":13955,")?')":13956,"CLU":13957,"ĠâĶľâĶĢâĶĢ":13958,"collections":13959,"ĠLOAD":13960,"agens":13961,"MacOS":13962,"ProgressColumn":13963,"stripped":13964,"Ġsimulate":13965,"Ġsimultane":13966,"Ġdeclare":13967,"Ġflushes":13968,"exclusive":13969,"rawunicodeescapestring":13970,"capabilities":13971,"ibling":13972,"Ġstarty":13973,"SetupState":13974,"Correctly":13975,"ĠIncrementalDecoder":13976,"ĠIncrementalEncoder":13977,"assertLessEqual":13978,"ĠFILENAME":13979,"between":13980,"Ġconcatenated":13981,"(\"=\")":13982,"Ġpartitioned":13983,"referrers":13984,"Ġestimated":13985,":,}":13986,"Ġllst":13987,"ĠImmutableMultiDict":13988,"ĠCoroInfo":13989,"Ġcanvheight":13990,"representation":13991,"ĠAPIs":13992,"ĠCarrega":13993,"ĠSVG":13994,"ĠparÃ¢metros":13995,"Ġuniformly":13996,"Ġ3986":13997,"Comment":13998,"-#-#":13999,"Ġsolely":14000,"Ġaccidentally":14001,"-?[":14002,"relevant":14003,"Ġmimic":14004,"getfilesyste":14005,"Ġ**********************************************************************":14006,"GiveupOn":14007,"Printer":14008,"behavi":14009,"HasAttr":14010,"ĠCOLUM":14011,"PREFERRED":14012,"ExactlyOneInvocation":14013,"65052":14014,"NUTYPE":14015,"NOTIFIED":14016,"Ġdiagonally":14017,"asynctask":14018,"ĠÃŃndice":14019,"Ġfashion":14020,"annyNag":14021,"ĠAwaited":14022,"Ġwhichever":14023,"forgiving":14024,"Ġadvancing":14025,"THRESHOLD":14026,"ĠNoAppException":14027,"\"#":14028,"\"(":14029,"\"-":14030,"\"({":14031,"''\\":14032,")``,":14033,")(*":14034,"602":14035,":{":14036,":\"\"\"":14037,"Cho":14038,"Cha":14039,"DEN":14040,"Fraction":14041,"Ht":14042,"IC":14043,"PR":14044,"Please":14045,"Rou":14046,"TS":14047,"Wa":14048,"bundle":14049,"cance":14050,"dk":14051,"hard":14052,"ov":14053,"oid":14054,"pw":14055,"pwd":14056,"pragma":14057,"qdn":14058,"rst":14059,"slot":14060,"zlib":14061,"zily":14062,"}</":14063,"Ġlife":14064,"those":14065,"Ġaverage":14066,"Ġcmp":14067,"alpn":14068,"Ġreap":14069,"Ġpprint":14070,"aton":14071,"atype":14072,"Ġintention":14073,"Ġinspection":14074,"unwrap":14075,"define":14076,"turl":14077,"gethost":14078,"()._":14079,"sitivity":14080,"ĠPage":14081,"ĠPEM":14082,"oding":14083,"Ġhuge":14084,"Ġstrftime":14085,"ĠImplementation":14086,"Ġderive":14087,"('{":14088,"Ġpacket":14089,"ĠAU":14090,"ĠAb":14091,"ĠSDK":14092,"Ġrate":14093,"filemode":14094,"ĠCPU":14095,"ĠFault":14096,"Ġ:]":14097,"setblocking":14098,"Ġ``%":14099,"ysLog":14100,
[...]
